{
  "version": "1.0",
  "truncation": null,
  "padding": null,
  "added_tokens": [
    {
      "id": 0,
      "content": "[UNK]",
      "single_word": false,
      "lstrip": false,
      "rstrip": false,
      "normalized": false,
      "special": true
    },
    {
      "id": 1,
      "content": "[CLS]",
      "single_word": false,
      "lstrip": false,
      "rstrip": false,
      "normalized": false,
      "special": true
    },
    {
      "id": 2,
      "content": "[SEP]",
      "single_word": false,
      "lstrip": false,
      "rstrip": false,
      "normalized": false,
      "special": true
    },
    {
      "id": 3,
      "content": "[PAD]",
      "single_word": false,
      "lstrip": false,
      "rstrip": false,
      "normalized": false,
      "special": true
    },
    {
      "id": 4,
      "content": "[MASK]",
      "single_word": false,
      "lstrip": false,
      "rstrip": false,
      "normalized": false,
      "special": true
    }
  ],
  "normalizer": null,
  "pre_tokenizer": null,
  "post_processor": null,
  "decoder": null,
  "model": {
    "type": "BPE",
    "dropout": null,
    "unk_token": "[UNK]",
    "continuing_subword_prefix": null,
    "end_of_word_suffix": null,
    "fuse_unk": false,
    "byte_fallback": false,
    "ignore_merges": false,
    "vocab": {
      "[UNK]": 0,
      "[CLS]": 1,
      "[SEP]": 2,
      "[PAD]": 3,
      "[MASK]": 4,
      "\n": 5,
      " ": 6,
      "!": 7,
      "\"": 8,
      "#": 9,
      "$": 10,
      "%": 11,
      "&": 12,
      "'": 13,
      "(": 14,
      ")": 15,
      "*": 16,
      "+": 17,
      ",": 18,
      "-": 19,
      ".": 20,
      "/": 21,
      "0": 22,
      "1": 23,
      "2": 24,
      "3": 25,
      "4": 26,
      "5": 27,
      "6": 28,
      "7": 29,
      "8": 30,
      "9": 31,
      ":": 32,
      ";": 33,
      "<": 34,
      "=": 35,
      ">": 36,
      "?": 37,
      "@": 38,
      "A": 39,
      "B": 40,
      "C": 41,
      "D": 42,
      "E": 43,
      "F": 44,
      "G": 45,
      "H": 46,
      "I": 47,
      "J": 48,
      "K": 49,
      "L": 50,
      "M": 51,
      "N": 52,
      "O": 53,
      "P": 54,
      "Q": 55,
      "R": 56,
      "S": 57,
      "T": 58,
      "U": 59,
      "V": 60,
      "W": 61,
      "X": 62,
      "Y": 63,
      "Z": 64,
      "[": 65,
      "\\": 66,
      "]": 67,
      "^": 68,
      "_": 69,
      "`": 70,
      "a": 71,
      "b": 72,
      "c": 73,
      "d": 74,
      "e": 75,
      "f": 76,
      "g": 77,
      "h": 78,
      "i": 79,
      "j": 80,
      "k": 81,
      "l": 82,
      "m": 83,
      "n": 84,
      "o": 85,
      "p": 86,
      "q": 87,
      "r": 88,
      "s": 89,
      "t": 90,
      "u": 91,
      "v": 92,
      "w": 93,
      "x": 94,
      "y": 95,
      "z": 96,
      "{": 97,
      "|": 98,
      "}": 99,
      "~": 100,
      "": 101,
      "": 102,
      "": 103,
      "": 104,
      "": 105,
      "": 106,
      "¡": 107,
      "¢": 108,
      "£": 109,
      "¤": 110,
      "¥": 111,
      "§": 112,
      "©": 113,
      "«": 114,
      "­": 115,
      "®": 116,
      "¯": 117,
      "°": 118,
      "±": 119,
      "²": 120,
      "³": 121,
      "´": 122,
      "µ": 123,
      "¶": 124,
      "·": 125,
      "¹": 126,
      "º": 127,
      "»": 128,
      "¼": 129,
      "½": 130,
      "¾": 131,
      "¿": 132,
      "À": 133,
      "Á": 134,
      "Â": 135,
      "Ä": 136,
      "Å": 137,
      "Æ": 138,
      "Ç": 139,
      "È": 140,
      "É": 141,
      "Ê": 142,
      "Ë": 143,
      "Ì": 144,
      "Í": 145,
      "Î": 146,
      "Ï": 147,
      "Ð": 148,
      "Ñ": 149,
      "Ò": 150,
      "Ó": 151,
      "Ô": 152,
      "Õ": 153,
      "Ö": 154,
      "×": 155,
      "Ø": 156,
      "Ù": 157,
      "Ú": 158,
      "Ü": 159,
      "Ý": 160,
      "Þ": 161,
      "ß": 162,
      "à": 163,
      "á": 164,
      "â": 165,
      "ã": 166,
      "ä": 167,
      "å": 168,
      "æ": 169,
      "ç": 170,
      "è": 171,
      "é": 172,
      "ê": 173,
      "ë": 174,
      "ì": 175,
      "í": 176,
      "î": 177,
      "ï": 178,
      "ð": 179,
      "ñ": 180,
      "ò": 181,
      "ó": 182,
      "ô": 183,
      "õ": 184,
      "ö": 185,
      "÷": 186,
      "ø": 187,
      "ù": 188,
      "ú": 189,
      "û": 190,
      "ü": 191,
      "ý": 192,
      "þ": 193,
      "ÿ": 194,
      "Ā": 195,
      "ā": 196,
      "Ă": 197,
      "ă": 198,
      "ą": 199,
      "Ć": 200,
      "ć": 201,
      "ĉ": 202,
      "Ċ": 203,
      "ċ": 204,
      "Č": 205,
      "č": 206,
      "Ď": 207,
      "ď": 208,
      "Đ": 209,
      "đ": 210,
      "Ē": 211,
      "ē": 212,
      "Ĕ": 213,
      "ĕ": 214,
      "Ė": 215,
      "ė": 216,
      "ę": 217,
      "Ě": 218,
      "ě": 219,
      "ğ": 220,
      "Ġ": 221,
      "ġ": 222,
      "Ģ": 223,
      "ģ": 224,
      "Ĥ": 225,
      "Ħ": 226,
      "ħ": 227,
      "ĩ": 228,
      "Ī": 229,
      "ī": 230,
      "ĭ": 231,
      "į": 232,
      "İ": 233,
      "ı": 234,
      "ĵ": 235,
      "Ķ": 236,
      "ķ": 237,
      "ĸ": 238,
      "ĺ": 239,
      "ļ": 240,
      "Ľ": 241,
      "ľ": 242,
      "Ł": 243,
      "ł": 244,
      "ń": 245,
      "ņ": 246,
      "ň": 247,
      "Ŋ": 248,
      "ŋ": 249,
      "Ō": 250,
      "ō": 251,
      "ŏ": 252,
      "ő": 253,
      "Œ": 254,
      "œ": 255,
      "Ŗ": 256,
      "ŗ": 257,
      "Ř": 258,
      "ř": 259,
      "Ś": 260,
      "ś": 261,
      "Ŝ": 262,
      "Ş": 263,
      "ş": 264,
      "Š": 265,
      "š": 266,
      "Ţ": 267,
      "ţ": 268,
      "ť": 269,
      "ŧ": 270,
      "ũ": 271,
      "Ū": 272,
      "ū": 273,
      "ŭ": 274,
      "ů": 275,
      "ű": 276,
      "ų": 277,
      "ŵ": 278,
      "ŷ": 279,
      "Ź": 280,
      "ź": 281,
      "Ż": 282,
      "ż": 283,
      "Ž": 284,
      "ž": 285,
      "ſ": 286,
      "ƀ": 287,
      "Ɔ": 288,
      "Ƈ": 289,
      "ƈ": 290,
      "Ɖ": 291,
      "ƍ": 292,
      "Ǝ": 293,
      "Ə": 294,
      "Ɛ": 295,
      "ƒ": 296,
      "Ɣ": 297,
      "ƙ": 298,
      "ƛ": 299,
      "ơ": 300,
      "Ƣ": 301,
      "ƥ": 302,
      "ƭ": 303,
      "ư": 304,
      "Ʋ": 305,
      "ƿ": 306,
      "ǀ": 307,
      "ǁ": 308,
      "ǂ": 309,
      "ǃ": 310,
      "ǎ": 311,
      "ǐ": 312,
      "Ǒ": 313,
      "ǒ": 314,
      "ǔ": 315,
      "ǚ": 316,
      "ǜ": 317,
      "ǝ": 318,
      "Ǣ": 319,
      "ǣ": 320,
      "Ǧ": 321,
      "ǧ": 322,
      "Ǫ": 323,
      "ǫ": 324,
      "ǭ": 325,
      "ǰ": 326,
      "ǵ": 327,
      "Ƿ": 328,
      "Ǹ": 329,
      "ǹ": 330,
      "ǽ": 331,
      "Ș": 332,
      "ș": 333,
      "Ț": 334,
      "ț": 335,
      "Ȝ": 336,
      "ȝ": 337,
      "ȟ": 338,
      "ȯ": 339,
      "ȳ": 340,
      "ȷ": 341,
      "ȼ": 342,
      "Ɉ": 343,
      "ɐ": 344,
      "ɑ": 345,
      "ɒ": 346,
      "ɓ": 347,
      "ɔ": 348,
      "ɕ": 349,
      "ɖ": 350,
      "ɗ": 351,
      "ɘ": 352,
      "ə": 353,
      "ɚ": 354,
      "ɛ": 355,
      "ɜ": 356,
      "ɞ": 357,
      "ɟ": 358,
      "ɠ": 359,
      "ɡ": 360,
      "ɢ": 361,
      "ɣ": 362,
      "ɤ": 363,
      "ɥ": 364,
      "ɦ": 365,
      "ɧ": 366,
      "ɨ": 367,
      "ɪ": 368,
      "ɫ": 369,
      "ɬ": 370,
      "ɭ": 371,
      "ɮ": 372,
      "ɯ": 373,
      "ɰ": 374,
      "ɱ": 375,
      "ɲ": 376,
      "ɳ": 377,
      "ɴ": 378,
      "ɵ": 379,
      "ɶ": 380,
      "ɷ": 381,
      "ɸ": 382,
      "ɹ": 383,
      "ɺ": 384,
      "ɻ": 385,
      "ɽ": 386,
      "ɾ": 387,
      "ʀ": 388,
      "ʁ": 389,
      "ʂ": 390,
      "ʃ": 391,
      "ʄ": 392,
      "ʇ": 393,
      "ʈ": 394,
      "ʉ": 395,
      "ʊ": 396,
      "ʋ": 397,
      "ʌ": 398,
      "ʍ": 399,
      "ʎ": 400,
      "ʏ": 401,
      "ʐ": 402,
      "ʑ": 403,
      "ʒ": 404,
      "ʔ": 405,
      "ʕ": 406,
      "ʖ": 407,
      "ʗ": 408,
      "ʘ": 409,
      "ʙ": 410,
      "ʛ": 411,
      "ʝ": 412,
      "ʟ": 413,
      "ʠ": 414,
      "ʡ": 415,
      "ʢ": 416,
      "ʰ": 417,
      "ʱ": 418,
      "ʲ": 419,
      "ʳ": 420,
      "ʷ": 421,
      "ʹ": 422,
      "ʻ": 423,
      "ʼ": 424,
      "ʽ": 425,
      "ʾ": 426,
      "ʿ": 427,
      "ˀ": 428,
      "ˁ": 429,
      "ˆ": 430,
      "ˇ": 431,
      "ˈ": 432,
      "ˌ": 433,
      "ː": 434,
      "ˑ": 435,
      "˔": 436,
      "˕": 437,
      "˖": 438,
      "˘": 439,
      "˚": 440,
      "˜": 441,
      "˞": 442,
      "ˠ": 443,
      "ˢ": 444,
      "ˣ": 445,
      "ˤ": 446,
      "˥": 447,
      "˦": 448,
      "˧": 449,
      "˨": 450,
      "˩": 451,
      "̀": 452,
      "́": 453,
      "̂": 454,
      "̃": 455,
      "̄": 456,
      "̆": 457,
      "̇": 458,
      "̈": 459,
      "̊": 460,
      "̋": 461,
      "̌": 462,
      "̍": 463,
      "̏": 464,
      "̐": 465,
      "̑": 466,
      "̖": 467,
      "̗": 468,
      "̚": 469,
      "̝": 470,
      "̞": 471,
      "̟": 472,
      "̠": 473,
      "̣": 474,
      "̤": 475,
      "̥": 476,
      "̧": 477,
      "̩": 478,
      "̪": 479,
      "̬": 480,
      "̮": 481,
      "̯": 482,
      "̰": 483,
      "̱": 484,
      "̲": 485,
      "̳": 486,
      "̺": 487,
      "̽": 488,
      "͌": 489,
      "͍": 490,
      "͘": 491,
      "͜": 492,
      "͡": 493,
      "΄": 494,
      "Ά": 495,
      "Έ": 496,
      "Ή": 497,
      "Ί": 498,
      "Ό": 499,
      "Ύ": 500,
      "ΐ": 501,
      "Α": 502,
      "Β": 503,
      "Γ": 504,
      "Δ": 505,
      "Ε": 506,
      "Ζ": 507,
      "Η": 508,
      "Θ": 509,
      "Ι": 510,
      "Κ": 511,
      "Λ": 512,
      "Μ": 513,
      "Ν": 514,
      "Ξ": 515,
      "Ο": 516,
      "Π": 517,
      "Ρ": 518,
      "Σ": 519,
      "Τ": 520,
      "Υ": 521,
      "Φ": 522,
      "Χ": 523,
      "Ψ": 524,
      "Ω": 525,
      "ά": 526,
      "έ": 527,
      "ή": 528,
      "ί": 529,
      "α": 530,
      "β": 531,
      "γ": 532,
      "δ": 533,
      "ε": 534,
      "ζ": 535,
      "η": 536,
      "θ": 537,
      "ι": 538,
      "κ": 539,
      "λ": 540,
      "μ": 541,
      "ν": 542,
      "ξ": 543,
      "ο": 544,
      "π": 545,
      "ρ": 546,
      "ς": 547,
      "σ": 548,
      "τ": 549,
      "υ": 550,
      "φ": 551,
      "χ": 552,
      "ψ": 553,
      "ω": 554,
      "ϊ": 555,
      "ό": 556,
      "ύ": 557,
      "ώ": 558,
      "ϑ": 559,
      "ϕ": 560,
      "ϝ": 561,
      "ϟ": 562,
      "ϵ": 563,
      "Ђ": 564,
      "Є": 565,
      "І": 566,
      "Ї": 567,
      "Ј": 568,
      "Љ": 569,
      "Ћ": 570,
      "А": 571,
      "Б": 572,
      "В": 573,
      "Г": 574,
      "Д": 575,
      "Е": 576,
      "Ж": 577,
      "З": 578,
      "И": 579,
      "Й": 580,
      "К": 581,
      "Л": 582,
      "М": 583,
      "Н": 584,
      "О": 585,
      "П": 586,
      "Р": 587,
      "С": 588,
      "Т": 589,
      "У": 590,
      "Ф": 591,
      "Х": 592,
      "Ц": 593,
      "Ч": 594,
      "Ш": 595,
      "Щ": 596,
      "Ъ": 597,
      "Ы": 598,
      "Ь": 599,
      "Э": 600,
      "Ю": 601,
      "Я": 602,
      "а": 603,
      "б": 604,
      "в": 605,
      "г": 606,
      "д": 607,
      "е": 608,
      "ж": 609,
      "з": 610,
      "и": 611,
      "й": 612,
      "к": 613,
      "л": 614,
      "м": 615,
      "н": 616,
      "о": 617,
      "п": 618,
      "р": 619,
      "с": 620,
      "т": 621,
      "у": 622,
      "ф": 623,
      "х": 624,
      "ц": 625,
      "ч": 626,
      "ш": 627,
      "щ": 628,
      "ъ": 629,
      "ы": 630,
      "ь": 631,
      "э": 632,
      "ю": 633,
      "я": 634,
      "ё": 635,
      "ђ": 636,
      "є": 637,
      "і": 638,
      "ї": 639,
      "ј": 640,
      "љ": 641,
      "њ": 642,
      "ћ": 643,
      "ѝ": 644,
      "ў": 645,
      "Ѡ": 646,
      "ѡ": 647,
      "Ѣ": 648,
      "ѣ": 649,
      "ѥ": 650,
      "ѧ": 651,
      "Ѯ": 652,
      "ѹ": 653,
      "҆": 654,
      "ғ": 655,
      "қ": 656,
      "ү": 657,
      "ҳ": 658,
      "ҷ": 659,
      "ӣ": 660,
      "Ө": 661,
      "ө": 662,
      "ӯ": 663,
      "Ӷ": 664,
      "ӷ": 665,
      "Ա": 666,
      "Բ": 667,
      "Գ": 668,
      "Դ": 669,
      "Ե": 670,
      "Զ": 671,
      "Է": 672,
      "Ը": 673,
      "Թ": 674,
      "Ժ": 675,
      "Ի": 676,
      "Լ": 677,
      "Խ": 678,
      "Կ": 679,
      "Հ": 680,
      "Ձ": 681,
      "Ղ": 682,
      "Ճ": 683,
      "Մ": 684,
      "Յ": 685,
      "Ն": 686,
      "Շ": 687,
      "Ո": 688,
      "Պ": 689,
      "Ջ": 690,
      "Ռ": 691,
      "Ս": 692,
      "Վ": 693,
      "Տ": 694,
      "Փ": 695,
      "Ք": 696,
      "Օ": 697,
      "ա": 698,
      "բ": 699,
      "գ": 700,
      "դ": 701,
      "ե": 702,
      "զ": 703,
      "է": 704,
      "ը": 705,
      "թ": 706,
      "ժ": 707,
      "ի": 708,
      "լ": 709,
      "խ": 710,
      "ծ": 711,
      "կ": 712,
      "հ": 713,
      "ձ": 714,
      "ղ": 715,
      "ճ": 716,
      "մ": 717,
      "յ": 718,
      "ն": 719,
      "շ": 720,
      "ո": 721,
      "չ": 722,
      "պ": 723,
      "ջ": 724,
      "ռ": 725,
      "ս": 726,
      "վ": 727,
      "տ": 728,
      "ր": 729,
      "ց": 730,
      "ւ": 731,
      "փ": 732,
      "ք": 733,
      "օ": 734,
      "և": 735,
      "֤": 736,
      "֫": 737,
      "ְ": 738,
      "ֱ": 739,
      "ֲ": 740,
      "ֳ": 741,
      "ִ": 742,
      "ֵ": 743,
      "ֶ": 744,
      "ַ": 745,
      "ָ": 746,
      "ֹ": 747,
      "ֻ": 748,
      "ּ": 749,
      "ֽ": 750,
      "ֿ": 751,
      "ׁ": 752,
      "ׂ": 753,
      "א": 754,
      "ב": 755,
      "ג": 756,
      "ד": 757,
      "ה": 758,
      "ו": 759,
      "ז": 760,
      "ח": 761,
      "ט": 762,
      "י": 763,
      "ך": 764,
      "כ": 765,
      "ל": 766,
      "ם": 767,
      "מ": 768,
      "ן": 769,
      "נ": 770,
      "ס": 771,
      "ע": 772,
      "ף": 773,
      "פ": 774,
      "ץ": 775,
      "צ": 776,
      "ק": 777,
      "ר": 778,
      "ש": 779,
      "ת": 780,
      "ױ": 781,
      "׳": 782,
      "،": 783,
      "ء": 784,
      "آ": 785,
      "أ": 786,
      "ؤ": 787,
      "إ": 788,
      "ئ": 789,
      "ا": 790,
      "ب": 791,
      "ة": 792,
      "ت": 793,
      "ث": 794,
      "ج": 795,
      "ح": 796,
      "خ": 797,
      "د": 798,
      "ذ": 799,
      "ر": 800,
      "ز": 801,
      "س": 802,
      "ش": 803,
      "ص": 804,
      "ض": 805,
      "ط": 806,
      "ظ": 807,
      "ع": 808,
      "غ": 809,
      "ـ": 810,
      "ف": 811,
      "ق": 812,
      "ك": 813,
      "ل": 814,
      "م": 815,
      "ن": 816,
      "ه": 817,
      "و": 818,
      "ى": 819,
      "ي": 820,
      "ً": 821,
      "ٌ": 822,
      "ٍ": 823,
      "َ": 824,
      "ُ": 825,
      "ِ": 826,
      "ّ": 827,
      "ْ": 828,
      "ٔ": 829,
      "١": 830,
      "٧": 831,
      "ٰ": 832,
      "پ": 833,
      "چ": 834,
      "ڈ": 835,
      "ڠ": 836,
      "ک": 837,
      "ڬ": 838,
      "گ": 839,
      "ں": 840,
      "ھ": 841,
      "ہ": 842,
      "ی": 843,
      "ۍ": 844,
      "ے": 845,
      "ە": 846,
      "ܐ": 847,
      "ܒ": 848,
      "ܔ": 849,
      "ܕ": 850,
      "ܗ": 851,
      "ܘ": 852,
      "ܙ": 853,
      "ܚ": 854,
      "ܛ": 855,
      "ܝ": 856,
      "ܠ": 857,
      "ܡ": 858,
      "ܢ": 859,
      "ܣ": 860,
      "ܥ": 861,
      "ܦ": 862,
      "ܪ": 863,
      "ܬ": 864,
      "ܲ": 865,
      "ܵ": 866,
      "ܼ": 867,
      "݂": 868,
      "ँ": 869,
      "ं": 870,
      "ः": 871,
      "अ": 872,
      "आ": 873,
      "इ": 874,
      "ई": 875,
      "उ": 876,
      "ऋ": 877,
      "ए": 878,
      "ऐ": 879,
      "औ": 880,
      "क": 881,
      "ख": 882,
      "ग": 883,
      "घ": 884,
      "ङ": 885,
      "च": 886,
      "छ": 887,
      "ज": 888,
      "ञ": 889,
      "ट": 890,
      "ठ": 891,
      "ड": 892,
      "ण": 893,
      "त": 894,
      "थ": 895,
      "द": 896,
      "ध": 897,
      "न": 898,
      "प": 899,
      "फ": 900,
      "ब": 901,
      "भ": 902,
      "म": 903,
      "य": 904,
      "र": 905,
      "ल": 906,
      "व": 907,
      "श": 908,
      "ष": 909,
      "स": 910,
      "ह": 911,
      "़": 912,
      "ऽ": 913,
      "ा": 914,
      "ि": 915,
      "ी": 916,
      "ु": 917,
      "ू": 918,
      "ृ": 919,
      "ॆ": 920,
      "े": 921,
      "ै": 922,
      "ॉ": 923,
      "ॊ": 924,
      "ो": 925,
      "ौ": 926,
      "्": 927,
      "ॐ": 928,
      "।": 929,
      "॥": 930,
      "१": 931,
      "२": 932,
      "३": 933,
      "ং": 934,
      "অ": 935,
      "আ": 936,
      "ই": 937,
      "এ": 938,
      "ক": 939,
      "খ": 940,
      "গ": 941,
      "ঙ": 942,
      "চ": 943,
      "জ": 944,
      "ট": 945,
      "ড": 946,
      "ঢ": 947,
      "ণ": 948,
      "ত": 949,
      "থ": 950,
      "দ": 951,
      "ন": 952,
      "প": 953,
      "ব": 954,
      "ভ": 955,
      "ম": 956,
      "য": 957,
      "র": 958,
      "ল": 959,
      "শ": 960,
      "ষ": 961,
      "স": 962,
      "হ": 963,
      "়": 964,
      "া": 965,
      "ি": 966,
      "ী": 967,
      "ু": 968,
      "ূ": 969,
      "ে": 970,
      "ৈ": 971,
      "ো": 972,
      "্": 973,
      "ৰ": 974,
      "ਂ": 975,
      "ਅ": 976,
      "ਉ": 977,
      "ਖ": 978,
      "ਘ": 979,
      "ਜ": 980,
      "ਝ": 981,
      "ਦ": 982,
      "ਲ": 983,
      "ਵ": 984,
      "ਸ": 985,
      "ਹ": 986,
      "਼": 987,
      "ਾ": 988,
      "ਿ": 989,
      "ੁ": 990,
      "ੇ": 991,
      "ੰ": 992,
      "ੱ": 993,
      "ખ": 994,
      "ફ": 995,
      "બ": 996,
      "ર": 997,
      "લ": 998,
      "સ": 999,
      "ા": 1000,
      "ો": 1001,
      "ପ": 1002,
      "ର": 1003,
      "ୀ": 1004,
      "ୁ": 1005,
      "ஃ": 1006,
      "அ": 1007,
      "ஆ": 1008,
      "இ": 1009,
      "ஈ": 1010,
      "எ": 1011,
      "ஒ": 1012,
      "க": 1013,
      "ங": 1014,
      "ச": 1015,
      "ட": 1016,
      "ண": 1017,
      "த": 1018,
      "ந": 1019,
      "ன": 1020,
      "ப": 1021,
      "ம": 1022,
      "ய": 1023,
      "ர": 1024,
      "ற": 1025,
      "ல": 1026,
      "ள": 1027,
      "ழ": 1028,
      "வ": 1029,
      "ஸ": 1030,
      "ா": 1031,
      "ி": 1032,
      "ீ": 1033,
      "ு": 1034,
      "ூ": 1035,
      "ெ": 1036,
      "ே": 1037,
      "ை": 1038,
      "ோ": 1039,
      "்": 1040,
      "ం": 1041,
      "క": 1042,
      "ఖ": 1043,
      "గ": 1044,
      "జ": 1045,
      "ట": 1046,
      "ఠ": 1047,
      "డ": 1048,
      "త": 1049,
      "థ": 1050,
      "ద": 1051,
      "న": 1052,
      "ప": 1053,
      "బ": 1054,
      "భ": 1055,
      "మ": 1056,
      "య": 1057,
      "ర": 1058,
      "ల": 1059,
      "వ": 1060,
      "ష": 1061,
      "స": 1062,
      "ా": 1063,
      "ి": 1064,
      "ీ": 1065,
      "ు": 1066,
      "ై": 1067,
      "ో": 1068,
      "్": 1069,
      "ಂ": 1070,
      "ಃ": 1071,
      "ಕ": 1072,
      "ಖ": 1073,
      "ಗ": 1074,
      "ಚ": 1075,
      "ಟ": 1076,
      "ಠ": 1077,
      "ಡ": 1078,
      "ತ": 1079,
      "ದ": 1080,
      "ನ": 1081,
      "ಪ": 1082,
      "ಬ": 1083,
      "ಭ": 1084,
      "ಮ": 1085,
      "ಯ": 1086,
      "ರ": 1087,
      "ಱ": 1088,
      "ಲ": 1089,
      "ಳ": 1090,
      "ವ": 1091,
      "ಶ": 1092,
      "ಸ": 1093,
      "ಹ": 1094,
      "ಾ": 1095,
      "ಿ": 1096,
      "ು": 1097,
      "ೇ": 1098,
      "ೋ": 1099,
      "್": 1100,
      "ೞ": 1101,
      "അ": 1102,
      "ങ": 1103,
      "ദ": 1104,
      "ന": 1105,
      "പ": 1106,
      "മ": 1107,
      "യ": 1108,
      "ര": 1109,
      "ള": 1110,
      "വ": 1111,
      "ശ": 1112,
      "സ": 1113,
      "ഹ": 1114,
      "ാ": 1115,
      "ി": 1116,
      "്": 1117,
      "අ": 1118,
      "එ": 1119,
      "ක": 1120,
      "ග": 1121,
      "ජ": 1122,
      "ත": 1123,
      "ධ": 1124,
      "න": 1125,
      "ප": 1126,
      "ම": 1127,
      "ය": 1128,
      "ර": 1129,
      "ල": 1130,
      "ව": 1131,
      "ශ": 1132,
      "හ": 1133,
      "ළ": 1134,
      "්": 1135,
      "ා": 1136,
      "ැ": 1137,
      "ි": 1138,
      "ු": 1139,
      "ේ": 1140,
      "ෝ": 1141,
      "ก": 1142,
      "ข": 1143,
      "ค": 1144,
      "ฆ": 1145,
      "ง": 1146,
      "จ": 1147,
      "ฉ": 1148,
      "ช": 1149,
      "ซ": 1150,
      "ญ": 1151,
      "ฎ": 1152,
      "ฏ": 1153,
      "ฐ": 1154,
      "ฑ": 1155,
      "ณ": 1156,
      "ด": 1157,
      "ต": 1158,
      "ถ": 1159,
      "ท": 1160,
      "ธ": 1161,
      "น": 1162,
      "บ": 1163,
      "ป": 1164,
      "ผ": 1165,
      "ฝ": 1166,
      "พ": 1167,
      "ฟ": 1168,
      "ภ": 1169,
      "ม": 1170,
      "ย": 1171,
      "ร": 1172,
      "ฤ": 1173,
      "ล": 1174,
      "ว": 1175,
      "ศ": 1176,
      "ษ": 1177,
      "ส": 1178,
      "ห": 1179,
      "ฬ": 1180,
      "อ": 1181,
      "ฮ": 1182,
      "ะ": 1183,
      "ั": 1184,
      "า": 1185,
      "ำ": 1186,
      "ิ": 1187,
      "ี": 1188,
      "ึ": 1189,
      "ื": 1190,
      "ุ": 1191,
      "ู": 1192,
      "฿": 1193,
      "เ": 1194,
      "แ": 1195,
      "โ": 1196,
      "ใ": 1197,
      "ไ": 1198,
      "็": 1199,
      "่": 1200,
      "้": 1201,
      "๊": 1202,
      "์": 1203,
      "་": 1204,
      "༌": 1205,
      "།": 1206,
      "ཀ": 1207,
      "ཁ": 1208,
      "ག": 1209,
      "ང": 1210,
      "ཆ": 1211,
      "ཇ": 1212,
      "ཐ": 1213,
      "ད": 1214,
      "ན": 1215,
      "པ": 1216,
      "བ": 1217,
      "མ": 1218,
      "ཙ": 1219,
      "ཚ": 1220,
      "ཛ": 1221,
      "འ": 1222,
      "ཡ": 1223,
      "ར": 1224,
      "ལ": 1225,
      "ས": 1226,
      "ཧ": 1227,
      "ི": 1228,
      "ུ": 1229,
      "ེ": 1230,
      "ོ": 1231,
      "ྟ": 1232,
      "ྡ": 1233,
      "ྣ": 1234,
      "ྤ": 1235,
      "ྥ": 1236,
      "ྱ": 1237,
      "ྲ": 1238,
      "က": 1239,
      "ဂ": 1240,
      "င": 1241,
      "စ": 1242,
      "ဆ": 1243,
      "န": 1244,
      "ပ": 1245,
      "ဗ": 1246,
      "ဘ": 1247,
      "မ": 1248,
      "ယ": 1249,
      "ရ": 1250,
      "လ": 1251,
      "ဝ": 1252,
      "ဟ": 1253,
      "ာ": 1254,
      "ိ": 1255,
      "ီ": 1256,
      "ု": 1257,
      "ူ": 1258,
      "ဲ": 1259,
      "း": 1260,
      "္": 1261,
      "်": 1262,
      "ျ": 1263,
      "ြ": 1264,
      "ှ": 1265,
      "Ⴀ": 1266,
      "Ⴂ": 1267,
      "Ⴃ": 1268,
      "Ⴈ": 1269,
      "Ⴌ": 1270,
      "Ⴕ": 1271,
      "Ⴟ": 1272,
      "ა": 1273,
      "ბ": 1274,
      "გ": 1275,
      "დ": 1276,
      "ე": 1277,
      "ვ": 1278,
      "ზ": 1279,
      "თ": 1280,
      "ი": 1281,
      "კ": 1282,
      "ლ": 1283,
      "მ": 1284,
      "ნ": 1285,
      "ო": 1286,
      "პ": 1287,
      "ჟ": 1288,
      "რ": 1289,
      "ს": 1290,
      "ტ": 1291,
      "უ": 1292,
      "ფ": 1293,
      "ქ": 1294,
      "ღ": 1295,
      "ყ": 1296,
      "შ": 1297,
      "ჩ": 1298,
      "ც": 1299,
      "ძ": 1300,
      "წ": 1301,
      "ჭ": 1302,
      "ხ": 1303,
      "ჯ": 1304,
      "ჰ": 1305,
      "ჱ": 1306,
      "ჲ": 1307,
      "ჳ": 1308,
      "ჴ": 1309,
      "ჵ": 1310,
      "ჶ": 1311,
      "ჷ": 1312,
      "ჸ": 1313,
      "ჹ": 1314,
      "ჺ": 1315,
      "჻": 1316,
      "ሀ": 1317,
      "ለ": 1318,
      "ሐ": 1319,
      "ሓ": 1320,
      "ሕ": 1321,
      "መ": 1322,
      "ማ": 1323,
      "ሥ": 1324,
      "ረ": 1325,
      "ር": 1326,
      "ሰ": 1327,
      "ስ": 1328,
      "ቆ": 1329,
      "ቈ": 1330,
      "በ": 1331,
      "ብ": 1332,
      "ቲ": 1333,
      "ታ": 1334,
      "ት": 1335,
      "ነ": 1336,
      "ና": 1337,
      "ን": 1338,
      "ኖ": 1339,
      "አ": 1340,
      "ኢ": 1341,
      "እ": 1342,
      "ከ": 1343,
      "ኲ": 1344,
      "ዕ": 1345,
      "ዘ": 1346,
      "ዛ": 1347,
      "የ": 1348,
      "ያ": 1349,
      "ይ": 1350,
      "ዮ": 1351,
      "ደ": 1352,
      "ድ": 1353,
      "ጅ": 1354,
      "ገ": 1355,
      "ጉ": 1356,
      "ጵ": 1357,
      "ፈ": 1358,
      "ፍ": 1359,
      "፡": 1360,
      "Ꭰ": 1361,
      "Ꭳ": 1362,
      "Ꭶ": 1363,
      "Ꭸ": 1364,
      "Ꭹ": 1365,
      "Ꮀ": 1366,
      "Ꮃ": 1367,
      "Ꮉ": 1368,
      "Ꮝ": 1369,
      "Ꮿ": 1370,
      "Ᏹ": 1371,
      "ᐊ": 1372,
      "ᑲ": 1373,
      "ᒡ": 1374,
      "ᓘ": 1375,
      "ᚢ": 1376,
      "ᚣ": 1377,
      "ᚦ": 1378,
      "ᚨ": 1379,
      "ᚩ": 1380,
      "ᚬ": 1381,
      "ᚱ": 1382,
      "ᚷ": 1383,
      "ᚹ": 1384,
      "ᚺ": 1385,
      "ᚻ": 1386,
      "ᚼ": 1387,
      "ᚾ": 1388,
      "ᛁ": 1389,
      "ᛃ": 1390,
      "ᛄ": 1391,
      "ᛇ": 1392,
      "ᛋ": 1393,
      "ᛏ": 1394,
      "ᛒ": 1395,
      "ᛗ": 1396,
      "ᛚ": 1397,
      "ᛝ": 1398,
      "ᛞ": 1399,
      "ᛟ": 1400,
      "ᛠ": 1401,
      "ក": 1402,
      "ខ": 1403,
      "គ": 1404,
      "ង": 1405,
      "ច": 1406,
      "ឆ": 1407,
      "ជ": 1408,
      "ញ": 1409,
      "ដ": 1410,
      "ឋ": 1411,
      "ណ": 1412,
      "ត": 1413,
      "ថ": 1414,
      "ទ": 1415,
      "ធ": 1416,
      "ន": 1417,
      "ប": 1418,
      "ព": 1419,
      "ភ": 1420,
      "ម": 1421,
      "យ": 1422,
      "រ": 1423,
      "ល": 1424,
      "វ": 1425,
      "ស": 1426,
      "ហ": 1427,
      "អ": 1428,
      "ឥ": 1429,
      "ឪ": 1430,
      "ឫ": 1431,
      "ឯ": 1432,
      "឵": 1433,
      "ា": 1434,
      "ិ": 1435,
      "ី": 1436,
      "ឹ": 1437,
      "ឺ": 1438,
      "ុ": 1439,
      "ូ": 1440,
      "ួ": 1441,
      "ៀ": 1442,
      "េ": 1443,
      "ែ": 1444,
      "ៃ": 1445,
      "ោ": 1446,
      "ៅ": 1447,
      "ំ": 1448,
      "ះ": 1449,
      "ៈ": 1450,
      "៉": 1451,
      "់": 1452,
      "្": 1453,
      "ᠠ": 1454,
      "ᠣ": 1455,
      "ᠨ": 1456,
      "ᠪ": 1457,
      "ᠮ": 1458,
      "ᠯ": 1459,
      "ᠰ": 1460,
      "ᠴ": 1461,
      "ᠵ": 1462,
      "ᠸ": 1463,
      "ᡝ": 1464,
      "ᡠ": 1465,
      "ᡥ": 1466,
      "ᡨ": 1467,
      "ᡳ": 1468,
      "ᡴ": 1469,
      "ᡵ": 1470,
      "ᴰ": 1471,
      "ᴷ": 1472,
      "ᴺ": 1473,
      "ᵀ": 1474,
      "ᵊ": 1475,
      "ᵑ": 1476,
      "ᵗ": 1477,
      "ᵘ": 1478,
      "ᵝ": 1479,
      "ᵻ": 1480,
      "ᵿ": 1481,
      "ᶑ": 1482,
      "ᶢ": 1483,
      "ᶦ": 1484,
      "ᶴ": 1485,
      "ᶷ": 1486,
      "᷄": 1487,
      "᷅": 1488,
      "᷆": 1489,
      "᷇": 1490,
      "᷈": 1491,
      "᷉": 1492,
      "᷽": 1493,
      "Ḍ": 1494,
      "ḍ": 1495,
      "Ḏ": 1496,
      "ḏ": 1497,
      "ḑ": 1498,
      "ḕ": 1499,
      "ḗ": 1500,
      "Ḣ": 1501,
      "Ḥ": 1502,
      "ḥ": 1503,
      "Ḩ": 1504,
      "ḩ": 1505,
      "Ḫ": 1506,
      "ḫ": 1507,
      "ḭ": 1508,
      "ḱ": 1509,
      "Ḳ": 1510,
      "ḳ": 1511,
      "ḵ": 1512,
      "ḷ": 1513,
      "ḹ": 1514,
      "ḻ": 1515,
      "ḿ": 1516,
      "ṁ": 1517,
      "ṃ": 1518,
      "ṅ": 1519,
      "ṇ": 1520,
      "ṉ": 1521,
      "ṓ": 1522,
      "ṙ": 1523,
      "Ṛ": 1524,
      "ṛ": 1525,
      "Ṝ": 1526,
      "ṝ": 1527,
      "ṟ": 1528,
      "Ṣ": 1529,
      "ṣ": 1530,
      "Ṧ": 1531,
      "Ṫ": 1532,
      "Ṭ": 1533,
      "ṭ": 1534,
      "Ṯ": 1535,
      "ṯ": 1536,
      "ṳ": 1537,
      "ṵ": 1538,
      "Ṽ": 1539,
      "ṽ": 1540,
      "ẃ": 1541,
      "Ẓ": 1542,
      "ẓ": 1543,
      "ẖ": 1544,
      "ạ": 1545,
      "ả": 1546,
      "Ấ": 1547,
      "ấ": 1548,
      "ầ": 1549,
      "Ẩ": 1550,
      "ẩ": 1551,
      "ẫ": 1552,
      "ậ": 1553,
      "ắ": 1554,
      "ằ": 1555,
      "ẵ": 1556,
      "ặ": 1557,
      "ẹ": 1558,
      "ẻ": 1559,
      "ẽ": 1560,
      "ế": 1561,
      "ề": 1562,
      "ể": 1563,
      "ễ": 1564,
      "ệ": 1565,
      "ỉ": 1566,
      "ị": 1567,
      "Ọ": 1568,
      "ọ": 1569,
      "ỏ": 1570,
      "Ố": 1571,
      "ố": 1572,
      "ồ": 1573,
      "ổ": 1574,
      "ỗ": 1575,
      "ộ": 1576,
      "ớ": 1577,
      "ờ": 1578,
      "ở": 1579,
      "ợ": 1580,
      "Ụ": 1581,
      "ụ": 1582,
      "ủ": 1583,
      "Ứ": 1584,
      "ứ": 1585,
      "ừ": 1586,
      "ử": 1587,
      "ữ": 1588,
      "ự": 1589,
      "ỳ": 1590,
      "ỵ": 1591,
      "ỹ": 1592,
      "ἀ": 1593,
      "ἁ": 1594,
      "ἂ": 1595,
      "ἃ": 1596,
      "ἄ": 1597,
      "ἅ": 1598,
      "Ἀ": 1599,
      "Ἁ": 1600,
      "Ἄ": 1601,
      "Ἅ": 1602,
      "ἐ": 1603,
      "ἑ": 1604,
      "ἒ": 1605,
      "ἔ": 1606,
      "ἕ": 1607,
      "Ἐ": 1608,
      "Ἑ": 1609,
      "Ἔ": 1610,
      "Ἕ": 1611,
      "ἠ": 1612,
      "ἡ": 1613,
      "ἢ": 1614,
      "ἤ": 1615,
      "ἥ": 1616,
      "ἦ": 1617,
      "ἧ": 1618,
      "Ἠ": 1619,
      "Ἡ": 1620,
      "ἰ": 1621,
      "ἱ": 1622,
      "ἲ": 1623,
      "ἳ": 1624,
      "ἴ": 1625,
      "ἵ": 1626,
      "ἶ": 1627,
      "ἷ": 1628,
      "Ἰ": 1629,
      "Ἱ": 1630,
      "Ἶ": 1631,
      "ὀ": 1632,
      "ὁ": 1633,
      "ὂ": 1634,
      "ὃ": 1635,
      "ὄ": 1636,
      "ὅ": 1637,
      "Ὁ": 1638,
      "Ὄ": 1639,
      "ὐ": 1640,
      "ὑ": 1641,
      "ὔ": 1642,
      "ὕ": 1643,
      "ὖ": 1644,
      "ὗ": 1645,
      "Ὕ": 1646,
      "ὡ": 1647,
      "ὣ": 1648,
      "ὤ": 1649,
      "ὥ": 1650,
      "ὦ": 1651,
      "Ὠ": 1652,
      "Ὡ": 1653,
      "Ὦ": 1654,
      "ὰ": 1655,
      "ὲ": 1656,
      "ὴ": 1657,
      "ὶ": 1658,
      "ὸ": 1659,
      "ὺ": 1660,
      "ὼ": 1661,
      "ᾓ": 1662,
      "ᾰ": 1663,
      "ᾳ": 1664,
      "ᾶ": 1665,
      "ᾷ": 1666,
      "᾿": 1667,
      "ῆ": 1668,
      "ῇ": 1669,
      "Ὲ": 1670,
      "ῐ": 1671,
      "ῑ": 1672,
      "ῖ": 1673,
      "Ὶ": 1674,
      "ῠ": 1675,
      "ῥ": 1676,
      "ῦ": 1677,
      "Ῥ": 1678,
      "ῳ": 1679,
      "ῶ": 1680,
      "ῷ": 1681,
      "​": 1682,
      "‌": 1683,
      "‍": 1684,
      "‐": 1685,
      "‑": 1686,
      "‒": 1687,
      "–": 1688,
      "—": 1689,
      "―": 1690,
      "‖": 1691,
      "‘": 1692,
      "’": 1693,
      "‚": 1694,
      "‛": 1695,
      "“": 1696,
      "”": 1697,
      "„": 1698,
      "‟": 1699,
      "†": 1700,
      "‡": 1701,
      "•": 1702,
      "…": 1703,
      "‰": 1704,
      "′": 1705,
      "″": 1706,
      "※": 1707,
      "‼": 1708,
      "‿": 1709,
      "⁄": 1710,
      "⁊": 1711,
      "⁠": 1712,
      "⁡": 1713,
      "⁰": 1714,
      "⁺": 1715,
      "ⁿ": 1716,
      "₁": 1717,
      "₂": 1718,
      "₃": 1719,
      "₄": 1720,
      "₡": 1721,
      "₣": 1722,
      "₤": 1723,
      "₦": 1724,
      "₧": 1725,
      "₨": 1726,
      "₩": 1727,
      "₫": 1728,
      "€": 1729,
      "₱": 1730,
      "₴": 1731,
      "₹": 1732,
      "ℂ": 1733,
      "℃": 1734,
      "ℓ": 1735,
      "ℕ": 1736,
      "№": 1737,
      "ℛ": 1738,
      "ℝ": 1739,
      "℞": 1740,
      "™": 1741,
      "ℤ": 1742,
      "℥": 1743,
      "ℵ": 1744,
      "⅓": 1745,
      "⅔": 1746,
      "⅙": 1747,
      "⅛": 1748,
      "⅜": 1749,
      "⅝": 1750,
      "⅞": 1751,
      "Ⅱ": 1752,
      "←": 1753,
      "↑": 1754,
      "→": 1755,
      "↓": 1756,
      "↔": 1757,
      "↗": 1758,
      "↘": 1759,
      "↦": 1760,
      "↪": 1761,
      "↵": 1762,
      "⇄": 1763,
      "⇌": 1764,
      "⇒": 1765,
      "⇪": 1766,
      "∀": 1767,
      "∂": 1768,
      "∅": 1769,
      "∆": 1770,
      "∇": 1771,
      "∈": 1772,
      "∉": 1773,
      "∊": 1774,
      "∑": 1775,
      "−": 1776,
      "∕": 1777,
      "∖": 1778,
      "∗": 1779,
      "∘": 1780,
      "√": 1781,
      "∝": 1782,
      "∞": 1783,
      "∤": 1784,
      "∩": 1785,
      "∪": 1786,
      "∫": 1787,
      "∴": 1788,
      "∼": 1789,
      "≈": 1790,
      "≠": 1791,
      "≡": 1792,
      "≢": 1793,
      "≤": 1794,
      "≥": 1795,
      "≪": 1796,
      "≫": 1797,
      "≲": 1798,
      "⊂": 1799,
      "⊕": 1800,
      "⊗": 1801,
      "⊙": 1802,
      "⊞": 1803,
      "⊢": 1804,
      "⊣": 1805,
      "⊥": 1806,
      "⋅": 1807,
      "⋆": 1808,
      "⋯": 1809,
      "⌊": 1810,
      "⌋": 1811,
      "⌘": 1812,
      "①": 1813,
      "②": 1814,
      "③": 1815,
      "④": 1816,
      "⑤": 1817,
      "⑥": 1818,
      "⑦": 1819,
      "⑧": 1820,
      "─": 1821,
      "█": 1822,
      "▢": 1823,
      "▲": 1824,
      "▼": 1825,
      "○": 1826,
      "●": 1827,
      "◦": 1828,
      "☄": 1829,
      "★": 1830,
      "☆": 1831,
      "☉": 1832,
      "☧": 1833,
      "☫": 1834,
      "☭": 1835,
      "☽": 1836,
      "☾": 1837,
      "♀": 1838,
      "♂": 1839,
      "♄": 1840,
      "♅": 1841,
      "♆": 1842,
      "♇": 1843,
      "♈": 1844,
      "♉": 1845,
      "♠": 1846,
      "♣": 1847,
      "♥": 1848,
      "♦": 1849,
      "♩": 1850,
      "♪": 1851,
      "♭": 1852,
      "♮": 1853,
      "♯": 1854,
      "⚳": 1855,
      "⚴": 1856,
      "⚵": 1857,
      "⛢": 1858,
      "✡": 1859,
      "✱": 1860,
      "❄": 1861,
      "❅": 1862,
      "❆": 1863,
      "❤": 1864,
      "⟦": 1865,
      "⟧": 1866,
      "⟨": 1867,
      "⟩": 1868,
      "⥇": 1869,
      "⩽": 1870,
      "⫶": 1871,
      "ⱱ": 1872,
      "ⲁ": 1873,
      "ⲛ": 1874,
      "ⲥ": 1875,
      "ⲧ": 1876,
      "ⲩ": 1877,
      "Ⲫ": 1878,
      "ⲱ": 1879,
      "ⴰ": 1880,
      "ⴳ": 1881,
      "ⴷ": 1882,
      "ⴻ": 1883,
      "ⴼ": 1884,
      "ⴽ": 1885,
      "ⵃ": 1886,
      "ⵇ": 1887,
      "ⵉ": 1888,
      "ⵍ": 1889,
      "ⵎ": 1890,
      "ⵏ": 1891,
      "ⵓ": 1892,
      "ⵔ": 1893,
      "ⵕ": 1894,
      "ⵖ": 1895,
      "ⵙ": 1896,
      "ⵛ": 1897,
      "ⵜ": 1898,
      "ⵡ": 1899,
      "ⵢ": 1900,
      "ⵣ": 1901,
      "⸨": 1902,
      "⸩": 1903,
      "、": 1904,
      "。": 1905,
      "々": 1906,
      "〈": 1907,
      "〉": 1908,
      "《": 1909,
      "》": 1910,
      "「": 1911,
      "」": 1912,
      "『": 1913,
      "』": 1914,
      "【": 1915,
      "】": 1916,
      "〒": 1917,
      "〜": 1918,
      "あ": 1919,
      "ぃ": 1920,
      "い": 1921,
      "ぅ": 1922,
      "う": 1923,
      "ぇ": 1924,
      "え": 1925,
      "ぉ": 1926,
      "お": 1927,
      "か": 1928,
      "が": 1929,
      "き": 1930,
      "ぎ": 1931,
      "く": 1932,
      "ぐ": 1933,
      "け": 1934,
      "げ": 1935,
      "こ": 1936,
      "ご": 1937,
      "さ": 1938,
      "ざ": 1939,
      "し": 1940,
      "じ": 1941,
      "す": 1942,
      "ず": 1943,
      "せ": 1944,
      "ぜ": 1945,
      "そ": 1946,
      "ぞ": 1947,
      "た": 1948,
      "だ": 1949,
      "ち": 1950,
      "っ": 1951,
      "つ": 1952,
      "づ": 1953,
      "て": 1954,
      "で": 1955,
      "と": 1956,
      "ど": 1957,
      "な": 1958,
      "に": 1959,
      "ぬ": 1960,
      "ね": 1961,
      "の": 1962,
      "は": 1963,
      "ば": 1964,
      "ぱ": 1965,
      "ひ": 1966,
      "び": 1967,
      "ぴ": 1968,
      "ふ": 1969,
      "ぶ": 1970,
      "ぷ": 1971,
      "へ": 1972,
      "べ": 1973,
      "ぺ": 1974,
      "ほ": 1975,
      "ぼ": 1976,
      "ぽ": 1977,
      "ま": 1978,
      "み": 1979,
      "む": 1980,
      "め": 1981,
      "も": 1982,
      "ゃ": 1983,
      "や": 1984,
      "ゅ": 1985,
      "ゆ": 1986,
      "ょ": 1987,
      "よ": 1988,
      "ら": 1989,
      "り": 1990,
      "る": 1991,
      "れ": 1992,
      "ろ": 1993,
      "わ": 1994,
      "ゑ": 1995,
      "を": 1996,
      "ん": 1997,
      "ァ": 1998,
      "ア": 1999,
      "ィ": 2000,
      "イ": 2001,
      "ゥ": 2002,
      "ウ": 2003,
      "ェ": 2004,
      "エ": 2005,
      "ォ": 2006,
      "オ": 2007,
      "カ": 2008,
      "ガ": 2009,
      "キ": 2010,
      "ギ": 2011,
      "ク": 2012,
      "グ": 2013,
      "ケ": 2014,
      "ゲ": 2015,
      "コ": 2016,
      "ゴ": 2017,
      "サ": 2018,
      "ザ": 2019,
      "シ": 2020,
      "ジ": 2021,
      "ス": 2022,
      "ズ": 2023,
      "セ": 2024,
      "ゼ": 2025,
      "ソ": 2026,
      "ゾ": 2027,
      "タ": 2028,
      "ダ": 2029,
      "チ": 2030,
      "ヂ": 2031,
      "ッ": 2032,
      "ツ": 2033,
      "ヅ": 2034,
      "テ": 2035,
      "デ": 2036,
      "ト": 2037,
      "ド": 2038,
      "ナ": 2039,
      "ニ": 2040,
      "ヌ": 2041,
      "ネ": 2042,
      "ノ": 2043,
      "ハ": 2044,
      "バ": 2045,
      "パ": 2046,
      "ヒ": 2047,
      "ビ": 2048,
      "ピ": 2049,
      "フ": 2050,
      "ブ": 2051,
      "プ": 2052,
      "ヘ": 2053,
      "ベ": 2054,
      "ペ": 2055,
      "ホ": 2056,
      "ボ": 2057,
      "ポ": 2058,
      "マ": 2059,
      "ミ": 2060,
      "ム": 2061,
      "メ": 2062,
      "モ": 2063,
      "ャ": 2064,
      "ヤ": 2065,
      "ュ": 2066,
      "ユ": 2067,
      "ョ": 2068,
      "ヨ": 2069,
      "ラ": 2070,
      "リ": 2071,
      "ル": 2072,
      "レ": 2073,
      "ロ": 2074,
      "ワ": 2075,
      "ヲ": 2076,
      "ン": 2077,
      "ヴ": 2078,
      "ヶ": 2079,
      "・": 2080,
      "ー": 2081,
      "一": 2082,
      "丁": 2083,
      "七": 2084,
      "万": 2085,
      "丈": 2086,
      "三": 2087,
      "上": 2088,
      "下": 2089,
      "不": 2090,
      "与": 2091,
      "丑": 2092,
      "且": 2093,
      "世": 2094,
      "丘": 2095,
      "丙": 2096,
      "东": 2097,
      "丝": 2098,
      "丞": 2099,
      "両": 2100,
      "丨": 2101,
      "个": 2102,
      "中": 2103,
      "丶": 2104,
      "丸": 2105,
      "丹": 2106,
      "为": 2107,
      "主": 2108,
      "丽": 2109,
      "丿": 2110,
      "乃": 2111,
      "久": 2112,
      "么": 2113,
      "义": 2114,
      "之": 2115,
      "乌": 2116,
      "乎": 2117,
      "乐": 2118,
      "乘": 2119,
      "乙": 2120,
      "乚": 2121,
      "乛": 2122,
      "九": 2123,
      "也": 2124,
      "习": 2125,
      "书": 2126,
      "乩": 2127,
      "买": 2128,
      "乱": 2129,
      "乳": 2130,
      "乾": 2131,
      "亀": 2132,
      "亅": 2133,
      "了": 2134,
      "予": 2135,
      "争": 2136,
      "事": 2137,
      "二": 2138,
      "云": 2139,
      "五": 2140,
      "井": 2141,
      "亚": 2142,
      "些": 2143,
      "亜": 2144,
      "亞": 2145,
      "亡": 2146,
      "交": 2147,
      "亦": 2148,
      "亨": 2149,
      "京": 2150,
      "亮": 2151,
      "亰": 2152,
      "人": 2153,
      "什": 2154,
      "仁": 2155,
      "仇": 2156,
      "今": 2157,
      "介": 2158,
      "仔": 2159,
      "仕": 2160,
      "他": 2161,
      "付": 2162,
      "仙": 2163,
      "代": 2164,
      "令": 2165,
      "以": 2166,
      "仪": 2167,
      "们": 2168,
      "仮": 2169,
      "仰": 2170,
      "仲": 2171,
      "件": 2172,
      "任": 2173,
      "份": 2174,
      "伊": 2175,
      "伏": 2176,
      "伐": 2177,
      "休": 2178,
      "会": 2179,
      "伝": 2180,
      "伟": 2181,
      "传": 2182,
      "伪": 2183,
      "伯": 2184,
      "伴": 2185,
      "伸": 2186,
      "似": 2187,
      "佃": 2188,
      "但": 2189,
      "位": 2190,
      "住": 2191,
      "佐": 2192,
      "佑": 2193,
      "体": 2194,
      "何": 2195,
      "余": 2196,
      "佛": 2197,
      "作": 2198,
      "你": 2199,
      "佳": 2200,
      "併": 2201,
      "使": 2202,
      "來": 2203,
      "例": 2204,
      "侍": 2205,
      "侗": 2206,
      "供": 2207,
      "依": 2208,
      "侠": 2209,
      "侨": 2210,
      "侬": 2211,
      "侯": 2212,
      "係": 2213,
      "促": 2214,
      "俄": 2215,
      "俊": 2216,
      "保": 2217,
      "信": 2218,
      "俭": 2219,
      "修": 2220,
      "俱": 2221,
      "俳": 2222,
      "倉": 2223,
      "個": 2224,
      "們": 2225,
      "候": 2226,
      "借": 2227,
      "倪": 2228,
      "倫": 2229,
      "倭": 2230,
      "偃": 2231,
      "假": 2232,
      "偏": 2233,
      "健": 2234,
      "側": 2235,
      "偵": 2236,
      "偽": 2237,
      "傀": 2238,
      "傅": 2239,
      "傑": 2240,
      "傘": 2241,
      "備": 2242,
      "催": 2243,
      "傭": 2244,
      "傳": 2245,
      "傷": 2246,
      "像": 2247,
      "僑": 2248,
      "僕": 2249,
      "僧": 2250,
      "儀": 2251,
      "億": 2252,
      "儒": 2253,
      "儚": 2254,
      "儡": 2255,
      "優": 2256,
      "儿": 2257,
      "允": 2258,
      "元": 2259,
      "充": 2260,
      "兆": 2261,
      "先": 2262,
      "光": 2263,
      "克": 2264,
      "免": 2265,
      "兒": 2266,
      "兔": 2267,
      "兜": 2268,
      "入": 2269,
      "內": 2270,
      "全": 2271,
      "兩": 2272,
      "八": 2273,
      "公": 2274,
      "六": 2275,
      "兰": 2276,
      "共": 2277,
      "关": 2278,
      "兵": 2279,
      "其": 2280,
      "具": 2281,
      "典": 2282,
      "养": 2283,
      "冀": 2284,
      "内": 2285,
      "円": 2286,
      "冉": 2287,
      "册": 2288,
      "再": 2289,
      "冒": 2290,
      "写": 2291,
      "军": 2292,
      "冠": 2293,
      "冥": 2294,
      "冫": 2295,
      "冬": 2296,
      "冯": 2297,
      "决": 2298,
      "冴": 2299,
      "冶": 2300,
      "冷": 2301,
      "净": 2302,
      "准": 2303,
      "凌": 2304,
      "凤": 2305,
      "処": 2306,
      "凪": 2307,
      "凯": 2308,
      "凰": 2309,
      "凱": 2310,
      "凶": 2311,
      "凹": 2312,
      "出": 2313,
      "刀": 2314,
      "刃": 2315,
      "分": 2316,
      "切": 2317,
      "刊": 2318,
      "划": 2319,
      "列": 2320,
      "刘": 2321,
      "初": 2322,
      "判": 2323,
      "別": 2324,
      "利": 2325,
      "别": 2326,
      "到": 2327,
      "制": 2328,
      "刷": 2329,
      "券": 2330,
      "刹": 2331,
      "刺": 2332,
      "刻": 2333,
      "則": 2334,
      "前": 2335,
      "剑": 2336,
      "剛": 2337,
      "剣": 2338,
      "剧": 2339,
      "剩": 2340,
      "副": 2341,
      "割": 2342,
      "創": 2343,
      "劃": 2344,
      "劇": 2345,
      "劉": 2346,
      "劍": 2347,
      "力": 2348,
      "办": 2349,
      "功": 2350,
      "加": 2351,
      "劣": 2352,
      "动": 2353,
      "助": 2354,
      "劳": 2355,
      "勃": 2356,
      "勅": 2357,
      "勇": 2358,
      "勒": 2359,
      "動": 2360,
      "勘": 2361,
      "務": 2362,
      "勝": 2363,
      "勞": 2364,
      "勢": 2365,
      "勳": 2366,
      "勾": 2367,
      "包": 2368,
      "化": 2369,
      "北": 2370,
      "匠": 2371,
      "匹": 2372,
      "区": 2373,
      "医": 2374,
      "區": 2375,
      "十": 2376,
      "千": 2377,
      "升": 2378,
      "午": 2379,
      "半": 2380,
      "华": 2381,
      "协": 2382,
      "卐": 2383,
      "卒": 2384,
      "卓": 2385,
      "協": 2386,
      "单": 2387,
      "卖": 2388,
      "南": 2389,
      "博": 2390,
      "卜": 2391,
      "占": 2392,
      "卡": 2393,
      "卢": 2394,
      "卦": 2395,
      "卫": 2396,
      "印": 2397,
      "危": 2398,
      "即": 2399,
      "却": 2400,
      "卸": 2401,
      "卿": 2402,
      "厂": 2403,
      "厄": 2404,
      "历": 2405,
      "厘": 2406,
      "厚": 2407,
      "原": 2408,
      "厥": 2409,
      "厦": 2410,
      "厩": 2411,
      "去": 2412,
      "县": 2413,
      "参": 2414,
      "參": 2415,
      "叉": 2416,
      "及": 2417,
      "友": 2418,
      "双": 2419,
      "反": 2420,
      "収": 2421,
      "发": 2422,
      "叔": 2423,
      "取": 2424,
      "受": 2425,
      "变": 2426,
      "叛": 2427,
      "叠": 2428,
      "叡": 2429,
      "叢": 2430,
      "口": 2431,
      "古": 2432,
      "句": 2433,
      "只": 2434,
      "叫": 2435,
      "召": 2436,
      "可": 2437,
      "台": 2438,
      "史": 2439,
      "右": 2440,
      "叶": 2441,
      "号": 2442,
      "司": 2443,
      "合": 2444,
      "吉": 2445,
      "同": 2446,
      "名": 2447,
      "后": 2448,
      "向": 2449,
      "吕": 2450,
      "君": 2451,
      "吞": 2452,
      "吟": 2453,
      "吧": 2454,
      "启": 2455,
      "吳": 2456,
      "吴": 2457,
      "吸": 2458,
      "吹": 2459,
      "吾": 2460,
      "呂": 2461,
      "呉": 2462,
      "告": 2463,
      "周": 2464,
      "呪": 2465,
      "味": 2466,
      "呼": 2467,
      "命": 2468,
      "咆": 2469,
      "和": 2470,
      "咖": 2471,
      "咙": 2472,
      "咫": 2473,
      "咲": 2474,
      "咸": 2475,
      "哀": 2476,
      "品": 2477,
      "哈": 2478,
      "哉": 2479,
      "响": 2480,
      "員": 2481,
      "哥": 2482,
      "哮": 2483,
      "哲": 2484,
      "唄": 2485,
      "唐": 2486,
      "唯": 2487,
      "唱": 2488,
      "商": 2489,
      "問": 2490,
      "啓": 2491,
      "啟": 2492,
      "啡": 2493,
      "善": 2494,
      "喇": 2495,
      "喋": 2496,
      "喚": 2497,
      "喜": 2498,
      "喝": 2499,
      "喬": 2500,
      "嘉": 2501,
      "嘘": 2502,
      "噛": 2503,
      "器": 2504,
      "嚣": 2505,
      "嚴": 2506,
      "囁": 2507,
      "囂": 2508,
      "囃": 2509,
      "囚": 2510,
      "四": 2511,
      "回": 2512,
      "因": 2513,
      "团": 2514,
      "団": 2515,
      "図": 2516,
      "国": 2517,
      "图": 2518,
      "圈": 2519,
      "國": 2520,
      "圍": 2521,
      "圏": 2522,
      "園": 2523,
      "圓": 2524,
      "圖": 2525,
      "土": 2526,
      "圣": 2527,
      "圧": 2528,
      "在": 2529,
      "地": 2530,
      "圻": 2531,
      "坂": 2532,
      "均": 2533,
      "坊": 2534,
      "坑": 2535,
      "块": 2536,
      "坚": 2537,
      "坝": 2538,
      "坡": 2539,
      "坤": 2540,
      "坪": 2541,
      "型": 2542,
      "垣": 2543,
      "城": 2544,
      "埔": 2545,
      "域": 2546,
      "執": 2547,
      "培": 2548,
      "基": 2549,
      "堀": 2550,
      "堂": 2551,
      "堅": 2552,
      "堆": 2553,
      "堡": 2554,
      "堤": 2555,
      "堯": 2556,
      "報": 2557,
      "場": 2558,
      "塊": 2559,
      "塔": 2560,
      "塘": 2561,
      "塚": 2562,
      "塞": 2563,
      "塩": 2564,
      "填": 2565,
      "塵": 2566,
      "境": 2567,
      "墓": 2568,
      "墙": 2569,
      "增": 2570,
      "壁": 2571,
      "壌": 2572,
      "壓": 2573,
      "壟": 2574,
      "壤": 2575,
      "士": 2576,
      "壬": 2577,
      "壮": 2578,
      "壯": 2579,
      "声": 2580,
      "壱": 2581,
      "売": 2582,
      "壳": 2583,
      "壷": 2584,
      "壽": 2585,
      "处": 2586,
      "备": 2587,
      "変": 2588,
      "复": 2589,
      "夏": 2590,
      "夕": 2591,
      "外": 2592,
      "多": 2593,
      "夜": 2594,
      "够": 2595,
      "夢": 2596,
      "夤": 2597,
      "大": 2598,
      "天": 2599,
      "太": 2600,
      "夫": 2601,
      "央": 2602,
      "失": 2603,
      "头": 2604,
      "夷": 2605,
      "奇": 2606,
      "奈": 2607,
      "奉": 2608,
      "奎": 2609,
      "奏": 2610,
      "奐": 2611,
      "契": 2612,
      "奔": 2613,
      "奥": 2614,
      "奧": 2615,
      "奪": 2616,
      "女": 2617,
      "奴": 2618,
      "好": 2619,
      "如": 2620,
      "妃": 2621,
      "妇": 2622,
      "妍": 2623,
      "妖": 2624,
      "妙": 2625,
      "妮": 2626,
      "妹": 2627,
      "妻": 2628,
      "姉": 2629,
      "姊": 2630,
      "始": 2631,
      "姑": 2632,
      "委": 2633,
      "姚": 2634,
      "姥": 2635,
      "姦": 2636,
      "姫": 2637,
      "姬": 2638,
      "姿": 2639,
      "威": 2640,
      "娘": 2641,
      "娜": 2642,
      "婁": 2643,
      "婆": 2644,
      "婚": 2645,
      "婷": 2646,
      "嫁": 2647,
      "嬢": 2648,
      "嬴": 2649,
      "子": 2650,
      "孔": 2651,
      "字": 2652,
      "存": 2653,
      "孙": 2654,
      "孛": 2655,
      "孝": 2656,
      "孟": 2657,
      "季": 2658,
      "孤": 2659,
      "学": 2660,
      "孩": 2661,
      "孫": 2662,
      "孵": 2663,
      "學": 2664,
      "宁": 2665,
      "宅": 2666,
      "宇": 2667,
      "守": 2668,
      "安": 2669,
      "宋": 2670,
      "完": 2671,
      "宏": 2672,
      "宗": 2673,
      "官": 2674,
      "宙": 2675,
      "定": 2676,
      "宜": 2677,
      "宝": 2678,
      "实": 2679,
      "実": 2680,
      "客": 2681,
      "宣": 2682,
      "室": 2683,
      "宫": 2684,
      "宮": 2685,
      "宴": 2686,
      "宵": 2687,
      "家": 2688,
      "宸": 2689,
      "容": 2690,
      "宿": 2691,
      "寂": 2692,
      "寄": 2693,
      "密": 2694,
      "寇": 2695,
      "富": 2696,
      "寔": 2697,
      "寗": 2698,
      "寛": 2699,
      "寝": 2700,
      "寞": 2701,
      "察": 2702,
      "寧": 2703,
      "寨": 2704,
      "審": 2705,
      "寬": 2706,
      "寵": 2707,
      "寶": 2708,
      "寸": 2709,
      "对": 2710,
      "寺": 2711,
      "寻": 2712,
      "対": 2713,
      "寿": 2714,
      "封": 2715,
      "射": 2716,
      "将": 2717,
      "將": 2718,
      "尉": 2719,
      "尊": 2720,
      "尋": 2721,
      "對": 2722,
      "導": 2723,
      "小": 2724,
      "少": 2725,
      "尔": 2726,
      "尚": 2727,
      "尧": 2728,
      "就": 2729,
      "尸": 2730,
      "尹": 2731,
      "尺": 2732,
      "尼": 2733,
      "尽": 2734,
      "尾": 2735,
      "局": 2736,
      "居": 2737,
      "届": 2738,
      "屋": 2739,
      "屍": 2740,
      "屑": 2741,
      "展": 2742,
      "屠": 2743,
      "層": 2744,
      "屬": 2745,
      "屯": 2746,
      "山": 2747,
      "屿": 2748,
      "岐": 2749,
      "岑": 2750,
      "岚": 2751,
      "岛": 2752,
      "岡": 2753,
      "岩": 2754,
      "岬": 2755,
      "岭": 2756,
      "岳": 2757,
      "岸": 2758,
      "峰": 2759,
      "島": 2760,
      "崇": 2761,
      "崎": 2762,
      "崔": 2763,
      "崖": 2764,
      "嵐": 2765,
      "嶋": 2766,
      "嶺": 2767,
      "嶼": 2768,
      "巂": 2769,
      "巖": 2770,
      "川": 2771,
      "州": 2772,
      "巡": 2773,
      "工": 2774,
      "左": 2775,
      "巨": 2776,
      "巫": 2777,
      "差": 2778,
      "己": 2779,
      "巳": 2780,
      "巴": 2781,
      "巻": 2782,
      "币": 2783,
      "市": 2784,
      "布": 2785,
      "帆": 2786,
      "师": 2787,
      "希": 2788,
      "帕": 2789,
      "帖": 2790,
      "帝": 2791,
      "帥": 2792,
      "带": 2793,
      "師": 2794,
      "帮": 2795,
      "帰": 2796,
      "帶": 2797,
      "常": 2798,
      "幕": 2799,
      "幡": 2800,
      "幣": 2801,
      "干": 2802,
      "平": 2803,
      "年": 2804,
      "幸": 2805,
      "幻": 2806,
      "幽": 2807,
      "广": 2808,
      "庁": 2809,
      "広": 2810,
      "庄": 2811,
      "庆": 2812,
      "庇": 2813,
      "序": 2814,
      "库": 2815,
      "底": 2816,
      "庖": 2817,
      "店": 2818,
      "庙": 2819,
      "庚": 2820,
      "府": 2821,
      "度": 2822,
      "座": 2823,
      "庫": 2824,
      "庭": 2825,
      "庵": 2826,
      "康": 2827,
      "廉": 2828,
      "廊": 2829,
      "廖": 2830,
      "廟": 2831,
      "廣": 2832,
      "廬": 2833,
      "延": 2834,
      "廷": 2835,
      "建": 2836,
      "廻": 2837,
      "廿": 2838,
      "开": 2839,
      "弁": 2840,
      "式": 2841,
      "弐": 2842,
      "弓": 2843,
      "弔": 2844,
      "引": 2845,
      "弘": 2846,
      "弟": 2847,
      "张": 2848,
      "弥": 2849,
      "弦": 2850,
      "弧": 2851,
      "弱": 2852,
      "張": 2853,
      "強": 2854,
      "弹": 2855,
      "强": 2856,
      "弾": 2857,
      "彌": 2858,
      "当": 2859,
      "录": 2860,
      "彖": 2861,
      "彙": 2862,
      "形": 2863,
      "彦": 2864,
      "彩": 2865,
      "彪": 2866,
      "彬": 2867,
      "彭": 2868,
      "影": 2869,
      "役": 2870,
      "彼": 2871,
      "征": 2872,
      "径": 2873,
      "待": 2874,
      "律": 2875,
      "後": 2876,
      "徐": 2877,
      "徒": 2878,
      "得": 2879,
      "從": 2880,
      "御": 2881,
      "復": 2882,
      "微": 2883,
      "徳": 2884,
      "德": 2885,
      "徹": 2886,
      "徽": 2887,
      "心": 2888,
      "必": 2889,
      "忍": 2890,
      "志": 2891,
      "忘": 2892,
      "応": 2893,
      "忠": 2894,
      "快": 2895,
      "念": 2896,
      "怀": 2897,
      "怎": 2898,
      "怒": 2899,
      "怖": 2900,
      "思": 2901,
      "怡": 2902,
      "急": 2903,
      "性": 2904,
      "怨": 2905,
      "怪": 2906,
      "总": 2907,
      "恆": 2908,
      "恋": 2909,
      "恐": 2910,
      "恒": 2911,
      "恢": 2912,
      "恥": 2913,
      "恩": 2914,
      "恭": 2915,
      "息": 2916,
      "恵": 2917,
      "恼": 2918,
      "悔": 2919,
      "悟": 2920,
      "悠": 2921,
      "悦": 2922,
      "悪": 2923,
      "悫": 2924,
      "悲": 2925,
      "悼": 2926,
      "情": 2927,
      "惑": 2928,
      "惟": 2929,
      "惠": 2930,
      "惡": 2931,
      "想": 2932,
      "愁": 2933,
      "愍": 2934,
      "意": 2935,
      "愚": 2936,
      "愛": 2937,
      "感": 2938,
      "愽": 2939,
      "慈": 2940,
      "態": 2941,
      "慎": 2942,
      "慧": 2943,
      "慰": 2944,
      "慶": 2945,
      "憂": 2946,
      "憎": 2947,
      "憑": 2948,
      "憲": 2949,
      "憶": 2950,
      "應": 2951,
      "懍": 2952,
      "懷": 2953,
      "戈": 2954,
      "戊": 2955,
      "戎": 2956,
      "成": 2957,
      "我": 2958,
      "战": 2959,
      "戦": 2960,
      "戯": 2961,
      "戰": 2962,
      "戴": 2963,
      "户": 2964,
      "戸": 2965,
      "房": 2966,
      "所": 2967,
      "扁": 2968,
      "扇": 2969,
      "扈": 2970,
      "扉": 2971,
      "手": 2972,
      "才": 2973,
      "打": 2974,
      "托": 2975,
      "扶": 2976,
      "找": 2977,
      "承": 2978,
      "技": 2979,
      "抄": 2980,
      "抓": 2981,
      "投": 2982,
      "抜": 2983,
      "択": 2984,
      "护": 2985,
      "报": 2986,
      "披": 2987,
      "抱": 2988,
      "抵": 2989,
      "担": 2990,
      "拉": 2991,
      "拍": 2992,
      "拏": 2993,
      "拐": 2994,
      "拖": 2995,
      "拘": 2996,
      "招": 2997,
      "拜": 2998,
      "拟": 2999,
      "拥": 3000,
      "括": 3001,
      "拳": 3002,
      "拾": 3003,
      "持": 3004,
      "挂": 3005,
      "指": 3006,
      "挑": 3007,
      "挥": 3008,
      "振": 3009,
      "据": 3010,
      "捷": 3011,
      "授": 3012,
      "掛": 3013,
      "採": 3014,
      "探": 3015,
      "控": 3016,
      "掲": 3017,
      "描": 3018,
      "提": 3019,
      "揚": 3020,
      "換": 3021,
      "援": 3022,
      "揺": 3023,
      "摂": 3024,
      "摩": 3025,
      "摸": 3026,
      "撃": 3027,
      "撒": 3028,
      "撞": 3029,
      "播": 3030,
      "撲": 3031,
      "操": 3032,
      "攝": 3033,
      "支": 3034,
      "收": 3035,
      "改": 3036,
      "攻": 3037,
      "放": 3038,
      "政": 3039,
      "故": 3040,
      "敏": 3041,
      "救": 3042,
      "教": 3043,
      "敢": 3044,
      "散": 3045,
      "敦": 3046,
      "敬": 3047,
      "数": 3048,
      "敵": 3049,
      "敷": 3050,
      "數": 3051,
      "文": 3052,
      "斉": 3053,
      "斎": 3054,
      "斗": 3055,
      "料": 3056,
      "斜": 3057,
      "斤": 3058,
      "斩": 3059,
      "斬": 3060,
      "断": 3061,
      "斯": 3062,
      "新": 3063,
      "方": 3064,
      "於": 3065,
      "施": 3066,
      "旅": 3067,
      "旋": 3068,
      "族": 3069,
      "旗": 3070,
      "无": 3071,
      "日": 3072,
      "旦": 3073,
      "旧": 3074,
      "早": 3075,
      "旭": 3076,
      "时": 3077,
      "旺": 3078,
      "昂": 3079,
      "昇": 3080,
      "昌": 3081,
      "明": 3082,
      "昏": 3083,
      "易": 3084,
      "昔": 3085,
      "星": 3086,
      "映": 3087,
      "春": 3088,
      "昭": 3089,
      "是": 3090,
      "昼": 3091,
      "時": 3092,
      "晉": 3093,
      "晋": 3094,
      "晒": 3095,
      "普": 3096,
      "景": 3097,
      "晴": 3098,
      "晶": 3099,
      "智": 3100,
      "暁": 3101,
      "暂": 3102,
      "暖": 3103,
      "暗": 3104,
      "暦": 3105,
      "暮": 3106,
      "暴": 3107,
      "曆": 3108,
      "曜": 3109,
      "曦": 3110,
      "曲": 3111,
      "更": 3112,
      "書": 3113,
      "曹": 3114,
      "曼": 3115,
      "曾": 3116,
      "最": 3117,
      "會": 3118,
      "月": 3119,
      "有": 3120,
      "朋": 3121,
      "服": 3122,
      "朏": 3123,
      "朔": 3124,
      "朗": 3125,
      "望": 3126,
      "朝": 3127,
      "期": 3128,
      "朧": 3129,
      "木": 3130,
      "未": 3131,
      "末": 3132,
      "本": 3133,
      "札": 3134,
      "朱": 3135,
      "朴": 3136,
      "朵": 3137,
      "机": 3138,
      "朽": 3139,
      "杀": 3140,
      "杂": 3141,
      "权": 3142,
      "李": 3143,
      "杏": 3144,
      "材": 3145,
      "村": 3146,
      "杖": 3147,
      "杜": 3148,
      "束": 3149,
      "条": 3150,
      "来": 3151,
      "杨": 3152,
      "杯": 3153,
      "東": 3154,
      "杲": 3155,
      "松": 3156,
      "板": 3157,
      "极": 3158,
      "析": 3159,
      "林": 3160,
      "枚": 3161,
      "果": 3162,
      "枝": 3163,
      "枭": 3164,
      "枯": 3165,
      "架": 3166,
      "柆": 3167,
      "柏": 3168,
      "柔": 3169,
      "柚": 3170,
      "柩": 3171,
      "柱": 3172,
      "柳": 3173,
      "柴": 3174,
      "査": 3175,
      "栄": 3176,
      "标": 3177,
      "栈": 3178,
      "树": 3179,
      "栖": 3180,
      "栗": 3181,
      "栞": 3182,
      "校": 3183,
      "株": 3184,
      "样": 3185,
      "核": 3186,
      "根": 3187,
      "格": 3188,
      "栽": 3189,
      "栾": 3190,
      "桀": 3191,
      "桂": 3192,
      "桃": 3193,
      "案": 3194,
      "桎": 3195,
      "桐": 3196,
      "桑": 3197,
      "桓": 3198,
      "桜": 3199,
      "桥": 3200,
      "桧": 3201,
      "梁": 3202,
      "梅": 3203,
      "梏": 3204,
      "梓": 3205,
      "條": 3206,
      "梦": 3207,
      "梨": 3208,
      "梭": 3209,
      "梯": 3210,
      "械": 3211,
      "梵": 3212,
      "梶": 3213,
      "棋": 3214,
      "棍": 3215,
      "棗": 3216,
      "棘": 3217,
      "棚": 3218,
      "棟": 3219,
      "森": 3220,
      "棲": 3221,
      "棵": 3222,
      "棺": 3223,
      "椅": 3224,
      "植": 3225,
      "椎": 3226,
      "椒": 3227,
      "椛": 3228,
      "検": 3229,
      "椰": 3230,
      "椿": 3231,
      "楊": 3232,
      "楚": 3233,
      "楠": 3234,
      "業": 3235,
      "楯": 3236,
      "極": 3237,
      "楼": 3238,
      "楽": 3239,
      "概": 3240,
      "榆": 3241,
      "榊": 3242,
      "榔": 3243,
      "榛": 3244,
      "榮": 3245,
      "榴": 3246,
      "槐": 3247,
      "様": 3248,
      "槤": 3249,
      "槻": 3250,
      "樂": 3251,
      "樉": 3252,
      "樊": 3253,
      "樓": 3254,
      "樗": 3255,
      "標": 3256,
      "樛": 3257,
      "模": 3258,
      "権": 3259,
      "横": 3260,
      "樱": 3261,
      "樸": 3262,
      "樹": 3263,
      "橋": 3264,
      "橘": 3265,
      "橚": 3266,
      "機": 3267,
      "橫": 3268,
      "橿": 3269,
      "檀": 3270,
      "檜": 3271,
      "檳": 3272,
      "檻": 3273,
      "櫓": 3274,
      "櫻": 3275,
      "權": 3276,
      "欒": 3277,
      "欠": 3278,
      "次": 3279,
      "欣": 3280,
      "欲": 3281,
      "欽": 3282,
      "歌": 3283,
      "歓": 3284,
      "歡": 3285,
      "止": 3286,
      "正": 3287,
      "步": 3288,
      "武": 3289,
      "歩": 3290,
      "歪": 3291,
      "歲": 3292,
      "歳": 3293,
      "歴": 3294,
      "歷": 3295,
      "歸": 3296,
      "死": 3297,
      "殊": 3298,
      "残": 3299,
      "段": 3300,
      "殺": 3301,
      "殻": 3302,
      "殿": 3303,
      "毅": 3304,
      "母": 3305,
      "毎": 3306,
      "每": 3307,
      "比": 3308,
      "毕": 3309,
      "毘": 3310,
      "毛": 3311,
      "毫": 3312,
      "毬": 3313,
      "氏": 3314,
      "民": 3315,
      "气": 3316,
      "気": 3317,
      "氣": 3318,
      "水": 3319,
      "氷": 3320,
      "永": 3321,
      "氾": 3322,
      "汇": 3323,
      "汉": 3324,
      "汐": 3325,
      "汗": 3326,
      "汝": 3327,
      "江": 3328,
      "池": 3329,
      "汤": 3330,
      "汪": 3331,
      "汰": 3332,
      "汶": 3333,
      "決": 3334,
      "汽": 3335,
      "沂": 3336,
      "沃": 3337,
      "沈": 3338,
      "沉": 3339,
      "沌": 3340,
      "沐": 3341,
      "沒": 3342,
      "沖": 3343,
      "沙": 3344,
      "沛": 3345,
      "没": 3346,
      "沢": 3347,
      "沫": 3348,
      "河": 3349,
      "沸": 3350,
      "油": 3351,
      "治": 3352,
      "沼": 3353,
      "沽": 3354,
      "泉": 3355,
      "泊": 3356,
      "法": 3357,
      "泗": 3358,
      "泡": 3359,
      "波": 3360,
      "泣": 3361,
      "泥": 3362,
      "注": 3363,
      "泰": 3364,
      "泾": 3365,
      "洁": 3366,
      "洋": 3367,
      "洛": 3368,
      "洞": 3369,
      "津": 3370,
      "洪": 3371,
      "洲": 3372,
      "活": 3373,
      "派": 3374,
      "流": 3375,
      "浅": 3376,
      "浙": 3377,
      "浚": 3378,
      "浜": 3379,
      "浦": 3380,
      "浩": 3381,
      "浪": 3382,
      "浮": 3383,
      "海": 3384,
      "消": 3385,
      "涙": 3386,
      "润": 3387,
      "涵": 3388,
      "涼": 3389,
      "淇": 3390,
      "淑": 3391,
      "淘": 3392,
      "淡": 3393,
      "淨": 3394,
      "深": 3395,
      "淳": 3396,
      "淵": 3397,
      "淹": 3398,
      "添": 3399,
      "清": 3400,
      "渊": 3401,
      "渚": 3402,
      "減": 3403,
      "渠": 3404,
      "渡": 3405,
      "渣": 3406,
      "渥": 3407,
      "渦": 3408,
      "温": 3409,
      "測": 3410,
      "港": 3411,
      "游": 3412,
      "渾": 3413,
      "湊": 3414,
      "湖": 3415,
      "湯": 3416,
      "湾": 3417,
      "満": 3418,
      "源": 3419,
      "準": 3420,
      "溜": 3421,
      "溢": 3422,
      "溪": 3423,
      "溫": 3424,
      "溶": 3425,
      "滅": 3426,
      "滋": 3427,
      "滑": 3428,
      "滨": 3429,
      "滿": 3430,
      "漁": 3431,
      "漂": 3432,
      "漆": 3433,
      "漏": 3434,
      "漠": 3435,
      "漢": 3436,
      "漫": 3437,
      "漳": 3438,
      "漸": 3439,
      "潘": 3440,
      "潜": 3441,
      "潤": 3442,
      "澄": 3443,
      "澤": 3444,
      "澪": 3445,
      "激": 3446,
      "濃": 3447,
      "濞": 3448,
      "濟": 3449,
      "瀛": 3450,
      "瀬": 3451,
      "灣": 3452,
      "火": 3453,
      "灯": 3454,
      "灰": 3455,
      "灵": 3456,
      "灶": 3457,
      "灼": 3458,
      "災": 3459,
      "灾": 3460,
      "炎": 3461,
      "炬": 3462,
      "炮": 3463,
      "炯": 3464,
      "炷": 3465,
      "炸": 3466,
      "点": 3467,
      "為": 3468,
      "炼": 3469,
      "烈": 3470,
      "烏": 3471,
      "烙": 3472,
      "烟": 3473,
      "烦": 3474,
      "烧": 3475,
      "焉": 3476,
      "焔": 3477,
      "無": 3478,
      "焦": 3479,
      "然": 3480,
      "焼": 3481,
      "煌": 3482,
      "煙": 3483,
      "煜": 3484,
      "照": 3485,
      "煩": 3486,
      "煮": 3487,
      "熊": 3488,
      "熔": 3489,
      "熙": 3490,
      "熟": 3491,
      "熱": 3492,
      "燃": 3493,
      "燈": 3494,
      "燕": 3495,
      "營": 3496,
      "爆": 3497,
      "爪": 3498,
      "爭": 3499,
      "爱": 3500,
      "爲": 3501,
      "爵": 3502,
      "父": 3503,
      "爺": 3504,
      "爻": 3505,
      "爽": 3506,
      "爾": 3507,
      "片": 3508,
      "版": 3509,
      "牌": 3510,
      "牙": 3511,
      "牛": 3512,
      "牡": 3513,
      "牢": 3514,
      "牧": 3515,
      "物": 3516,
      "牵": 3517,
      "特": 3518,
      "犖": 3519,
      "犬": 3520,
      "犯": 3521,
      "狀": 3522,
      "狂": 3523,
      "狐": 3524,
      "狗": 3525,
      "狛": 3526,
      "狡": 3527,
      "狩": 3528,
      "独": 3529,
      "狭": 3530,
      "狱": 3531,
      "狸": 3532,
      "狼": 3533,
      "猛": 3534,
      "猩": 3535,
      "猪": 3536,
      "猫": 3537,
      "献": 3538,
      "猿": 3539,
      "獄": 3540,
      "獅": 3541,
      "獣": 3542,
      "獵": 3543,
      "獻": 3544,
      "玄": 3545,
      "玉": 3546,
      "王": 3547,
      "玖": 3548,
      "玩": 3549,
      "玲": 3550,
      "珂": 3551,
      "珍": 3552,
      "珙": 3553,
      "珠": 3554,
      "現": 3555,
      "球": 3556,
      "理": 3557,
      "琦": 3558,
      "琪": 3559,
      "琬": 3560,
      "琮": 3561,
      "琴": 3562,
      "瑋": 3563,
      "瑙": 3564,
      "瑜": 3565,
      "瑞": 3566,
      "瑠": 3567,
      "瑣": 3568,
      "瑪": 3569,
      "瑾": 3570,
      "璉": 3571,
      "環": 3572,
      "璽": 3573,
      "瓊": 3574,
      "瓜": 3575,
      "瓢": 3576,
      "瓦": 3577,
      "瓩": 3578,
      "瓷": 3579,
      "甘": 3580,
      "甜": 3581,
      "生": 3582,
      "產": 3583,
      "産": 3584,
      "用": 3585,
      "甫": 3586,
      "田": 3587,
      "由": 3588,
      "甲": 3589,
      "申": 3590,
      "男": 3591,
      "町": 3592,
      "画": 3593,
      "甽": 3594,
      "界": 3595,
      "畑": 3596,
      "留": 3597,
      "畜": 3598,
      "畢": 3599,
      "略": 3600,
      "番": 3601,
      "畫": 3602,
      "異": 3603,
      "疾": 3604,
      "病": 3605,
      "症": 3606,
      "痘": 3607,
      "痛": 3608,
      "痴": 3609,
      "瘡": 3610,
      "瘤": 3611,
      "発": 3612,
      "登": 3613,
      "發": 3614,
      "白": 3615,
      "百": 3616,
      "的": 3617,
      "皇": 3618,
      "皙": 3619,
      "皮": 3620,
      "皿": 3621,
      "盆": 3622,
      "盈": 3623,
      "益": 3624,
      "盏": 3625,
      "盐": 3626,
      "监": 3627,
      "盒": 3628,
      "盗": 3629,
      "盘": 3630,
      "盛": 3631,
      "盟": 3632,
      "監": 3633,
      "盤": 3634,
      "盧": 3635,
      "目": 3636,
      "直": 3637,
      "相": 3638,
      "盼": 3639,
      "省": 3640,
      "看": 3641,
      "県": 3642,
      "眞": 3643,
      "真": 3644,
      "眼": 3645,
      "着": 3646,
      "督": 3647,
      "瞬": 3648,
      "瞳": 3649,
      "矢": 3650,
      "知": 3651,
      "矩": 3652,
      "短": 3653,
      "矮": 3654,
      "矯": 3655,
      "石": 3656,
      "砂": 3657,
      "砍": 3658,
      "研": 3659,
      "砖": 3660,
      "砲": 3661,
      "破": 3662,
      "硕": 3663,
      "硝": 3664,
      "硨": 3665,
      "碍": 3666,
      "碗": 3667,
      "碩": 3668,
      "確": 3669,
      "碼": 3670,
      "磁": 3671,
      "磅": 3672,
      "磐": 3673,
      "磨": 3674,
      "磯": 3675,
      "磲": 3676,
      "礁": 3677,
      "礎": 3678,
      "礮": 3679,
      "示": 3680,
      "礼": 3681,
      "社": 3682,
      "祀": 3683,
      "祈": 3684,
      "祐": 3685,
      "祖": 3686,
      "祚": 3687,
      "神": 3688,
      "祠": 3689,
      "祥": 3690,
      "票": 3691,
      "祭": 3692,
      "祺": 3693,
      "祿": 3694,
      "禁": 3695,
      "禄": 3696,
      "禎": 3697,
      "福": 3698,
      "禦": 3699,
      "禮": 3700,
      "禰": 3701,
      "禺": 3702,
      "禾": 3703,
      "秀": 3704,
      "私": 3705,
      "秋": 3706,
      "科": 3707,
      "秒": 3708,
      "秘": 3709,
      "租": 3710,
      "秤": 3711,
      "秦": 3712,
      "移": 3713,
      "程": 3714,
      "稔": 3715,
      "稚": 3716,
      "種": 3717,
      "稲": 3718,
      "稷": 3719,
      "穂": 3720,
      "穌": 3721,
      "積": 3722,
      "穎": 3723,
      "穗": 3724,
      "穢": 3725,
      "究": 3726,
      "空": 3727,
      "突": 3728,
      "窓": 3729,
      "窗": 3730,
      "窟": 3731,
      "竇": 3732,
      "立": 3733,
      "站": 3734,
      "竜": 3735,
      "章": 3736,
      "童": 3737,
      "端": 3738,
      "竹": 3739,
      "竺": 3740,
      "笑": 3741,
      "笔": 3742,
      "笛": 3743,
      "笠": 3744,
      "符": 3745,
      "笨": 3746,
      "第": 3747,
      "笹": 3748,
      "筆": 3749,
      "等": 3750,
      "筋": 3751,
      "筍": 3752,
      "筐": 3753,
      "筑": 3754,
      "答": 3755,
      "策": 3756,
      "筹": 3757,
      "箇": 3758,
      "算": 3759,
      "管": 3760,
      "箪": 3761,
      "箭": 3762,
      "箱": 3763,
      "節": 3764,
      "範": 3765,
      "篇": 3766,
      "篋": 3767,
      "篚": 3768,
      "篤": 3769,
      "簡": 3770,
      "簿": 3771,
      "籃": 3772,
      "籌": 3773,
      "籍": 3774,
      "籠": 3775,
      "米": 3776,
      "籵": 3777,
      "粁": 3778,
      "粉": 3779,
      "粍": 3780,
      "粟": 3781,
      "粥": 3782,
      "粨": 3783,
      "精": 3784,
      "糊": 3785,
      "糎": 3786,
      "糖": 3787,
      "糸": 3788,
      "系": 3789,
      "紀": 3790,
      "約": 3791,
      "紅": 3792,
      "紋": 3793,
      "納": 3794,
      "純": 3795,
      "紘": 3796,
      "紙": 3797,
      "級": 3798,
      "素": 3799,
      "紡": 3800,
      "紫": 3801,
      "細": 3802,
      "紹": 3803,
      "紺": 3804,
      "終": 3805,
      "組": 3806,
      "絆": 3807,
      "経": 3808,
      "結": 3809,
      "絡": 3810,
      "給": 3811,
      "統": 3812,
      "絵": 3813,
      "絶": 3814,
      "綁": 3815,
      "經": 3816,
      "継": 3817,
      "続": 3818,
      "綜": 3819,
      "綠": 3820,
      "維": 3821,
      "綯": 3822,
      "綱": 3823,
      "網": 3824,
      "綸": 3825,
      "綺": 3826,
      "綾": 3827,
      "緋": 3828,
      "総": 3829,
      "緑": 3830,
      "緒": 3831,
      "線": 3832,
      "締": 3833,
      "編": 3834,
      "緩": 3835,
      "緯": 3836,
      "縄": 3837,
      "縊": 3838,
      "縣": 3839,
      "總": 3840,
      "繋": 3841,
      "織": 3842,
      "繼": 3843,
      "續": 3844,
      "红": 3845,
      "级": 3846,
      "纪": 3847,
      "纯": 3848,
      "纲": 3849,
      "纵": 3850,
      "线": 3851,
      "组": 3852,
      "绅": 3853,
      "细": 3854,
      "终": 3855,
      "绍": 3856,
      "经": 3857,
      "给": 3858,
      "统": 3859,
      "继": 3860,
      "绮": 3861,
      "维": 3862,
      "综": 3863,
      "缽": 3864,
      "网": 3865,
      "罗": 3866,
      "罠": 3867,
      "罪": 3868,
      "置": 3869,
      "罰": 3870,
      "罸": 3871,
      "羅": 3872,
      "羊": 3873,
      "美": 3874,
      "群": 3875,
      "義": 3876,
      "羽": 3877,
      "翁": 3878,
      "習": 3879,
      "翔": 3880,
      "翘": 3881,
      "翠": 3882,
      "翡": 3883,
      "翱": 3884,
      "翹": 3885,
      "翻": 3886,
      "翼": 3887,
      "老": 3888,
      "考": 3889,
      "者": 3890,
      "耆": 3891,
      "而": 3892,
      "耕": 3893,
      "耳": 3894,
      "耶": 3895,
      "耿": 3896,
      "聃": 3897,
      "联": 3898,
      "聖": 3899,
      "聘": 3900,
      "聚": 3901,
      "聞": 3902,
      "聡": 3903,
      "聯": 3904,
      "聰": 3905,
      "聲": 3906,
      "職": 3907,
      "肃": 3908,
      "肉": 3909,
      "肖": 3910,
      "肚": 3911,
      "股": 3912,
      "肥": 3913,
      "肩": 3914,
      "育": 3915,
      "胞": 3916,
      "胠": 3917,
      "胡": 3918,
      "胤": 3919,
      "胴": 3920,
      "胸": 3921,
      "能": 3922,
      "脂": 3923,
      "脇": 3924,
      "脈": 3925,
      "脉": 3926,
      "脚": 3927,
      "脩": 3928,
      "脱": 3929,
      "脳": 3930,
      "腎": 3931,
      "腐": 3932,
      "腰": 3933,
      "腹": 3934,
      "腿": 3935,
      "膀": 3936,
      "膺": 3937,
      "臂": 3938,
      "臘": 3939,
      "臚": 3940,
      "臣": 3941,
      "臨": 3942,
      "自": 3943,
      "臭": 3944,
      "至": 3945,
      "致": 3946,
      "臺": 3947,
      "與": 3948,
      "興": 3949,
      "舍": 3950,
      "舎": 3951,
      "舞": 3952,
      "舟": 3953,
      "航": 3954,
      "船": 3955,
      "艦": 3956,
      "良": 3957,
      "色": 3958,
      "艳": 3959,
      "艶": 3960,
      "艺": 3961,
      "节": 3962,
      "芒": 3963,
      "芙": 3964,
      "芝": 3965,
      "芦": 3966,
      "芬": 3967,
      "芭": 3968,
      "芮": 3969,
      "芯": 3970,
      "花": 3971,
      "芳": 3972,
      "芸": 3973,
      "芹": 3974,
      "芽": 3975,
      "苏": 3976,
      "苑": 3977,
      "苗": 3978,
      "苣": 3979,
      "若": 3980,
      "英": 3981,
      "苺": 3982,
      "茂": 3983,
      "范": 3984,
      "茅": 3985,
      "茜": 3986,
      "茶": 3987,
      "茸": 3988,
      "草": 3989,
      "荊": 3990,
      "荒": 3991,
      "荔": 3992,
      "荘": 3993,
      "荥": 3994,
      "荪": 3995,
      "荫": 3996,
      "药": 3997,
      "荷": 3998,
      "荻": 3999,
      "荼": 4000,
      "莉": 4001,
      "莊": 4002,
      "莎": 4003,
      "莘": 4004,
      "莞": 4005,
      "莫": 4006,
      "莱": 4007,
      "莲": 4008,
      "莴": 4009,
      "菇": 4010,
      "菉": 4011,
      "菊": 4012,
      "菜": 4013,
      "華": 4014,
      "菱": 4015,
      "菲": 4016,
      "萌": 4017,
      "萍": 4018,
      "萝": 4019,
      "营": 4020,
      "萧": 4021,
      "萨": 4022,
      "萬": 4023,
      "落": 4024,
      "葆": 4025,
      "葉": 4026,
      "著": 4027,
      "葛": 4028,
      "董": 4029,
      "葦": 4030,
      "葫": 4031,
      "葵": 4032,
      "蒙": 4033,
      "蒭": 4034,
      "蒲": 4035,
      "蒼": 4036,
      "蒿": 4037,
      "蓀": 4038,
      "蓑": 4039,
      "蓝": 4040,
      "蓮": 4041,
      "蔡": 4042,
      "蔭": 4043,
      "蔵": 4044,
      "蕃": 4045,
      "蕉": 4046,
      "蕨": 4047,
      "蕩": 4048,
      "蕭": 4049,
      "薇": 4050,
      "薊": 4051,
      "薔": 4052,
      "薙": 4053,
      "薛": 4054,
      "薩": 4055,
      "薫": 4056,
      "薯": 4057,
      "藍": 4058,
      "藏": 4059,
      "藕": 4060,
      "藝": 4061,
      "藤": 4062,
      "藥": 4063,
      "藩": 4064,
      "藻": 4065,
      "蘄": 4066,
      "蘅": 4067,
      "蘇": 4068,
      "蘑": 4069,
      "蘭": 4070,
      "虎": 4071,
      "虐": 4072,
      "虔": 4073,
      "處": 4074,
      "虚": 4075,
      "虛": 4076,
      "號": 4077,
      "虫": 4078,
      "虹": 4079,
      "蛇": 4080,
      "蛍": 4081,
      "蛙": 4082,
      "蛭": 4083,
      "蜃": 4084,
      "蜡": 4085,
      "蝉": 4086,
      "蝕": 4087,
      "蝶": 4088,
      "融": 4089,
      "螺": 4090,
      "蟲": 4091,
      "蠕": 4092,
      "蠻": 4093,
      "血": 4094,
      "衆": 4095,
      "行": 4096,
      "術": 4097,
      "街": 4098,
      "衙": 4099,
      "衛": 4100,
      "衝": 4101,
      "衡": 4102,
      "衢": 4103,
      "衣": 4104,
      "补": 4105,
      "表": 4106,
      "袁": 4107,
      "袈": 4108,
      "袖": 4109,
      "被": 4110,
      "裁": 4111,
      "裂": 4112,
      "装": 4113,
      "裏": 4114,
      "裔": 4115,
      "裕": 4116,
      "補": 4117,
      "裟": 4118,
      "裳": 4119,
      "裸": 4120,
      "製": 4121,
      "褒": 4122,
      "襄": 4123,
      "襟": 4124,
      "襲": 4125,
      "西": 4126,
      "要": 4127,
      "覇": 4128,
      "見": 4129,
      "規": 4130,
      "視": 4131,
      "覚": 4132,
      "親": 4133,
      "観": 4134,
      "覺": 4135,
      "觀": 4136,
      "观": 4137,
      "角": 4138,
      "解": 4139,
      "触": 4140,
      "觳": 4141,
      "言": 4142,
      "計": 4143,
      "記": 4144,
      "設": 4145,
      "許": 4146,
      "訳": 4147,
      "証": 4148,
      "詔": 4149,
      "詞": 4150,
      "詠": 4151,
      "試": 4152,
      "詩": 4153,
      "話": 4154,
      "誌": 4155,
      "誐": 4156,
      "誒": 4157,
      "誓": 4158,
      "誕": 4159,
      "誘": 4160,
      "語": 4161,
      "誠": 4162,
      "誡": 4163,
      "誦": 4164,
      "說": 4165,
      "説": 4166,
      "読": 4167,
      "誰": 4168,
      "課": 4169,
      "調": 4170,
      "談": 4171,
      "論": 4172,
      "諭": 4173,
      "諷": 4174,
      "諸": 4175,
      "謀": 4176,
      "謁": 4177,
      "謎": 4178,
      "謙": 4179,
      "講": 4180,
      "謝": 4181,
      "謡": 4182,
      "識": 4183,
      "譚": 4184,
      "譜": 4185,
      "警": 4186,
      "議": 4187,
      "護": 4188,
      "讀": 4189,
      "變": 4190,
      "讐": 4191,
      "讓": 4192,
      "计": 4193,
      "让": 4194,
      "议": 4195,
      "许": 4196,
      "论": 4197,
      "讼": 4198,
      "诉": 4199,
      "词": 4200,
      "诗": 4201,
      "诚": 4202,
      "话": 4203,
      "语": 4204,
      "诶": 4205,
      "请": 4206,
      "诺": 4207,
      "读": 4208,
      "课": 4209,
      "谁": 4210,
      "谦": 4211,
      "谭": 4212,
      "谷": 4213,
      "豆": 4214,
      "豊": 4215,
      "豌": 4216,
      "豐": 4217,
      "豚": 4218,
      "象": 4219,
      "豪": 4220,
      "豫": 4221,
      "豬": 4222,
      "豹": 4223,
      "貓": 4224,
      "貝": 4225,
      "貞": 4226,
      "負": 4227,
      "財": 4228,
      "貫": 4229,
      "貴": 4230,
      "費": 4231,
      "賀": 4232,
      "資": 4233,
      "賈": 4234,
      "賊": 4235,
      "賓": 4236,
      "賞": 4237,
      "賢": 4238,
      "賦": 4239,
      "質": 4240,
      "購": 4241,
      "贝": 4242,
      "贞": 4243,
      "财": 4244,
      "贤": 4245,
      "质": 4246,
      "贵": 4247,
      "贺": 4248,
      "贼": 4249,
      "资": 4250,
      "赤": 4251,
      "赭": 4252,
      "走": 4253,
      "赵": 4254,
      "起": 4255,
      "超": 4256,
      "越": 4257,
      "趙": 4258,
      "足": 4259,
      "跆": 4260,
      "跑": 4261,
      "跖": 4262,
      "跟": 4263,
      "跡": 4264,
      "路": 4265,
      "跳": 4266,
      "踊": 4267,
      "踏": 4268,
      "踢": 4269,
      "蹴": 4270,
      "身": 4271,
      "車": 4272,
      "軌": 4273,
      "軍": 4274,
      "軒": 4275,
      "転": 4276,
      "軽": 4277,
      "載": 4278,
      "輔": 4279,
      "輛": 4280,
      "輝": 4281,
      "輪": 4282,
      "輿": 4283,
      "轉": 4284,
      "车": 4285,
      "轩": 4286,
      "转": 4287,
      "辆": 4288,
      "辉": 4289,
      "辛": 4290,
      "辣": 4291,
      "辭": 4292,
      "辯": 4293,
      "辰": 4294,
      "農": 4295,
      "边": 4296,
      "辺": 4297,
      "辽": 4298,
      "达": 4299,
      "辿": 4300,
      "迄": 4301,
      "迅": 4302,
      "过": 4303,
      "迈": 4304,
      "运": 4305,
      "近": 4306,
      "返": 4307,
      "这": 4308,
      "进": 4309,
      "远": 4310,
      "迦": 4311,
      "迪": 4312,
      "述": 4313,
      "迷": 4314,
      "追": 4315,
      "送": 4316,
      "适": 4317,
      "逆": 4318,
      "选": 4319,
      "這": 4320,
      "通": 4321,
      "造": 4322,
      "逢": 4323,
      "連": 4324,
      "逯": 4325,
      "週": 4326,
      "進": 4327,
      "遁": 4328,
      "遇": 4329,
      "遊": 4330,
      "運": 4331,
      "遍": 4332,
      "過": 4333,
      "道": 4334,
      "達": 4335,
      "遗": 4336,
      "遙": 4337,
      "遜": 4338,
      "遠": 4339,
      "遥": 4340,
      "遮": 4341,
      "選": 4342,
      "遺": 4343,
      "遼": 4344,
      "避": 4345,
      "邁": 4346,
      "還": 4347,
      "邊": 4348,
      "邑": 4349,
      "邓": 4350,
      "那": 4351,
      "邦": 4352,
      "邪": 4353,
      "邱": 4354,
      "郁": 4355,
      "郊": 4356,
      "郎": 4357,
      "郑": 4358,
      "郛": 4359,
      "郝": 4360,
      "郡": 4361,
      "部": 4362,
      "郭": 4363,
      "郷": 4364,
      "都": 4365,
      "鄧": 4366,
      "鄭": 4367,
      "酈": 4368,
      "酉": 4369,
      "酒": 4370,
      "酔": 4371,
      "酥": 4372,
      "酱": 4373,
      "酷": 4374,
      "酸": 4375,
      "醋": 4376,
      "醒": 4377,
      "醫": 4378,
      "采": 4379,
      "釈": 4380,
      "釋": 4381,
      "里": 4382,
      "重": 4383,
      "野": 4384,
      "量": 4385,
      "金": 4386,
      "釗": 4387,
      "釣": 4388,
      "鈍": 4389,
      "鈴": 4390,
      "鉄": 4391,
      "鉢": 4392,
      "鉦": 4393,
      "鉱": 4394,
      "鉴": 4395,
      "銀": 4396,
      "銃": 4397,
      "銅": 4398,
      "銓": 4399,
      "銖": 4400,
      "銘": 4401,
      "銳": 4402,
      "鋒": 4403,
      "鋪": 4404,
      "鋼": 4405,
      "錄": 4406,
      "錡": 4407,
      "錦": 4408,
      "錬": 4409,
      "録": 4410,
      "鍋": 4411,
      "鍵": 4412,
      "鎖": 4413,
      "鎧": 4414,
      "鎮": 4415,
      "鏡": 4416,
      "鐘": 4417,
      "鐵": 4418,
      "鐸": 4419,
      "鑒": 4420,
      "钊": 4421,
      "钢": 4422,
      "钦": 4423,
      "钱": 4424,
      "铁": 4425,
      "铎": 4426,
      "铜": 4427,
      "铭": 4428,
      "铺": 4429,
      "锡": 4430,
      "键": 4431,
      "镇": 4432,
      "镗": 4433,
      "镜": 4434,
      "長": 4435,
      "长": 4436,
      "門": 4437,
      "閃": 4438,
      "開": 4439,
      "閏": 4440,
      "閒": 4441,
      "間": 4442,
      "関": 4443,
      "閣": 4444,
      "閨": 4445,
      "闇": 4446,
      "闍": 4447,
      "闕": 4448,
      "闘": 4449,
      "關": 4450,
      "门": 4451,
      "问": 4452,
      "闯": 4453,
      "阁": 4454,
      "阪": 4455,
      "防": 4456,
      "阳": 4457,
      "阿": 4458,
      "陀": 4459,
      "附": 4460,
      "际": 4461,
      "陈": 4462,
      "降": 4463,
      "限": 4464,
      "陛": 4465,
      "院": 4466,
      "陣": 4467,
      "除": 4468,
      "陪": 4469,
      "陳": 4470,
      "陵": 4471,
      "陶": 4472,
      "陸": 4473,
      "険": 4474,
      "陽": 4475,
      "隆": 4476,
      "隊": 4477,
      "階": 4478,
      "隔": 4479,
      "隗": 4480,
      "隠": 4481,
      "隣": 4482,
      "隱": 4483,
      "隴": 4484,
      "隸": 4485,
      "隻": 4486,
      "隼": 4487,
      "雀": 4488,
      "雁": 4489,
      "雄": 4490,
      "雅": 4491,
      "集": 4492,
      "雇": 4493,
      "雉": 4494,
      "雎": 4495,
      "雕": 4496,
      "雙": 4497,
      "雛": 4498,
      "雜": 4499,
      "雞": 4500,
      "離": 4501,
      "難": 4502,
      "雨": 4503,
      "雪": 4504,
      "雲": 4505,
      "雳": 4506,
      "零": 4507,
      "雷": 4508,
      "電": 4509,
      "雾": 4510,
      "需": 4511,
      "霆": 4512,
      "震": 4513,
      "霊": 4514,
      "霍": 4515,
      "霖": 4516,
      "霜": 4517,
      "霞": 4518,
      "霧": 4519,
      "霰": 4520,
      "露": 4521,
      "霸": 4522,
      "霹": 4523,
      "靂": 4524,
      "靈": 4525,
      "青": 4526,
      "靖": 4527,
      "静": 4528,
      "非": 4529,
      "靠": 4530,
      "面": 4531,
      "革": 4532,
      "靴": 4533,
      "靼": 4534,
      "鞋": 4535,
      "鞍": 4536,
      "鞠": 4537,
      "韃": 4538,
      "韋": 4539,
      "韓": 4540,
      "韦": 4541,
      "韩": 4542,
      "韭": 4543,
      "音": 4544,
      "韶": 4545,
      "響": 4546,
      "頃": 4547,
      "項": 4548,
      "順": 4549,
      "須": 4550,
      "頌": 4551,
      "領": 4552,
      "頭": 4553,
      "顆": 4554,
      "題": 4555,
      "額": 4556,
      "顏": 4557,
      "顔": 4558,
      "願": 4559,
      "顯": 4560,
      "项": 4561,
      "顾": 4562,
      "颂": 4563,
      "颊": 4564,
      "颖": 4565,
      "颗": 4566,
      "颜": 4567,
      "風": 4568,
      "颪": 4569,
      "颱": 4570,
      "飄": 4571,
      "风": 4572,
      "飛": 4573,
      "飞": 4574,
      "食": 4575,
      "飯": 4576,
      "飾": 4577,
      "餅": 4578,
      "養": 4579,
      "餓": 4580,
      "館": 4581,
      "饼": 4582,
      "馆": 4583,
      "馒": 4584,
      "首": 4585,
      "香": 4586,
      "馬": 4587,
      "馮": 4588,
      "駆": 4589,
      "駐": 4590,
      "駒": 4591,
      "駙": 4592,
      "駢": 4593,
      "駿": 4594,
      "騎": 4595,
      "騒": 4596,
      "験": 4597,
      "騭": 4598,
      "騰": 4599,
      "騷": 4600,
      "驁": 4601,
      "驚": 4602,
      "驤": 4603,
      "马": 4604,
      "驰": 4605,
      "骨": 4606,
      "骸": 4607,
      "髀": 4608,
      "高": 4609,
      "髪": 4610,
      "鬘": 4611,
      "鬥": 4612,
      "鬪": 4613,
      "鬼": 4614,
      "魂": 4615,
      "魄": 4616,
      "魔": 4617,
      "魚": 4618,
      "魯": 4619,
      "鮑": 4620,
      "鮫": 4621,
      "鮮": 4622,
      "鯖": 4623,
      "鯵": 4624,
      "鰐": 4625,
      "鱀": 4626,
      "鱼": 4627,
      "鲁": 4628,
      "鲤": 4629,
      "鳥": 4630,
      "鳩": 4631,
      "鳳": 4632,
      "鳴": 4633,
      "鳶": 4634,
      "鴉": 4635,
      "鴣": 4636,
      "鴨": 4637,
      "鴻": 4638,
      "鵡": 4639,
      "鵩": 4640,
      "鵬": 4641,
      "鶍": 4642,
      "鶴": 4643,
      "鷓": 4644,
      "鷹": 4645,
      "鷺": 4646,
      "鸚": 4647,
      "鸟": 4648,
      "鸡": 4649,
      "鸭": 4650,
      "鸿": 4651,
      "鹅": 4652,
      "鹹": 4653,
      "鹼": 4654,
      "鹽": 4655,
      "鹿": 4656,
      "麗": 4657,
      "麥": 4658,
      "麵": 4659,
      "麻": 4660,
      "麼": 4661,
      "麾": 4662,
      "黃": 4663,
      "黄": 4664,
      "黎": 4665,
      "黑": 4666,
      "黒": 4667,
      "黙": 4668,
      "黛": 4669,
      "黨": 4670,
      "鼉": 4671,
      "鼎": 4672,
      "鼓": 4673,
      "鼠": 4674,
      "鼻": 4675,
      "齉": 4676,
      "齊": 4677,
      "齋": 4678,
      "齐": 4679,
      "龍": 4680,
      "龙": 4681,
      "ꜛ": 4682,
      "ꜜ": 4683,
      "ꜣ": 4684,
      "ꜩ": 4685,
      "ꜫ": 4686,
      "ꜭ": 4687,
      "ꞅ": 4688,
      "ꞎ": 4689,
      "Ʞ": 4690,
      "ꞵ": 4691,
      "ꦂ": 4692,
      "ꦠ": 4693,
      "ꦯ": 4694,
      "ꦲ": 4695,
      "ꦸ": 4696,
      "ꭓ": 4697,
      "가": 4698,
      "간": 4699,
      "강": 4700,
      "개": 4701,
      "거": 4702,
      "건": 4703,
      "경": 4704,
      "계": 4705,
      "고": 4706,
      "공": 4707,
      "관": 4708,
      "광": 4709,
      "구": 4710,
      "국": 4711,
      "권": 4712,
      "귀": 4713,
      "그": 4714,
      "극": 4715,
      "근": 4716,
      "글": 4717,
      "금": 4718,
      "급": 4719,
      "기": 4720,
      "김": 4721,
      "꺼": 4722,
      "껐": 4723,
      "나": 4724,
      "날": 4725,
      "남": 4726,
      "났": 4727,
      "내": 4728,
      "너": 4729,
      "네": 4730,
      "념": 4731,
      "노": 4732,
      "놔": 4733,
      "눈": 4734,
      "늬": 4735,
      "다": 4736,
      "단": 4737,
      "대": 4738,
      "더": 4739,
      "도": 4740,
      "독": 4741,
      "돌": 4742,
      "동": 4743,
      "디": 4744,
      "딱": 4745,
      "라": 4746,
      "람": 4747,
      "래": 4748,
      "런": 4749,
      "렌": 4750,
      "려": 4751,
      "렬": 4752,
      "로": 4753,
      "록": 4754,
      "론": 4755,
      "루": 4756,
      "류": 4757,
      "르": 4758,
      "를": 4759,
      "리": 4760,
      "립": 4761,
      "마": 4762,
      "막": 4763,
      "만": 4764,
      "말": 4765,
      "명": 4766,
      "목": 4767,
      "무": 4768,
      "문": 4769,
      "물": 4770,
      "미": 4771,
      "민": 4772,
      "믿": 4773,
      "바": 4774,
      "박": 4775,
      "방": 4776,
      "백": 4777,
      "뱅": 4778,
      "버": 4779,
      "범": 4780,
      "법": 4781,
      "별": 4782,
      "병": 4783,
      "보": 4784,
      "복": 4785,
      "봐": 4786,
      "부": 4787,
      "불": 4788,
      "붉": 4789,
      "빅": 4790,
      "빙": 4791,
      "빤": 4792,
      "뿐": 4793,
      "사": 4794,
      "산": 4795,
      "살": 4796,
      "삼": 4797,
      "삿": 4798,
      "상": 4799,
      "새": 4800,
      "색": 4801,
      "서": 4802,
      "성": 4803,
      "센": 4804,
      "소": 4805,
      "쇼": 4806,
      "수": 4807,
      "순": 4808,
      "술": 4809,
      "숫": 4810,
      "스": 4811,
      "시": 4812,
      "식": 4813,
      "신": 4814,
      "실": 4815,
      "쌤": 4816,
      "아": 4817,
      "안": 4818,
      "알": 4819,
      "암": 4820,
      "앙": 4821,
      "애": 4822,
      "앤": 4823,
      "야": 4824,
      "양": 4825,
      "어": 4826,
      "에": 4827,
      "엔": 4828,
      "연": 4829,
      "영": 4830,
      "예": 4831,
      "오": 4832,
      "온": 4833,
      "왜": 4834,
      "용": 4835,
      "운": 4836,
      "울": 4837,
      "원": 4838,
      "위": 4839,
      "유": 4840,
      "은": 4841,
      "을": 4842,
      "음": 4843,
      "의": 4844,
      "이": 4845,
      "인": 4846,
      "일": 4847,
      "자": 4848,
      "장": 4849,
      "재": 4850,
      "적": 4851,
      "전": 4852,
      "점": 4853,
      "정": 4854,
      "제": 4855,
      "조": 4856,
      "종": 4857,
      "좋": 4858,
      "주": 4859,
      "줄": 4860,
      "중": 4861,
      "지": 4862,
      "진": 4863,
      "집": 4864,
      "짓": 4865,
      "징": 4866,
      "차": 4867,
      "천": 4868,
      "청": 4869,
      "체": 4870,
      "쳐": 4871,
      "초": 4872,
      "춘": 4873,
      "충": 4874,
      "치": 4875,
      "커": 4876,
      "코": 4877,
      "킨": 4878,
      "타": 4879,
      "태": 4880,
      "터": 4881,
      "퇴": 4882,
      "투": 4883,
      "트": 4884,
      "특": 4885,
      "파": 4886,
      "판": 4887,
      "퍼": 4888,
      "평": 4889,
      "표": 4890,
      "풍": 4891,
      "피": 4892,
      "하": 4893,
      "학": 4894,
      "한": 4895,
      "합": 4896,
      "해": 4897,
      "행": 4898,
      "향": 4899,
      "허": 4900,
      "헬": 4901,
      "호": 4902,
      "혹": 4903,
      "홀": 4904,
      "화": 4905,
      "회": 4906,
      "후": 4907,
      "희": 4908,
      "ﬀ": 4909,
      "ﬁ": 4910,
      "ﬂ": 4911,
      "ﮭ": 4912,
      "ﮮ": 4913,
      "ﷲ": 4914,
      "ﷺ": 4915,
      "️": 4916,
      "︠": 4917,
      "︡": 4918,
      "ﺒ": 4919,
      "ﻉ": 4920,
      "ﻋ": 4921,
      "ﻔ": 4922,
      "ﻴ": 4923,
      "﻿": 4924,
      "！": 4925,
      "％": 4926,
      "＆": 4927,
      "（": 4928,
      "）": 4929,
      "，": 4930,
      "－": 4931,
      "／": 4932,
      "１": 4933,
      "２": 4934,
      "３": 4935,
      "４": 4936,
      "６": 4937,
      "：": 4938,
      "＜": 4939,
      "＝": 4940,
      "＞": 4941,
      "？": 4942,
      "Ａ": 4943,
      "Ｃ": 4944,
      "Ｄ": 4945,
      "Ｇ": 4946,
      "Ｉ": 4947,
      "Ｊ": 4948,
      "Ｌ": 4949,
      "Ｍ": 4950,
      "Ｐ": 4951,
      "Ｒ": 4952,
      "Ｘ": 4953,
      "［": 4954,
      "］": 4955,
      "｜": 4956,
      "～": 4957,
      "｢": 4958,
      "｣": 4959,
      "･": 4960,
      "ｰ": 4961,
      "￥": 4962,
      "�": 4963,
      "𐀁": 4964,
      "𐀈": 4965,
      "𐀫": 4966,
      "𐎠": 4967,
      "𐎢": 4968,
      "𐎭": 4969,
      "𐎰": 4970,
      "𐎹": 4971,
      "𐎺": 4972,
      "𐎼": 4973,
      "𐏁": 4974,
      "𐭃": 4975,
      "𐭉": 4976,
      "𐭓": 4977,
      "𐭕": 4978,
      "𒀯": 4979,
      "𒀳": 4980,
      "𝕄": 4981,
      "𝕡": 4982,
      "🖕": 4983,
      "e ": 4984,
      "s ": 4985,
      "th": 4986,
      "d ": 4987,
      "n ": 4988,
      "er": 4989,
      "t ": 4990,
      "the ": 4991,
      "in": 4992,
      "an": 4993,
      ", ": 4994,
      "y ": 4995,
      "ed ": 4996,
      "or": 4997,
      ". ": 4998,
      "ar": 4999,
      "al": 5000,
      "o ": 5001,
      "re": 5002,
      "f ": 5003,
      "ti": 5004,
      "en": 5005,
      "on": 5006,
      "er ": 5007,
      "and ": 5008,
      "g ": 5009,
      "a ": 5010,
      "of ": 5011,
      "on ": 5012,
      "ing ": 5013,
      "in ": 5014,
      "ou": 5015,
      "to ": 5016,
      "as ": 5017,
      "st": 5018,
      "at": 5019,
      "es ": 5020,
      "ic": 5021,
      "ro": 5022,
      "m ": 5023,
      "el": 5024,
      "= ": 5025,
      "il": 5026,
      " , ": 5027,
      "ac": 5028,
      "it": 5029,
      "is ": 5030,
      "he ": 5031,
      "at ": 5032,
      "an ": 5033,
      "al ": 5034,
      "is": 5035,
      "\" ": 5036,
      "h ": 5037,
      "for": 5038,
      "@ ": 5039,
      "th ": 5040,
      "as": 5041,
      "ec": 5042,
      "ur": 5043,
      "es": 5044,
      "om": 5045,
      "was ": 5046,
      "am": 5047,
      "ol": 5048,
      "en ": 5049,
      "ir": 5050,
      "tion ": 5051,
      "ly ": 5052,
      "ow": 5053,
      "si": 5054,
      "ri": 5055,
      "-@ ": 5056,
      "@-@ ": 5057,
      "= = ": 5058,
      "The ": 5059,
      "wh": 5060,
      "of the ": 5061,
      "ad": 5062,
      "wi": 5063,
      "em": 5064,
      "l ": 5065,
      "ch": 5066,
      "k ": 5067,
      "'s ": 5068,
      "un": 5069,
      "pl": 5070,
      ". \n": 5071,
      "us": 5072,
      "that ": 5073,
      "for ": 5074,
      "di": 5075,
      "ag": 5076,
      "ev": 5077,
      "ha": 5078,
      "ent ": 5079,
      "by ": 5080,
      "ig": 5081,
      "ve ": 5082,
      "with ": 5083,
      "et": 5084,
      "con": 5085,
      "s , ": 5086,
      "os": 5087,
      "( ": 5088,
      "ent": 5089,
      "le": 5090,
      "e , ": 5091,
      "ra": 5092,
      "su": 5093,
      "19": 5094,
      "0 ": 5095,
      "ere ": 5096,
      ". The ": 5097,
      "in the ": 5098,
      "li": 5099,
      "op": 5100,
      "pro": 5101,
      "his ": 5102,
      "or ": 5103,
      "le ": 5104,
      "ov": 5105,
      "ear": 5106,
      "oun": 5107,
      "ab": 5108,
      "be": 5109,
      "com": 5110,
      "ers ": 5111,
      "hi": 5112,
      "bu": 5113,
      "ce ": 5114,
      ") ": 5115,
      "ap": 5116,
      "ex": 5117,
      "the": 5118,
      "rom ": 5119,
      "tion": 5120,
      "ation ": 5121,
      "ul": 5122,
      "it ": 5123,
      "from ": 5124,
      "ted ": 5125,
      "ep": 5126,
      "ay ": 5127,
      "oc": 5128,
      "20": 5129,
      "ter ": 5130,
      "cl": 5131,
      "id": 5132,
      "ew": 5133,
      "sp": 5134,
      "uc": 5135,
      "were ": 5136,
      ". I": 5137,
      "to the ": 5138,
      "im": 5139,
      "st ": 5140,
      "ther ": 5141,
      "p ": 5142,
      "our": 5143,
      "tr": 5144,
      "qu": 5145,
      "tic": 5146,
      "oo": 5147,
      "ts ": 5148,
      "ter": 5149,
      "se": 5150,
      "per": 5151,
      "ea": 5152,
      "ff": 5153,
      ". A": 5154,
      "ated ": 5155,
      "ay": 5156,
      "ate ": 5157,
      "pre": 5158,
      "sh": 5159,
      "ing": 5160,
      "ity ": 5161,
      "ain": 5162,
      "no": 5163,
      "ic ": 5164,
      "had ": 5165,
      " = = ": 5166,
      "ich ": 5167,
      "ar ": 5168,
      "igh": 5169,
      "rec": 5170,
      "ed the ": 5171,
      "ld ": 5172,
      "um": 5173,
      "ing the ": 5174,
      "iv": 5175,
      ", and ": 5176,
      "oug": 5177,
      "ds ": 5178,
      "1 ": 5179,
      "ir ": 5180,
      "ed to ": 5181,
      "ch ": 5182,
      "which ": 5183,
      "e of ": 5184,
      "ame ": 5185,
      "ak": 5186,
      "est ": 5187,
      "str": 5188,
      "ber ": 5189,
      "St": 5190,
      "5 ": 5191,
      "2 ": 5192,
      "par": 5193,
      "be ": 5194,
      "ud": 5195,
      "ally ": 5196,
      "ed by ": 5197,
      "are ": 5198,
      "out ": 5199,
      "ed": 5200,
      ". H": 5201,
      "od": 5202,
      "all": 5203,
      "all ": 5204,
      "so ": 5205,
      "fir": 5206,
      "ation": 5207,
      "av": 5208,
      ". T": 5209,
      "ies ": 5210,
      "et ": 5211,
      "one ": 5212,
      "tim": 5213,
      "ong ": 5214,
      "est": 5215,
      "ary ": 5216,
      "3 ": 5217,
      "on the ": 5218,
      "its ": 5219,
      "man": 5220,
      "por": 5221,
      "wor": 5222,
      "Ch": 5223,
      "po": 5224,
      "ew ": 5225,
      "4 ": 5226,
      "tur": 5227,
      "but ": 5228,
      "bl": 5229,
      "att": 5230,
      "ow ": 5231,
      "not ": 5232,
      "ould ": 5233,
      "ser": 5234,
      "el ": 5235,
      "s and ": 5236,
      "200": 5237,
      "her ": 5238,
      "ran": 5239,
      "fter ": 5240,
      "6 ": 5241,
      "ot": 5242,
      "og": 5243,
      "der ": 5244,
      "tw": 5245,
      "own ": 5246,
      "ard ": 5247,
      "we": 5248,
      "sc": 5249,
      "ge ": 5250,
      "; ": 5251,
      ". In ": 5252,
      "first ": 5253,
      "8 ": 5254,
      "their ": 5255,
      "de": 5256,
      "– ": 5257,
      "i ": 5258,
      "ine ": 5259,
      "ding ": 5260,
      "7 ": 5261,
      ", the ": 5262,
      "ed in ": 5263,
      ": ": 5264,
      "also ": 5265,
      "ough ": 5266,
      "cont": 5267,
      "for the ": 5268,
      "ost ": 5269,
      "ast ": 5270,
      "s of ": 5271,
      "vi": 5272,
      "oll": 5273,
      "ound ": 5274,
      "ment ": 5275,
      "ore ": 5276,
      "sid": 5277,
      "00 ": 5278,
      "other ": 5279,
      "ut": 5280,
      "id ": 5281,
      "ain ": 5282,
      "have ": 5283,
      " The ": 5284,
      "and the ": 5285,
      "ill": 5286,
      "ion ": 5287,
      "fl": 5288,
      "fi": 5289,
      "aw": 5290,
      ".@ ": 5291,
      "@.@ ": 5292,
      "dis": 5293,
      "es , ": 5294,
      "er , ": 5295,
      "gr": 5296,
      "two ": 5297,
      "e the ": 5298,
      "shi": 5299,
      "bec": 5300,
      "bo": 5301,
      "who ": 5302,
      "ack ": 5303,
      "stor": 5304,
      "duc": 5305,
      "ver": 5306,
      "ph": 5307,
      "been ": 5308,
      "has ": 5309,
      "end": 5310,
      "sec": 5311,
      "ia ": 5312,
      "= \n": 5313,
      ". S": 5314,
      "over": 5315,
      "ru": 5316,
      "= = \n": 5317,
      "9 ": 5318,
      "ely ": 5319,
      "ey ": 5320,
      ",@ ": 5321,
      "@,@ ": 5322,
      "201": 5323,
      "des": 5324,
      "age ": 5325,
      "tive ": 5326,
      "au": 5327,
      "this ": 5328,
      "year": 5329,
      "ob": 5330,
      "form": 5331,
      "ting ": 5332,
      "ass": 5333,
      "clud": 5334,
      "ome ": 5335,
      "at the ": 5336,
      "ell": 5337,
      "I ": 5338,
      ". \" ": 5339,
      "comm": 5340,
      "pr": 5341,
      "mil": 5342,
      "ence ": 5343,
      "18": 5344,
      "ember ": 5345,
      "ack": 5346,
      "cre": 5347,
      "fin": 5348,
      "ant ": 5349,
      "and": 5350,
      "they ": 5351,
      "our ": 5352,
      "ous ": 5353,
      "' ": 5354,
      "min": 5355,
      "with the ": 5356,
      " , and ": 5357,
      "ight ": 5358,
      "Un": 5359,
      "from the ": 5360,
      "Mar": 5361,
      "sion ": 5362,
      "ue ": 5363,
      "ater ": 5364,
      "ish": 5365,
      "us ": 5366,
      "after ": 5367,
      "includ": 5368,
      "land ": 5369,
      "In": 5370,
      ". He ": 5371,
      "ical ": 5372,
      "fe": 5373,
      "ad ": 5374,
      "would ": 5375,
      "pe": 5376,
      "il ": 5377,
      "able ": 5378,
      "rit": 5379,
      "y , ": 5380,
      "res": 5381,
      "son ": 5382,
      "se ": 5383,
      "ial ": 5384,
      "as a ": 5385,
      "me": 5386,
      "over ": 5387,
      "ast": 5388,
      "ell ": 5389,
      " A": 5390,
      "ed a ": 5391,
      "ian ": 5392,
      "ree ": 5393,
      "eg": 5394,
      "ents ": 5395,
      "ft ": 5396,
      " = = = ": 5397,
      "pres": 5398,
      "play": 5399,
      "eral ": 5400,
      ". Th": 5401,
      "ess ": 5402,
      "fil": 5403,
      " @-@ ": 5404,
      "ren": 5405,
      "cri": 5406,
      " , the ": 5407,
      "man ": 5408,
      "char": 5409,
      "inter": 5410,
      "rem": 5411,
      "gu": 5412,
      "ade ": 5413,
      "pos": 5414,
      "enc": 5415,
      "iz": 5416,
      "pu": 5417,
      "ern ": 5418,
      "mer": 5419,
      "off": 5420,
      ". B": 5421,
      "= = = \n": 5422,
      "more ": 5423,
      "ty ": 5424,
      ". O": 5425,
      "ice ": 5426,
      "ess": 5427,
      "anc": 5428,
      "spec": 5429,
      "up ": 5430,
      "ann": 5431,
      "ace ": 5432,
      "ese ": 5433,
      "ates ": 5434,
      "that the ": 5435,
      "ons ": 5436,
      "bet": 5437,
      "ance ": 5438,
      "ke ": 5439,
      "tic ": 5440,
      "ust ": 5441,
      "x ": 5442,
      "ht ": 5443,
      "ond ": 5444,
      "most ": 5445,
      "a , ": 5446,
      "mar": 5447,
      "time ": 5448,
      "kn": 5449,
      "ile ": 5450,
      "der": 5451,
      "dec": 5452,
      "when ": 5453,
      "serv": 5454,
      "Au": 5455,
      "car": 5456,
      "him ": 5457,
      "she ": 5458,
      "int": 5459,
      "ong": 5460,
      "dur": 5461,
      ". It ": 5462,
      "um ": 5463,
      ". W": 5464,
      "ach": 5465,
      "ks ": 5466,
      "ited ": 5467,
      "iti": 5468,
      "only ": 5469,
      ") , ": 5470,
      "ist": 5471,
      "ite ": 5472,
      "as the ": 5473,
      "vid": 5474,
      "t of ": 5475,
      "cent": 5476,
      "aus": 5477,
      "sur": 5478,
      "in 19": 5479,
      "lar": 5480,
      "ish ": 5481,
      "reg": 5482,
      "thr": 5483,
      "sa": 5484,
      "than ": 5485,
      "An": 5486,
      "old ": 5487,
      "ations ": 5488,
      " I": 5489,
      "co": 5490,
      "ween ": 5491,
      "te ": 5492,
      "Ar": 5493,
      "end ": 5494,
      "sev": 5495,
      "row": 5496,
      "cor": 5497,
      "tor": 5498,
      "ric": 5499,
      "En": 5500,
      "tra": 5501,
      "about ": 5502,
      "ason ": 5503,
      "Al": 5504,
      "mon": 5505,
      "Th": 5506,
      "way ": 5507,
      "sy": 5508,
      "ship ": 5509,
      "ased ": 5510,
      "ans ": 5511,
      "amp": 5512,
      "pan": 5513,
      "enti": 5514,
      "ton ": 5515,
      "atur": 5516,
      "between ": 5517,
      "ist ": 5518,
      "tions ": 5519,
      "ood ": 5520,
      "rele": 5521,
      "to": 5522,
      "am ": 5523,
      "ple ": 5524,
      "ook ": 5525,
      "ang": 5526,
      "up": 5527,
      "sel": 5528,
      "of": 5529,
      "air": 5530,
      "rel": 5531,
      "num": 5532,
      "produc": 5533,
      "te": 5534,
      "ill ": 5535,
      "ollow": 5536,
      "king ": 5537,
      "ach ": 5538,
      "three ": 5539,
      "evel": 5540,
      ". M": 5541,
      "if": 5542,
      "ning ": 5543,
      "A ": 5544,
      "in a ": 5545,
      "into ": 5546,
      "tis": 5547,
      "tiv": 5548,
      "meric": 5549,
      "gen": 5550,
      "ational ": 5551,
      "ber": 5552,
      "ot ": 5553,
      "nor": 5554,
      "als ": 5555,
      "sub": 5556,
      "to be ": 5557,
      "\" , ": 5558,
      "new ": 5559,
      "rig": 5560,
      ". D": 5561,
      "@,@ 0": 5562,
      "res ": 5563,
      "ail": 5564,
      ". F": 5565,
      "writ": 5566,
      "Americ": 5567,
      "ind": 5568,
      "beg": 5569,
      "eb": 5570,
      "app": 5571,
      "ed , ": 5572,
      "ake ": 5573,
      "ose ": 5574,
      "where ": 5575,
      "coun": 5576,
      "Com": 5577,
      "Jo": 5578,
      "game ": 5579,
      " In ": 5580,
      "ement ": 5581,
      "sig": 5582,
      "ase ": 5583,
      "hel": 5584,
      "though ": 5585,
      "ry ": 5586,
      "ard": 5587,
      "ten ": 5588,
      "fu": 5589,
      "ating ": 5590,
      "recor": 5591,
      "ub": 5592,
      "film ": 5593,
      "ings ": 5594,
      "Par": 5595,
      "ous": 5596,
      "op ": 5597,
      "199": 5598,
      "later ": 5599,
      "re ": 5600,
      "es and ": 5601,
      "season ": 5602,
      "S ": 5603,
      "t , ": 5604,
      "mus": 5605,
      "oy": 5606,
      "struc": 5607,
      "tit": 5608,
      "loc": 5609,
      "vis": 5610,
      "buil": 5611,
      "riv": 5612,
      "inc": 5613,
      "ned ": 5614,
      "s , and ": 5615,
      "pp": 5616,
      "eng": 5617,
      "ked ": 5618,
      "by the ": 5619,
      "such ": 5620,
      "befor": 5621,
      "ma": 5622,
      "@,@ 000 ": 5623,
      "es of ": 5624,
      "Nor": 5625,
      "cap": 5626,
      "mo": 5627,
      "pol": 5628,
      "with a ": 5629,
      "Con": 5630,
      "New ": 5631,
      "albu": 5632,
      "he": 5633,
      "publ": 5634,
      "eam ": 5635,
      "ected ": 5636,
      "them ": 5637,
      "owev": 5638,
      "ead ": 5639,
      "outh ": 5640,
      "ear ": 5641,
      "ste": 5642,
      "sl": 5643,
      "made ": 5644,
      "om ": 5645,
      "follow": 5646,
      "then ": 5647,
      "isod": 5648,
      "ps ": 5649,
      "mat": 5650,
      "compl": 5651,
      "/ ": 5652,
      "ing a ": 5653,
      "ble ": 5654,
      "Bri": 5655,
      "ol ": 5656,
      "nam": 5657,
      "ros": 5658,
      "while ": 5659,
      "ainst ": 5660,
      "ea ": 5661,
      "with": 5662,
      "day ": 5663,
      "episod": 5664,
      "through ": 5665,
      "fac": 5666,
      "cho": 5667,
      "ant": 5668,
      "second ": 5669,
      "les ": 5670,
      "star": 5671,
      "mis": 5672,
      "inv": 5673,
      "against ": 5674,
      "sup": 5675,
      "ed that ": 5676,
      "many ": 5677,
      "br": 5678,
      "well ": 5679,
      "charac": 5680,
      "lin": 5681,
      "posi": 5682,
      "can ": 5683,
      "some ": 5684,
      "album ": 5685,
      "tri": 5686,
      "ari": 5687,
      "song ": 5688,
      "C ": 5689,
      "arm": 5690,
      "became ": 5691,
      "gl": 5692,
      "cur": 5693,
      "ily ": 5694,
      "mp": 5695,
      "no ": 5696,
      "call": 5697,
      "number ": 5698,
      "ect ": 5699,
      "fer": 5700,
      "de ": 5701,
      "sing": 5702,
      "cc": 5703,
      "mov": 5704,
      "it was ": 5705,
      "ince ": 5706,
      " S": 5707,
      "he was ": 5708,
      "early ": 5709,
      ". This ": 5710,
      "United ": 5711,
      "— ": 5712,
      "series ": 5713,
      "iver": 5714,
      "ne": 5715,
      "both ": 5716,
      "gre": 5717,
      "ed by the ": 5718,
      "tion of ": 5719,
      "being ": 5720,
      "poin": 5721,
      "work ": 5722,
      "Joh": 5723,
      "known ": 5724,
      "dep": 5725,
      "sist": 5726,
      "devel": 5727,
      "lion ": 5728,
      "lan": 5729,
      "ards ": 5730,
      "e and ": 5731,
      "adi": 5732,
      "ip": 5733,
      "ris": 5734,
      "there ": 5735,
      "ed in the ": 5736,
      "sul": 5737,
      "olog": 5738,
      "contin": 5739,
      "is a ": 5740,
      "bel": 5741,
      "lo": 5742,
      "direc": 5743,
      "ision ": 5744,
      "e , and ": 5745,
      "succ": 5746,
      "Le": 5747,
      "under ": 5748,
      "four ": 5749,
      "ual ": 5750,
      "team ": 5751,
      "ays ": 5752,
      "peri": 5753,
      "y of ": 5754,
      "plac": 5755,
      "orig": 5756,
      "10 ": 5757,
      "ign ": 5758,
      "ower ": 5759,
      "w ": 5760,
      "said ": 5761,
      "overn": 5762,
      "cer": 5763,
      "til": 5764,
      "ered ": 5765,
      "sm": 5766,
      "yp": 5767,
      "diff": 5768,
      "ames ": 5769,
      "rece": 5770,
      "Wor": 5771,
      "Car": 5772,
      "col": 5773,
      "ion": 5774,
      "several ": 5775,
      "ef": 5776,
      "rop": 5777,
      "high": 5778,
      "bro": 5779,
      ". A ": 5780,
      "before ": 5781,
      "Ger": 5782,
      "develop": 5783,
      "did ": 5784,
      "az": 5785,
      "could ": 5786,
      "ury ": 5787,
      "years ": 5788,
      "appear": 5789,
      "sk": 5790,
      "tran": 5791,
      "out": 5792,
      "any ": 5793,
      "ually ": 5794,
      "ters ": 5795,
      "American ": 5796,
      "ound": 5797,
      "tish ": 5798,
      "origin": 5799,
      "ought ": 5800,
      "org": 5801,
      "retur": 5802,
      "ept": 5803,
      "began ": 5804,
      "tical ": 5805,
      "self ": 5806,
      "igh ": 5807,
      ". R": 5808,
      "during the ": 5809,
      "til ": 5810,
      "ture ": 5811,
      "tor ": 5812,
      " B": 5813,
      "view": 5814,
      "ative ": 5815,
      "Ju": 5816,
      "acc": 5817,
      ". P": 5818,
      "ation of ": 5819,
      "sol": 5820,
      "lif": 5821,
      "offic": 5822,
      "ther": 5823,
      "17": 5824,
      "ward ": 5825,
      "ed on ": 5826,
      "owever , ": 5827,
      "go": 5828,
      "oci": 5829,
      "ale ": 5830,
      "ave ": 5831,
      "ass ": 5832,
      ", but ": 5833,
      ". On ": 5834,
      "win": 5835,
      " \" ": 5836,
      "descri": 5837,
      "194": 5838,
      "until ": 5839,
      "tak": 5840,
      "ne ": 5841,
      "was the ": 5842,
      "fam": 5843,
      "Sh": 5844,
      "story ": 5845,
      "line ": 5846,
      ". L": 5847,
      "dre": 5848,
      "leg": 5849,
      "receiv": 5850,
      "Oc": 5851,
      "ors ": 5852,
      "k , ": 5853,
      "t the ": 5854,
      "198": 5855,
      "ery ": 5856,
      "ond": 5857,
      "Cl": 5858,
      "pop": 5859,
      "oper": 5860,
      "forc": 5861,
      "ular ": 5862,
      "grou": 5863,
      "year ": 5864,
      "bor": 5865,
      "tly ": 5866,
      "s the ": 5867,
      "Wh": 5868,
      "off ": 5869,
      "ner ": 5870,
      "1 , ": 5871,
      "suppor": 5872,
      "ten": 5873,
      "ron": 5874,
      "ed for ": 5875,
      "Gre": 5876,
      "million ": 5877,
      "sign": 5878,
      " M": 5879,
      "ing to ": 5880,
      "emp": 5881,
      "back ": 5882,
      ". Wh": 5883,
      "had been ": 5884,
      "ort ": 5885,
      "was a ": 5886,
      "ever ": 5887,
      " ) ": 5888,
      "my ": 5889,
      "ed and ": 5890,
      "Col": 5891,
      "eld ": 5892,
      "mod": 5893,
      "$ ": 5894,
      "Wil": 5895,
      "found ": 5896,
      "peo": 5897,
      "mi": 5898,
      "these ": 5899,
      "including ": 5900,
      "tain": 5901,
      "British ": 5902,
      "ley ": 5903,
      "ird ": 5904,
      "Jun": 5905,
      "pri": 5906,
      "continu": 5907,
      "bre": 5908,
      "remain": 5909,
      "ures ": 5910,
      "stri": 5911,
      "side ": 5912,
      "emb": 5913,
      "m ) ": 5914,
      "abl": 5915,
      "t of the ": 5916,
      "ing , ": 5917,
      "eptember ": 5918,
      "ey": 5919,
      " and ": 5920,
      "20 ": 5921,
      "sive ": 5922,
      "requ": 5923,
      "a f": 5924,
      "took ": 5925,
      "0 , ": 5926,
      "ed with ": 5927,
      "long ": 5928,
      "September ": 5929,
      "ie ": 5930,
      "e , the ": 5931,
      "ful ": 5932,
      "ory ": 5933,
      "same ": 5934,
      "becaus": 5935,
      "Sc": 5936,
      "od ": 5937,
      "ick": 5938,
      ". After ": 5939,
      "tional ": 5940,
      "play ": 5941,
      "ek ": 5942,
      "resul": 5943,
      "around ": 5944,
      "enn": 5945,
      "do": 5946,
      "each ": 5947,
      "ich": 5948,
      "like ": 5949,
      "United St": 5950,
      "World ": 5951,
      "2 , ": 5952,
      "batt": 5953,
      "may ": 5954,
      "ali": 5955,
      "form ": 5956,
      "episode ": 5957,
      " O": 5958,
      "govern": 5959,
      "197": 5960,
      "5 , ": 5961,
      "dr": 5962,
      "Bl": 5963,
      "ash": 5964,
      "196": 5965,
      "ection ": 5966,
      "met": 5967,
      "gust ": 5968,
      "es to ": 5969,
      "ign": 5970,
      "Nov": 5971,
      "50 ": 5972,
      "Austr": 5973,
      "bur": 5974,
      "ed as ": 5975,
      "ens": 5976,
      "ou ": 5977,
      "bri": 5978,
      "repor": 5979,
      "Jan": 5980,
      "pass": 5981,
      "ity of ": 5982,
      "describ": 5983,
      "down ": 5984,
      "4 , ": 5985,
      "s in ": 5986,
      ", which ": 5987,
      "ted to ": 5988,
      "state ": 5989,
      "compan": 5990,
      "Fran": 5991,
      "tain ": 5992,
      "jo": 5993,
      "stem ": 5994,
      "ath": 5995,
      "ving ": 5996,
      "mak": 5997,
      "lead": 5998,
      "s to ": 5999,
      "3 , ": 6000,
      "tober ": 6001,
      "music ": 6002,
      "along ": 6003,
      "October ": 6004,
      "John ": 6005,
      "national ": 6006,
      "August ": 6007,
      "into the ": 6008,
      "such as ": 6009,
      "a and ": 6010,
      "is the ": 6011,
      "Har": 6012,
      "eff": 6013,
      "of a ": 6014,
      "war": 6015,
      "per ": 6016,
      ". E": 6017,
      "air ": 6018,
      "Yor": 6019,
      "try ": 6020,
      "act ": 6021,
      " D": 6022,
      "def": 6023,
      "ently ": 6024,
      "ech": 6025,
      "me ": 6026,
      "five ": 6027,
      "disc": 6028,
      "ven": 6029,
      "have been ": 6030,
      "own": 6031,
      "30 ": 6032,
      "appro": 6033,
      "uch ": 6034,
      "ly": 6035,
      "May ": 6036,
      "ivers": 6037,
      "ately ": 6038,
      "one of the ": 6039,
      "sou": 6040,
      "al , ": 6041,
      "s , the ": 6042,
      "maj": 6043,
      "sion": 6044,
      "For": 6045,
      "Dec": 6046,
      "s were ": 6047,
      "people ": 6048,
      "ough": 6049,
      "ure ": 6050,
      "som": 6051,
      "under": 6052,
      "eo ": 6053,
      "contro": 6054,
      "giv": 6055,
      "thern ": 6056,
      "for a ": 6057,
      "Pro": 6058,
      "Sp": 6059,
      "led ": 6060,
      "band ": 6061,
      "du": 6062,
      "Can": 6063,
      "af": 6064,
      "dra": 6065,
      "6 , ": 6066,
      "resp": 6067,
      "complet": 6068,
      "es in ": 6069,
      "during ": 6070,
      "ounc": 6071,
      "July ": 6072,
      "men ": 6073,
      "aw ": 6074,
      "United States ": 6075,
      "hal": 6076,
      "November ": 6077,
      "consid": 6078,
      "caus": 6079,
      "partic": 6080,
      "det": 6081,
      "Austral": 6082,
      "ism ": 6083,
      "vari": 6084,
      "high ": 6085,
      "gra": 6086,
      "ext ": 6087,
      "ful": 6088,
      ". C": 6089,
      "ah": 6090,
      ". Al": 6091,
      "12 ": 6092,
      "sequ": 6093,
      "since ": 6094,
      "bi": 6095,
      "red ": 6096,
      "uary ": 6097,
      ". They ": 6098,
      "run": 6099,
      "arly ": 6100,
      "set ": 6101,
      " 's ": 6102,
      "open": 6103,
      "os ": 6104,
      "Apr": 6105,
      "dam": 6106,
      "son": 6107,
      "Gu": 6108,
      "did not ": 6109,
      "a 's ": 6110,
      "ished ": 6111,
      "Li": 6112,
      "\" and ": 6113,
      ". N": 6114,
      "coll": 6115,
      "cul": 6116,
      "provid": 6117,
      "incre": 6118,
      "area ": 6119,
      ". In the ": 6120,
      "15 ": 6121,
      "ets ": 6122,
      "larg": 6123,
      "Ge": 6124,
      "ane ": 6125,
      "Ph": 6126,
      "even ": 6127,
      "medi": 6128,
      "er and ": 6129,
      ". \" \n": 6130,
      "tre": 6131,
      "Pl": 6132,
      "ire ": 6133,
      "ouse ": 6134,
      "scho": 6135,
      "to a ": 6136,
      "o , ": 6137,
      "Eu": 6138,
      "used ": 6139,
      "will ": 6140,
      "udi": 6141,
      "bas": 6142,
      "what ": 6143,
      " F": 6144,
      "dition ": 6145,
      "ise ": 6146,
      "Indi": 6147,
      "dem": 6148,
      "left ": 6149,
      "if ": 6150,
      "due ": 6151,
      "differ": 6152,
      "now ": 6153,
      "chil": 6154,
      "ick ": 6155,
      "has been ": 6156,
      "fun": 6157,
      "cas": 6158,
      "es the ": 6159,
      "ug": 6160,
      "released ": 6161,
      "dea": 6162,
      "..": 6163,
      "inst": 6164,
      "expl": 6165,
      "her": 6166,
      "ogra": 6167,
      "December ": 6168,
      "another ": 6169,
      "January ": 6170,
      "Gr": 6171,
      "lim": 6172,
      "aug": 6173,
      "much ": 6174,
      "show ": 6175,
      "June ": 6176,
      "large ": 6177,
      "sum": 6178,
      "Char": 6179,
      "cla": 6180,
      "wro": 6181,
      "position ": 6182,
      "vic": 6183,
      "es ( ": 6184,
      "ati": 6185,
      "Qu": 6186,
      "omin": 6187,
      "place ": 6188,
      "single ": 6189,
      "cour": 6190,
      "Ro": 6191,
      "west ": 6192,
      "ded ": 6193,
      "March ": 6194,
      "gener": 6195,
      "third ": 6196,
      "character ": 6197,
      "cording ": 6198,
      "system ": 6199,
      "comp": 6200,
      "Jap": 6201,
      "itt": 6202,
      "[ ": 6203,
      "equ": 6204,
      "city ": 6205,
      "very ": 6206,
      "called ": 6207,
      "April ": 6208,
      "critic": 6209,
      "adv": 6210,
      "government ": 6211,
      "ins ": 6212,
      ", a ": 6213,
      "es were ": 6214,
      "ility ": 6215,
      "US ": 6216,
      "on a ": 6217,
      "after the ": 6218,
      "North ": 6219,
      "exp": 6220,
      "fa": 6221,
      "] ": 6222,
      "u ": 6223,
      "del": 6224,
      "ock": 6225,
      "previ": 6226,
      "as well ": 6227,
      "% ": 6228,
      "ying ": 6229,
      "final ": 6230,
      "y and ": 6231,
      "rev": 6232,
      "species ": 6233,
      "ific": 6234,
      "War ": 6235,
      "ers , ": 6236,
      "esp": 6237,
      "fur": 6238,
      "hor": 6239,
      "tal": 6240,
      "just ": 6241,
      "pur": 6242,
      "dge ": 6243,
      "resid": 6244,
      "ms ": 6245,
      "port": 6246,
      "forman": 6247,
      "field ": 6248,
      "9 , ": 6249,
      "ys": 6250,
      "er 's ": 6251,
      "ature ": 6252,
      "Fl": 6253,
      "issu": 6254,
      "D ": 6255,
      "Bar": 6256,
      "century ": 6257,
      "do ": 6258,
      "prot": 6259,
      ". She ": 6260,
      "York ": 6261,
      "organ": 6262,
      "flu": 6263,
      "based ": 6264,
      "eer ": 6265,
      ") and ": 6266,
      "ects ": 6267,
      "till ": 6268,
      ", and the ": 6269,
      "cu": 6270,
      "beli": 6271,
      "erg": 6272,
      "group ": 6273,
      "ague ": 6274,
      "ties ": 6275,
      "ef ": 6276,
      "Eng": 6277,
      "7 , ": 6278,
      "fic": 6279,
      "II ": 6280,
      "world ": 6281,
      "right ": 6282,
      "195": 6283,
      "following ": 6284,
      "attemp": 6285,
      "8 , ": 6286,
      "z ": 6287,
      "Gen": 6288,
      "ground ": 6289,
      "ball ": 6290,
      "scor": 6291,
      "16": 6292,
      "eav": 6293,
      "193": 6294,
      "oon ": 6295,
      "elev": 6296,
      "ean ": 6297,
      "releas": 6298,
      "raft ": 6299,
      "11 ": 6300,
      "less ": 6301,
      "\" . \n": 6302,
      "ind ": 6303,
      "life ": 6304,
      "over the ": 6305,
      "ebru": 6306,
      "as \" ": 6307,
      "pi": 6308,
      "can": 6309,
      "to re": 6310,
      "record ": 6311,
      "Cor": 6312,
      "Mc": 6313,
      "ebruary ": 6314,
      "allow": 6315,
      "use ": 6316,
      "chang": 6317,
      "main ": 6318,
      "10": 6319,
      "stit": 6320,
      "ext": 6321,
      "stud": 6322,
      "o @-@ ": 6323,
      "ants ": 6324,
      "thing ": 6325,
      "th , ": 6326,
      "ether ": 6327,
      "scen": 6328,
      "Bo": 6329,
      "'t ": 6330,
      "show": 6331,
      "la": 6332,
      "ed his ": 6333,
      "held ": 6334,
      "South ": 6335,
      "still ": 6336,
      "performan": 6337,
      "Mus": 6338,
      "February ": 6339,
      "Di": 6340,
      "ord": 6341,
      "family ": 6342,
      "next ": 6343,
      "last ": 6344,
      " = ": 6345,
      "aff": 6346,
      "dist": 6347,
      "best ": 6348,
      "some": 6349,
      "b ": 6350,
      ", \" ": 6351,
      "ney ": 6352,
      "construc": 6353,
      "popul": 6354,
      "ock ": 6355,
      "im ": 6356,
      "built ": 6357,
      "original ": 6358,
      "Ac": 6359,
      "fri": 6360,
      ". However , ": 6361,
      "rais": 6362,
      "main": 6363,
      "Mon": 6364,
      "oute ": 6365,
      "because ": 6366,
      "prov": 6367,
      "able to ": 6368,
      "mor": 6369,
      "eas ": 6370,
      "late ": 6371,
      "near ": 6372,
      "ive ": 6373,
      "although ": 6374,
      "ation , ": 6375,
      "town ": 6376,
      "war ": 6377,
      "ously ": 6378,
      "25 ": 6379,
      "name ": 6380,
      "wat": 6381,
      "initi": 6382,
      "tro": 6383,
      "video ": 6384,
      "Fren": 6385,
      "establ": 6386,
      " H": 6387,
      "Re": 6388,
      "read": 6389,
      "olv": 6390,
      "German ": 6391,
      "kill": 6392,
      "on , ": 6393,
      "ities ": 6394,
      "Ma": 6395,
      "gam": 6396,
      "them": 6397,
      "major ": 6398,
      "poli": 6399,
      "cep": 6400,
      "mag": 6401,
      "ing and ": 6402,
      "wom": 6403,
      " T": 6404,
      "success": 6405,
      "reach": 6406,
      "would be ": 6407,
      "tively ": 6408,
      "proc": 6409,
      "ford ": 6410,
      "present": 6411,
      "home ": 6412,
      "ended ": 6413,
      "14 ": 6414,
      "ropical ": 6415,
      "again ": 6416,
      "inn": 6417,
      "18 ": 6418,
      "National ": 6419,
      "gg": 6420,
      "Ad": 6421,
      "version ": 6422,
      "clos": 6423,
      "number of ": 6424,
      "hum": 6425,
      "Man": 6426,
      "ett": 6427,
      "simil": 6428,
      "auth": 6429,
      "ina ": 6430,
      "dg": 6431,
      "camp": 6432,
      "that he ": 6433,
      "dro": 6434,
      "lat": 6435,
      "New York ": 6436,
      "water ": 6437,
      "rac": 6438,
      "ships ": 6439,
      "itary ": 6440,
      "s . \n": 6441,
      "Per": 6442,
      "respon": 6443,
      "16 ": 6444,
      ". It was ": 6445,
      "small ": 6446,
      "13 ": 6447,
      "wrote ": 6448,
      "sen": 6449,
      "ok": 6450,
      "former ": 6451,
      "north ": 6452,
      "ith ": 6453,
      "often ": 6454,
      "embers ": 6455,
      "six ": 6456,
      "pris": 6457,
      "ove ": 6458,
      "eal": 6459,
      "yl": 6460,
      "Willi": 6461,
      "of his ": 6462,
      "half ": 6463,
      "stat": 6464,
      "those ": 6465,
      "ution ": 6466,
      "French ": 6467,
      "elec": 6468,
      "100 ": 6469,
      "roy": 6470,
      ": \" ": 6471,
      "hol": 6472,
      "manag": 6473,
      "histor": 6474,
      "came ": 6475,
      "sch": 6476,
      "in his ": 6477,
      "sible ": 6478,
      "ands ": 6479,
      "design": 6480,
      "received ": 6481,
      "perform": 6482,
      "den ": 6483,
      ". As ": 6484,
      "ret": 6485,
      "in 200": 6486,
      "ious ": 6487,
      "action ": 6488,
      "England ": 6489,
      "hy": 6490,
      "times ": 6491,
      "role ": 6492,
      "tot": 6493,
      "it is ": 6494,
      "typ": 6495,
      "rang": 6496,
      "40 ": 6497,
      "believ": 6498,
      "pit": 6499,
      "storm ": 6500,
      "in 18": 6501,
      "ers and ": 6502,
      "Univers": 6503,
      "estern ": 6504,
      "oot": 6505,
      "make ": 6506,
      "ington ": 6507,
      "anti": 6508,
      "ke": 6509,
      "bar": 6510,
      "head ": 6511,
      "ograph": 6512,
      "you ": 6513,
      "t and ": 6514,
      "view ": 6515,
      "Rob": 6516,
      "claim": 6517,
      "; the ": 6518,
      "El": 6519,
      "vo": 6520,
      "Co": 6521,
      "lik": 6522,
      "Engl": 6523,
      "ements ": 6524,
      "public ": 6525,
      "erc": 6526,
      "ik": 6527,
      "one of ": 6528,
      "spir": 6529,
      ". Dur": 6530,
      "divid": 6531,
      "Coun": 6532,
      "members ": 6533,
      "song": 6534,
      "wee": 6535,
      ".S": 6536,
      "craft ": 6537,
      "m ( ": 6538,
      "commun": 6539,
      "Pr": 6540,
      "inf": 6541,
      "sit": 6542,
      "anim": 6543,
      "ange ": 6544,
      "club": 6545,
      "went ": 6546,
      "tow": 6547,
      ". His ": 6548,
      "cording to ": 6549,
      "without ": 6550,
      "soci": 6551,
      "we ": 6552,
      "order ": 6553,
      "arch": 6554,
      "studi": 6555,
      "Su": 6556,
      "Inter": 6557,
      "different ": 6558,
      "written ": 6559,
      "local ": 6560,
      "south ": 6561,
      "ality ": 6562,
      "ute ": 6563,
      "games ": 6564,
      "named ": 6565,
      "Or": 6566,
      "Ser": 6567,
      "ress ": 6568,
      "power ": 6569,
      "back": 6570,
      "ep ": 6571,
      "new": 6572,
      "influ": 6573,
      "t to ": 6574,
      "es . \n": 6575,
      "attack": 6576,
      "period ": 6577,
      "ject ": 6578,
      "an , ": 6579,
      "Riv": 6580,
      "refer": 6581,
      "a \" ": 6582,
      "pat": 6583,
      "roc": 6584,
      "quar": 6585,
      "rest": 6586,
      "whil": 6587,
      "Cent": 6588,
      "among ": 6589,
      "him": 6590,
      "ody ": 6591,
      ". When ": 6592,
      "sugg": 6593,
      "War": 6594,
      "dest": 6595,
      "track ": 6596,
      "los": 6597,
      "ing of ": 6598,
      "let": 6599,
      "ittle ": 6600,
      "ental ": 6601,
      "rown ": 6602,
      "epar": 6603,
      "road ": 6604,
      "head": 6605,
      " On ": 6606,
      "list": 6607,
      "and a ": 6608,
      "17 ": 6609,
      "fron": 6610,
      "reet ": 6611,
      "top ": 6612,
      "part of the ": 6613,
      "Lond": 6614,
      "15": 6615,
      "els ": 6616,
      "tem": 6617,
      "Rec": 6618,
      "thers ": 6619,
      "person": 6620,
      "U.S": 6621,
      "death ": 6622,
      "given ": 6623,
      "defe": 6624,
      "ak ": 6625,
      "Be": 6626,
      "join": 6627,
      "sed ": 6628,
      "ium ": 6629,
      "ted by ": 6630,
      "fied ": 6631,
      "ham ": 6632,
      "Batt": 6633,
      "ted the ": 6634,
      "further ": 6635,
      "production ": 6636,
      "amm": 6637,
      "liv": 6638,
      "match ": 6639,
      "event": 6640,
      "decid": 6641,
      "val": 6642,
      "featur": 6643,
      "announc": 6644,
      "between the ": 6645,
      "gave ": 6646,
      "that \" ": 6647,
      "comb": 6648,
      "player ": 6649,
      "Wal": 6650,
      "on @-@ ": 6651,
      "exam": 6652,
      "English ": 6653,
      "ta": 6654,
      "cop": 6655,
      "contr": 6656,
      ". G": 6657,
      "1 @.@ ": 6658,
      "dren ": 6659,
      "ubl": 6660,
      "Tim": 6661,
      "onom": 6662,
      "ially ": 6663,
      "review": 6664,
      "of S": 6665,
      "Pol": 6666,
      "ation of the ": 6667,
      "ized ": 6668,
      "stric": 6669,
      "building ": 6670,
      "ref": 6671,
      "days ": 6672,
      "Ed": 6673,
      "City ": 6674,
      "ni": 6675,
      "father ": 6676,
      "0s ": 6677,
      "imp": 6678,
      "book ": 6679,
      "east ": 6680,
      "Min": 6681,
      "ony ": 6682,
      "heav": 6683,
      "ral ": 6684,
      "stated ": 6685,
      "cast ": 6686,
      "take ": 6687,
      "had a ": 6688,
      "Is": 6689,
      "ator ": 6690,
      "As": 6691,
      "age of ": 6692,
      "lead ": 6693,
      "sal": 6694,
      "elevision ": 6695,
      "youn": 6696,
      "trans": 6697,
      "xim": 6698,
      ". By ": 6699,
      "Af": 6700,
      "school ": 6701,
      "ampion": 6702,
      "lost ": 6703,
      "sions ": 6704,
      "ort": 6705,
      "mul": 6706,
      "sent ": 6707,
      "ili": 6708,
      "cros": 6709,
      ". K": 6710,
      "cr": 6711,
      "ker ": 6712,
      "24 ": 6713,
      "get ": 6714,
      "es of the ": 6715,
      "land": 6716,
      "agre": 6717,
      "ably ": 6718,
      "urric": 6719,
      "eh": 6720,
      "R ": 6721,
      "Dav": 6722,
      "West ": 6723,
      "away ": 6724,
      "Canad": 6725,
      "ns ": 6726,
      "ed at ": 6727,
      "in which ": 6728,
      "board ": 6729,
      "month": 6730,
      "replac": 6731,
      "career ": 6732,
      "through the ": 6733,
      "ically ": 6734,
      "Ex": 6735,
      "tion of the ": 6736,
      "oughout ": 6737,
      "cy": 6738,
      "sw": 6739,
      "gun": 6740,
      "Div": 6741,
      "arti": 6742,
      "suff": 6743,
      "grad": 6744,
      "similar ": 6745,
      "hear": 6746,
      "never ": 6747,
      "ions ": 6748,
      "ed to the ": 6749,
      "of M": 6750,
      "becom": 6751,
      "yle ": 6752,
      "aircraft ": 6753,
      "Rom": 6754,
      "ential ": 6755,
      "ams ": 6756,
      "aver": 6757,
      "himself ": 6758,
      "military ": 6759,
      "Comm": 6760,
      "Rus": 6761,
      "V ": 6762,
      "mark": 6763,
      "ship": 6764,
      "har": 6765,
      "mer ": 6766,
      "become ": 6767,
      "ling ": 6768,
      "how ": 6769,
      "run ": 6770,
      "development ": 6771,
      "nec": 6772,
      "urch ": 6773,
      "arriv": 6774,
      "th century ": 6775,
      "win ": 6776,
      "ed that the ": 6777,
      ", who ": 6778,
      "intro": 6779,
      "ens ": 6780,
      "night ": 6781,
      "import": 6782,
      "ron ": 6783,
      "spe": 6784,
      "cle": 6785,
      "ribu": 6786,
      "22 ": 6787,
      "consider": 6788,
      "present ": 6789,
      "ide ": 6790,
      "fail": 6791,
      "... ": 6792,
      "attack ": 6793,
      "ed to be ": 6794,
      "add": 6795,
      "ex ": 6796,
      "fel": 6797,
      "21 ": 6798,
      "not": 6799,
      "under the ": 6800,
      "At": 6801,
      "bus": 6802,
      "acros": 6803,
      "es that ": 6804,
      "carri": 6805,
      "gar": 6806,
      "curren": 6807,
      "having ": 6808,
      "force ": 6809,
      "company ": 6810,
      "can be ": 6811,
      ") \n": 6812,
      "ed from ": 6813,
      "men": 6814,
      "children ": 6815,
      "cat": 6816,
      "included ": 6817,
      "Scot": 6818,
      "was not ": 6819,
      "thre": 6820,
      "contain": 6821,
      "wea": 6822,
      "fre": 6823,
      "act": 6824,
      "sci": 6825,
      "more than ": 6826,
      "hom": 6827,
      "lev": 6828,
      "due to ": 6829,
      "atures ": 6830,
      "light ": 6831,
      "as well as ": 6832,
      "vir": 6833,
      "prof": 6834,
      "eas": 6835,
      "ploy": 6836,
      "involv": 6837,
      "ana ": 6838,
      "anese ": 6839,
      "squ": 6840,
      "Sy": 6841,
      "General ": 6842,
      "Rep": 6843,
      "ending ": 6844,
      "concer": 6845,
      "campa": 6846,
      "omb": 6847,
      "London ": 6848,
      "taken ": 6849,
      "signific": 6850,
      "against the ": 6851,
      "13": 6852,
      "ends ": 6853,
      "they were ": 6854,
      "previous ": 6855,
      "tig": 6856,
      "Australia ": 6857,
      "e , but ": 6858,
      "change ": 6859,
      "aur": 6860,
      "ogether ": 6861,
      "part of ": 6862,
      "sing ": 6863,
      "total ": 6864,
      "house ": 6865,
      "es . The ": 6866,
      "ert ": 6867,
      ". These ": 6868,
      "ei": 6869,
      ". J": 6870,
      "fav": 6871,
      "short ": 6872,
      "Sec": 6873,
      "State ": 6874,
      "tropical ": 6875,
      "ems ": 6876,
      "consist": 6877,
      "Mic": 6878,
      "dom ": 6879,
      "out of ": 6880,
      "ank ": 6881,
      "seen ": 6882,
      "vol": 6883,
      " L": 6884,
      "Her": 6885,
      "bit": 6886,
      "fle": 6887,
      "low ": 6888,
      "which was ": 6889,
      "Hi": 6890,
      "good ": 6891,
      "pow": 6892,
      "or , ": 6893,
      "train": 6894,
      "ology ": 6895,
      "control ": 6896,
      "trav": 6897,
      "km ": 6898,
      "s of the ": 6899,
      "eight ": 6900,
      "boo": 6901,
      "country ": 6902,
      " C": 6903,
      "den": 6904,
      "rol": 6905,
      "ses ": 6906,
      "ring ": 6907,
      "experi": 6908,
      "created ": 6909,
      "icul": 6910,
      "go ": 6911,
      "ank": 6912,
      "introduc": 6913,
      "performance ": 6914,
      "t 's ": 6915,
      "history ": 6916,
      "television ": 6917,
      "med": 6918,
      "occur": 6919,
      "23 ": 6920,
      "onn": 6921,
      "orge ": 6922,
      "ways ": 6923,
      "surv": 6924,
      "marri": 6925,
      "compar": 6926,
      "areas ": 6927,
      "return ": 6928,
      "idd": 6929,
      "cir": 6930,
      "ounds ": 6931,
      "ed \" ": 6932,
      "Ang": 6933,
      "ever": 6934,
      "s , but ": 6935,
      "Roy": 6936,
      "190": 6937,
      "however , ": 6938,
      "River ": 6939,
      "vill": 6940,
      "2010 ": 6941,
      "service ": 6942,
      "Tr": 6943,
      " P": 6944,
      "ang ": 6945,
      ". He was ": 6946,
      "60 ": 6947,
      ", he ": 6948,
      "No": 6949,
      "release ": 6950,
      "ration ": 6951,
      "tour": 6952,
      "at a ": 6953,
      "rest ": 6954,
      "urricane ": 6955,
      "rist": 6956,
      "should ": 6957,
      "into a ": 6958,
      "design ": 6959,
      "ver ": 6960,
      ". Ac": 6961,
      ". Although ": 6962,
      "work": 6963,
      "nov": 6964,
      "cent ": 6965,
      "Division ": 6966,
      "scri": 6967,
      "mission ": 6968,
      ": \n": 6969,
      "great ": 6970,
      "s . The ": 6971,
      "owever ": 6972,
      "tory ": 6973,
      "title ": 6974,
      "opp": 6975,
      "L ": 6976,
      "inj": 6977,
      "four": 6978,
      "King ": 6979,
      "Japanese ": 6980,
      "William ": 6981,
      "ost": 6982,
      "Street ": 6983,
      "augh": 6984,
      "wan": 6985,
      "27 ": 6986,
      "doc": 6987,
      "cast": 6988,
      "ety ": 6989,
      "shar": 6990,
      "pea": 6991,
      "political ": 6992,
      "ior ": 6993,
      "a ( ": 6994,
      "es , and ": 6995,
      "e @-@ ": 6996,
      "Nav": 6997,
      "suggest": 6998,
      "hon": 6999,
      "tech": 7000,
      ". There ": 7001,
      "face ": 7002,
      "prob": 7003,
      "point ": 7004,
      "en , ": 7005,
      "played ": 7006,
      "art ": 7007,
      "’ ": 7008,
      "ern": 7009,
      "Mor": 7010,
      "28 ": 7011,
      "various ": 7012,
      "when the ": 7013,
      "of B": 7014,
      "throughout ": 7015,
      "tin ": 7016,
      "wood ": 7017,
      "together ": 7018,
      "radi": 7019,
      "ici": 7020,
      "gran": 7021,
      "include ": 7022,
      "too ": 7023,
      "Reg": 7024,
      "come ": 7025,
      ") . \n": 7026,
      "increas": 7027,
      "George ": 7028,
      "es are ": 7029,
      "the first ": 7030,
      "seven ": 7031,
      "audi": 7032,
      "propos": 7033,
      "iter": 7034,
      "wards ": 7035,
      "site ": 7036,
      "ed by a ": 7037,
      "ability ": 7038,
      "publish": 7039,
      "ing in ": 7040,
      "characters ": 7041,
      "little ": 7042,
      "earli": 7043,
      "peti": 7044,
      "ood": 7045,
      "ch , ": 7046,
      "as an ": 7047,
      "@.@ 5 ": 7048,
      "ital ": 7049,
      "ularly ": 7050,
      "ler ": 7051,
      "ure": 7052,
      "earch ": 7053,
      "member ": 7054,
      "1 @,@ ": 7055,
      "won ": 7056,
      "fire ": 7057,
      "hous": 7058,
      "ing his ": 7059,
      "tar": 7060,
      "thought ": 7061,
      "Pet": 7062,
      "O ": 7063,
      "League ": 7064,
      "time , ": 7065,
      "minist": 7066,
      ". For ": 7067,
      "strong ": 7068,
      "es in the ": 7069,
      "Road ": 7070,
      "comman": 7071,
      "ority ": 7072,
      "ah ": 7073,
      "Cap": 7074,
      "ics ": 7075,
      "26 ": 7076,
      "New": 7077,
      "James ": 7078,
      "used to ": 7079,
      "felt ": 7080,
      "reported ": 7081,
      "ts , ": 7082,
      "ering ": 7083,
      "2011 ": 7084,
      "mi ": 7085,
      "end of the ": 7086,
      ". At ": 7087,
      "grow": 7088,
      "Vi": 7089,
      "film": 7090,
      "long": 7091,
      "and was ": 7092,
      "eventually ": 7093,
      "hind ": 7094,
      "born ": 7095,
      " R": 7096,
      "noted ": 7097,
      "ments ": 7098,
      "Australian ": 7099,
      "live ": 7100,
      "ze ": 7101,
      "sil": 7102,
      "before the ": 7103,
      "in S": 7104,
      "ing that ": 7105,
      "sold ": 7106,
      "sian ": 7107,
      "feet ": 7108,
      "track": 7109,
      "14": 7110,
      "voc": 7111,
      "located ": 7112,
      " W": 7113,
      "bir": 7114,
      "ut ": 7115,
      "week ": 7116,
      "ts of ": 7117,
      "tradi": 7118,
      "er of ": 7119,
      "about the ": 7120,
      "ats ": 7121,
      "Afric": 7122,
      "US": 7123,
      "emor": 7124,
      "sha": 7125,
      "common ": 7126,
      "ink ": 7127,
      "represent": 7128,
      " ( ": 7129,
      "Hen": 7130,
      "em ": 7131,
      "saw ": 7132,
      "que ": 7133,
      "instead ": 7134,
      "compos": 7135,
      "ensive ": 7136,
      "in 199": 7137,
      "Bi": 7138,
      "ing it ": 7139,
      "and S": 7140,
      "leav": 7141,
      "respec": 7142,
      "body ": 7143,
      "Br": 7144,
      "lab": 7145,
      "identi": 7146,
      "hun": 7147,
      "indu": 7148,
      "estim": 7149,
      "Ne": 7150,
      "yn": 7151,
      "jec": 7152,
      "ency ": 7153,
      "once ": 7154,
      "inning ": 7155,
      "ation and ": 7156,
      "Army ": 7157,
      "i , ": 7158,
      "moun": 7159,
      "presid": 7160,
      "en 's ": 7161,
      "ing \" ": 7162,
      "sib": 7163,
      "destroy": 7164,
      "fem": 7165,
      "ootball ": 7166,
      "ia , ": 7167,
      "tics ": 7168,
      "bridge ": 7169,
      "Bro": 7170,
      "re @-@ ": 7171,
      "players ": 7172,
      "for his ": 7173,
      "cover": 7174,
      "style ": 7175,
      "ingdom ": 7176,
      "part ": 7177,
      "rep": 7178,
      "was also ": 7179,
      "2008 ": 7180,
      "important ": 7181,
      "19 ": 7182,
      "aj": 7183,
      "Euro": 7184,
      "prais": 7185,
      "tice ": 7186,
      "ement": 7187,
      "uk": 7188,
      "ris ": 7189,
      "sett": 7190,
      "rather ": 7191,
      "relation": 7192,
      "vision ": 7193,
      "campaign ": 7194,
      "behind ": 7195,
      "Gl": 7196,
      "class ": 7197,
      "y 's ": 7198,
      "29 ": 7199,
      "prac": 7200,
      "establish": 7201,
      "exc": 7202,
      "hael ": 7203,
      "tern": 7204,
      "popular ": 7205,
      "nomin": 7206,
      "ific ": 7207,
      "edi": 7208,
      "189": 7209,
      "natur": 7210,
      "wide ": 7211,
      "2012 ": 7212,
      "km ) ": 7213,
      "fif": 7214,
      "ash ": 7215,
      "scre": 7216,
      "electr": 7217,
      ". In": 7218,
      "in ) ": 7219,
      "aged ": 7220,
      "using ": 7221,
      "ent , ": 7222,
      "level ": 7223,
      "port ": 7224,
      "pen": 7225,
      "N ": 7226,
      "ds of ": 7227,
      "support ": 7228,
      "e 's ": 7229,
      "either ": 7230,
      "draw": 7231,
      "ences ": 7232,
      "wif": 7233,
      "ib": 7234,
      "while the ": 7235,
      "ax": 7236,
      "addition ": 7237,
      "les": 7238,
      "subsequ": 7239,
      "Royal ": 7240,
      "ord ": 7241,
      "white ": 7242,
      "che": 7243,
      "figh": 7244,
      "difficul": 7245,
      ". It is ": 7246,
      "ages ": 7247,
      "Franc": 7248,
      "2009 ": 7249,
      "achi": 7250,
      "80 ": 7251,
      "from a ": 7252,
      "separ": 7253,
      "ed of ": 7254,
      "Thom": 7255,
      "BC ": 7256,
      "associ": 7257,
      "features ": 7258,
      "fig": 7259,
      "East ": 7260,
      "s , which ": 7261,
      "law": 7262,
      " A ": 7263,
      "Fin": 7264,
      "cam": 7265,
      "ston ": 7266,
      "round ": 7267,
      "route ": 7268,
      "has a ": 7269,
      "rul": 7270,
      "stre": 7271,
      ". At the ": 7272,
      "dou": 7273,
      "originally ": 7274,
      "s that ": 7275,
      "righ": 7276,
      "working ": 7277,
      "Europ": 7278,
      "ush": 7279,
      "gun ": 7280,
      "dev": 7281,
      "Mad": 7282,
      "almost ": 7283,
      "alist ": 7284,
      "ed on the ": 7285,
      "County ": 7286,
      "shor": 7287,
      "Vir": 7288,
      "\" the ": 7289,
      "every ": 7290,
      "points ": 7291,
      "es a ": 7292,
      "rap": 7293,
      "post": 7294,
      "in B": 7295,
      "Ear": 7296,
      "th and ": 7297,
      "Ital": 7298,
      "cel": 7299,
      "Chris": 7300,
      "laun": 7301,
      "effor": 7302,
      "ust": 7303,
      "e , which ": 7304,
      "neg": 7305,
      "resident ": 7306,
      "put ": 7307,
      "200 ": 7308,
      "avail": 7309,
      "ession ": 7310,
      "World War ": 7311,
      "mother ": 7312,
      "scrip": 7313,
      "ines ": 7314,
      "tion = = \n": 7315,
      ") , and ": 7316,
      "l @-@ ": 7317,
      "res ( ": 7318,
      "young ": 7319,
      "anding ": 7320,
      "0 @.@ ": 7321,
      "el , ": 7322,
      "return": 7323,
      "order": 7324,
      "addi": 7325,
      "km / ": 7326,
      "possible ": 7327,
      "s are ": 7328,
      "Scho": 7329,
      "troop": 7330,
      "mir": 7331,
      ", with ": 7332,
      "\" . The ": 7333,
      "pain": 7334,
      "heavy ": 7335,
      " = = = = ": 7336,
      "dic": 7337,
      "brought ": 7338,
      "up to ": 7339,
      "hand": 7340,
      "\" The ": 7341,
      "E ": 7342,
      "an 's ": 7343,
      "all , ": 7344,
      "mater": 7345,
      "aul": 7346,
      "econom": 7347,
      "she was ": 7348,
      "Sch": 7349,
      "individ": 7350,
      "s a ": 7351,
      "successful ": 7352,
      "ological ": 7353,
      "observ": 7354,
      "plan": 7355,
      "signed ": 7356,
      "ama ": 7357,
      "ready ": 7358,
      "least ": 7359,
      "minut": 7360,
      "organiz": 7361,
      "Pri": 7362,
      "piec": 7363,
      "ra ": 7364,
      "atic ": 7365,
      "general ": 7366,
      "busin": 7367,
      "stand": 7368,
      "itted ": 7369,
      "ence of ": 7370,
      "towards ": 7371,
      "hour": 7372,
      "km / h ": 7373,
      "recog": 7374,
      "\" , and ": 7375,
      "comment": 7376,
      "\" was ": 7377,
      "tian ": 7378,
      "Park ": 7379,
      "race ": 7380,
      "say": 7381,
      "exist": 7382,
      " After ": 7383,
      "indic": 7384,
      "2007 ": 7385,
      "ashington ": 7386,
      "non @-@ ": 7387,
      "ate the ": 7388,
      "eph": 7389,
      "plann": 7390,
      "educ": 7391,
      "conn": 7392,
      "close ": 7393,
      "ampionship ": 7394,
      "considered ": 7395,
      "nd ": 7396,
      "down": 7397,
      "region ": 7398,
      "modern ": 7399,
      "prec": 7400,
      "fully ": 7401,
      "he had ": 7402,
      "500 ": 7403,
      "stry ": 7404,
      "John": 7405,
      "loo": 7406,
      "s in the ": 7407,
      "Best ": 7408,
      "ches ": 7409,
      "conv": 7410,
      "east": 7411,
      "art": 7412,
      "Mal": 7413,
      "black ": 7414,
      "ated the ": 7415,
      "n 't ": 7416,
      "see ": 7417,
      "Cour": 7418,
      "vers": 7419,
      "Mil": 7420,
      "ger ": 7421,
      "along the ": 7422,
      "soon ": 7423,
      "Cre": 7424,
      "Que": 7425,
      "occ": 7426,
      "and his ": 7427,
      "six": 7428,
      "inform": 7429,
      "aut": 7430,
      "western ": 7431,
      "Squ": 7432,
      "tural ": 7433,
      "Europe": 7434,
      ") . The ": 7435,
      "aster ": 7436,
      "sour": 7437,
      "party ": 7438,
      "elling ": 7439,
      "ecu": 7440,
      "enter": 7441,
      "Dr": 7442,
      "ago ": 7443,
      "ovi": 7444,
      "irst ": 7445,
      "discover": 7446,
      "club ": 7447,
      "generally ": 7448,
      "Bur": 7449,
      "stage ": 7450,
      "in an ": 7451,
      "battle ": 7452,
      "met ": 7453,
      "broad": 7454,
      "employ": 7455,
      "exten": 7456,
      "70 ": 7457,
      "record": 7458,
      "Battle ": 7459,
      "by a ": 7460,
      "ap ": 7461,
      "foc": 7462,
      "help ": 7463,
      "ge": 7464,
      "ed in a ": 7465,
      " Al": 7466,
      "few ": 7467,
      "Am": 7468,
      "super": 7469,
      "ark ": 7470,
      "adem": 7471,
      "David ": 7472,
      "aid ": 7473,
      "conduc": 7474,
      "F ": 7475,
      "lege ": 7476,
      "ained ": 7477,
      "ped ": 7478,
      "ald ": 7479,
      "requir": 7480,
      "worked ": 7481,
      "sor": 7482,
      "Ab": 7483,
      "expres": 7484,
      "mph ": 7485,
      "Mo": 7486,
      "captur": 7487,
      ". While ": 7488,
      "works ": 7489,
      "ness ": 7490,
      "leng": 7491,
      "Rich": 7492,
      "assist": 7493,
      "mix": 7494,
      "room ": 7495,
      "ester ": 7496,
      "chi": 7497,
      "ox": 7498,
      "\" ( ": 7499,
      "duce ": 7500,
      "ed as a ": 7501,
      " Th": 7502,
      "public": 7503,
      "open ": 7504,
      "station ": 7505,
      "id @-@ ": 7506,
      "ones ": 7507,
      "intend": 7508,
      "shot ": 7509,
      "ech ": 7510,
      "tors ": 7511,
      "t was ": 7512,
      "us , ": 7513,
      "with his ": 7514,
      "ur ": 7515,
      "K ": 7516,
      "ves ": 7517,
      "evid": 7518,
      "Washington ": 7519,
      "date ": 7520,
      "oul": 7521,
      "damage ": 7522,
      "others ": 7523,
      "ense ": 7524,
      "promo": 7525,
      "ed . \n": 7526,
      "Chin": 7527,
      "started ": 7528,
      "gin": 7529,
      "does ": 7530,
      "bat": 7531,
      "my": 7532,
      "ille ": 7533,
      "deter": 7534,
      "effec": 7535,
      "ligh": 7536,
      " , but ": 7537,
      "island ": 7538,
      "abor": 7539,
      "wo ": 7540,
      "exampl": 7541,
      "itte": 7542,
      "ession": 7543,
      "European ": 7544,
      "r ": 7545,
      "within the ": 7546,
      "tion , ": 7547,
      "class": 7548,
      "ed it ": 7549,
      "driv": 7550,
      "ky ": 7551,
      "prepar": 7552,
      "ts and ": 7553,
      "event ": 7554,
      "Se": 7555,
      "at number ": 7556,
      "is , ": 7557,
      "aff ": 7558,
      "mot": 7559,
      "inspir": 7560,
      "sure ": 7561,
      "conc": 7562,
      "Vic": 7563,
      "Fil": 7564,
      "largest ": 7565,
      "Hun": 7566,
      "\" and \" ": 7567,
      "contribu": 7568,
      "lands ": 7569,
      "efor": 7570,
      "significant ": 7571,
      "vent": 7572,
      "highway ": 7573,
      "serve ": 7574,
      "P ": 7575,
      "appoin": 7576,
      "surviv": 7577,
      "remov": 7578,
      "age , ": 7579,
      "highest ": 7580,
      "rain ": 7581,
      "ment of ": 7582,
      "erous ": 7583,
      "Tur": 7584,
      "initially ": 7585,
      " In the ": 7586,
      "pil": 7587,
      "official ": 7588,
      "particularly ": 7589,
      "active ": 7590,
      "fourth ": 7591,
      "cycl": 7592,
      "io ": 7593,
      "Val": 7594,
      "real": 7595,
      "ourn": 7596,
      "2 @.@ ": 7597,
      "multi": 7598,
      "songs ": 7599,
      "and , ": 7600,
      "uni": 7601,
      "agg": 7602,
      "agu": 7603,
      "Cam": 7604,
      "pot": 7605,
      "Republ": 7606,
      "Air ": 7607,
      "2013 ": 7608,
      "any": 7609,
      "to have ": 7610,
      "ces ": 7611,
      "ators ": 7612,
      "rock ": 7613,
      " Wh": 7614,
      "Pal": 7615,
      "Cali": 7616,
      "magaz": 7617,
      "Hol": 7618,
      "Music ": 7619,
      "forces ": 7620,
      "priv": 7621,
      "to his ": 7622,
      "spor": 7623,
      "around the ": 7624,
      "women ": 7625,
      "Kingdom ": 7626,
      "assi": 7627,
      "son , ": 7628,
      "ocial ": 7629,
      "University ": 7630,
      "nar": 7631,
      "ched ": 7632,
      "pic": 7633,
      "Compan": 7634,
      "langu": 7635,
      "competi": 7636,
      "tun": 7637,
      "We": 7638,
      "forn": 7639,
      "southern ": 7640,
      "iddle ": 7641,
      "le , ": 7642,
      "won the ": 7643,
      "aul ": 7644,
      "adron ": 7645,
      "In ": 7646,
      "found": 7647,
      "illi": 7648,
      ". During the ": 7649,
      "character": 7650,
      "nav": 7651,
      "tour ": 7652,
      "servic": 7653,
      "miles ( ": 7654,
      "1st ": 7655,
      "relig": 7656,
      "ket ": 7657,
      "lear": 7658,
      "Henry ": 7659,
      "ment": 7660,
      "2006 ": 7661,
      "gram ": 7662,
      "eth": 7663,
      "meas": 7664,
      "ed him ": 7665,
      "Ale": 7666,
      "special ": 7667,
      "acqu": 7668,
      "key ": 7669,
      "combin": 7670,
      ". With ": 7671,
      "Mi": 7672,
      "love ": 7673,
      "ers were ": 7674,
      "ression ": 7675,
      ". St": 7676,
      "reduc": 7677,
      "immedi": 7678,
      "playing ": 7679,
      "net": 7680,
      "Jer": 7681,
      "viol": 7682,
      "daugh": 7683,
      "Em": 7684,
      "ess , ": 7685,
      "a was ": 7686,
      "12": 7687,
      "plat": 7688,
      "epend": 7689,
      "ai": 7690,
      "centur": 7691,
      "iss": 7692,
      "s and the ": 7693,
      "Michael ": 7694,
      "making ": 7695,
      "ament ": 7696,
      "school": 7697,
      "Robert ": 7698,
      "Po": 7699,
      ". \" The ": 7700,
      "accep": 7701,
      "eting ": 7702,
      "far ": 7703,
      "independ": 7704,
      "commerc": 7705,
      ". I ": 7706,
      "achiev": 7707,
      "= = = = \n": 7708,
      "particip": 7709,
      "usually ": 7710,
      "Sou": 7711,
      "ask": 7712,
      "35 ": 7713,
      "oph": 7714,
      "crew ": 7715,
      "law ": 7716,
      "wid": 7717,
      "north": 7718,
      "victory ": 7719,
      "phys": 7720,
      "De": 7721,
      "pli": 7722,
      "northern ": 7723,
      "move ": 7724,
      "writing ": 7725,
      "Californ": 7726,
      "who had ": 7727,
      "umb": 7728,
      "defin": 7729,
      "Rev": 7730,
      "clu": 7731,
      "Mac": 7732,
      "o 's ": 7733,
      "amoun": 7734,
      "Christ": 7735,
      "ers of ": 7736,
      "must ": 7737,
      "positive ": 7738,
      "end of ": 7739,
      "Charles ": 7740,
      "3 @.@ ": 7741,
      "human ": 7742,
      "ben": 7743,
      "better ": 7744,
      "ers to ": 7745,
      "ull ": 7746,
      "vot": 7747,
      "Fre": 7748,
      "fall ": 7749,
      "\" a ": 7750,
      "break": 7751,
      "appearance ": 7752,
      "ran ": 7753,
      "antry ": 7754,
      "told ": 7755,
      "oppos": 7756,
      "spent ": 7757,
      " N": 7758,
      "near": 7759,
      "earlier ": 7760,
      ". According to ": 7761,
      "75 ": 7762,
      "era ": 7763,
      "Angel": 7764,
      "guit": 7765,
      "President ": 7766,
      "ole ": 7767,
      "fr": 7768,
      "civ": 7769,
      "sound ": 7770,
      "tom": 7771,
      "including the ": 7772,
      "mid @-@ ": 7773,
      "Y ": 7774,
      "ells ": 7775,
      "al @-@ ": 7776,
      "above ": 7777,
      "International ": 7778,
      "on his ": 7779,
      "activ": 7780,
      "ingly ": 7781,
      "bul": 7782,
      "quick": 7783,
      "post ": 7784,
      "ated by ": 7785,
      "ies , ": 7786,
      "gir": 7787,
      "accoun": 7788,
      "B ": 7789,
      "T ": 7790,
      "ric ": 7791,
      "rather than ": 7792,
      "hit ": 7793,
      "weeks ": 7794,
      "acy ": 7795,
      "o and ": 7796,
      "previously ": 7797,
      "ists ": 7798,
      "ts to ": 7799,
      "use of ": 7800,
      "don ": 7801,
      "project ": 7802,
      "ek": 7803,
      "find ": 7804,
      "ican ": 7805,
      "Union ": 7806,
      "central ": 7807,
      " , which ": 7808,
      "proper": 7809,
      "sts ": 7810,
      "Great ": 7811,
      "sea ": 7812,
      "reas": 7813,
      "all the ": 7814,
      "happ": 7815,
      "rison ": 7816,
      "unc": 7817,
      "recorded ": 7818,
      "scene ": 7819,
      "till": 7820,
      "estig": 7821,
      "urb": 7822,
      "rail": 7823,
      "stra": 7824,
      "omet": 7825,
      "reng": 7826,
      "First ": 7827,
      "syn": 7828,
      "months ": 7829,
      "mean": 7830,
      "portra": 7831,
      "range ": 7832,
      "part": 7833,
      "High": 7834,
      "Sw": 7835,
      "188": 7836,
      "bomb": 7837,
      "fed": 7838,
      "alion ": 7839,
      "Bel": 7840,
      "Jack": 7841,
      "in , ": 7842,
      "No. ": 7843,
      "interest ": 7844,
      "command ": 7845,
      "domin": 7846,
      "itself ": 7847,
      "where the ": 7848,
      "season , ": 7849,
      "began to ": 7850,
      "186": 7851,
      "U.S. ": 7852,
      "ox ": 7853,
      "ata ": 7854,
      "al and ": 7855,
      "teen ": 7856,
      "Brit": 7857,
      "enough ": 7858,
      "office ": 7859,
      "cou": 7860,
      "er of the ": 7861,
      "Flor": 7862,
      "full ": 7863,
      "31 ": 7864,
      "standing ": 7865,
      "e , a ": 7866,
      "America ": 7867,
      "trac": 7868,
      "give ": 7869,
      "known as ": 7870,
      "ed an ": 7871,
      "hurricane ": 7872,
      "ques": 7873,
      "entire ": 7874,
      "cal": 7875,
      "so": 7876,
      "£ ": 7877,
      "charg": 7878,
      "relationship ": 7879,
      "returned to ": 7880,
      "ellow ": 7881,
      "soldi": 7882,
      "ee ": 7883,
      "don": 7884,
      "0s , ": 7885,
      "Mat": 7886,
      "star ": 7887,
      "director ": 7888,
      "term ": 7889,
      "und": 7890,
      "Kor": 7891,
      "ier ": 7892,
      "n , ": 7893,
      "co @-@ ": 7894,
      "opening ": 7895,
      "tou": 7896,
      "th of ": 7897,
      "is not ": 7898,
      "ix ": 7899,
      "reli": 7900,
      "plic": 7901,
      "Cup ": 7902,
      "streng": 7903,
      "ativ": 7904,
      "Thomas ": 7905,
      "eed": 7906,
      "berg ": 7907,
      "available ": 7908,
      "Res": 7909,
      "hop": 7910,
      "success ": 7911,
      "whose ": 7912,
      "theast ": 7913,
      "author": 7914,
      "league ": 7915,
      "case ": 7916,
      "hos": 7917,
      "along with ": 7918,
      " , a ": 7919,
      "nine ": 7920,
      "occup": 7921,
      "isc": 7922,
      "commis": 7923,
      "studio ": 7924,
      "sex": 7925,
      "recording ": 7926,
      "units ": 7927,
      "2014 ": 7928,
      "Met": 7929,
      "Sha": 7930,
      "could be ": 7931,
      "Ros": 7932,
      "ff ": 7933,
      "turned ": 7934,
      "drew ": 7935,
      "techn": 7936,
      "’ s ": 7937,
      "onic ": 7938,
      "may be ": 7939,
      "jud": 7940,
      "argu": 7941,
      "stitu": 7942,
      "execu": 7943,
      "Play": 7944,
      "eum ": 7945,
      "rup": 7946,
      "alli": 7947,
      "Med": 7948,
      "90 ": 7949,
      "whom ": 7950,
      "additional ": 7951,
      "eds ": 7952,
      "45 ": 7953,
      "lower ": 7954,
      "declar": 7955,
      "beginning ": 7956,
      "sus": 7957,
      "row ": 7958,
      "ership ": 7959,
      "ots ": 7960,
      "engin": 7961,
      "control": 7962,
      "corpor": 7963,
      "moved ": 7964,
      "progr": 7965,
      "brother ": 7966,
      "s ( ": 7967,
      "car ": 7968,
      "Associ": 7969,
      "iment ": 7970,
      "lack ": 7971,
      "person ": 7972,
      "population ": 7973,
      "iting ": 7974,
      "quickly ": 7975,
      "Bra": 7976,
      "church ": 7977,
      "Island ": 7978,
      "dri": 7979,
      "a new ": 7980,
      "allow ": 7981,
      "series of ": 7982,
      "Air": 7983,
      "France ": 7984,
      "Isl": 7985,
      "already ": 7986,
      "amb": 7987,
      "international ": 7988,
      "in L": 7989,
      "Indian ": 7990,
      "army ": 7991,
      "excep": 7992,
      "Ag": 7993,
      "reached ": 7994,
      "coast ": 7995,
      "at least ": 7996,
      "via ": 7997,
      "Govern": 7998,
      "Jos": 7999
    },
    "merges": [
      [
        "e",
        " "
      ],
      [
        "s",
        " "
      ],
      [
        "t",
        "h"
      ],
      [
        "d",
        " "
      ],
      [
        "n",
        " "
      ],
      [
        "e",
        "r"
      ],
      [
        "t",
        " "
      ],
      [
        "th",
        "e "
      ],
      [
        "i",
        "n"
      ],
      [
        "a",
        "n"
      ],
      [
        ",",
        " "
      ],
      [
        "y",
        " "
      ],
      [
        "e",
        "d "
      ],
      [
        "o",
        "r"
      ],
      [
        ".",
        " "
      ],
      [
        "a",
        "r"
      ],
      [
        "a",
        "l"
      ],
      [
        "o",
        " "
      ],
      [
        "r",
        "e"
      ],
      [
        "f",
        " "
      ],
      [
        "t",
        "i"
      ],
      [
        "e",
        "n"
      ],
      [
        "o",
        "n"
      ],
      [
        "er",
        " "
      ],
      [
        "an",
        "d "
      ],
      [
        "g",
        " "
      ],
      [
        "a",
        " "
      ],
      [
        "o",
        "f "
      ],
      [
        "o",
        "n "
      ],
      [
        "in",
        "g "
      ],
      [
        "i",
        "n "
      ],
      [
        "o",
        "u"
      ],
      [
        "t",
        "o "
      ],
      [
        "a",
        "s "
      ],
      [
        "s",
        "t"
      ],
      [
        "a",
        "t"
      ],
      [
        "e",
        "s "
      ],
      [
        "i",
        "c"
      ],
      [
        "r",
        "o"
      ],
      [
        "m",
        " "
      ],
      [
        "e",
        "l"
      ],
      [
        "=",
        " "
      ],
      [
        "i",
        "l"
      ],
      [
        " ",
        ", "
      ],
      [
        "a",
        "c"
      ],
      [
        "i",
        "t"
      ],
      [
        "i",
        "s "
      ],
      [
        "h",
        "e "
      ],
      [
        "a",
        "t "
      ],
      [
        "a",
        "n "
      ],
      [
        "al",
        " "
      ],
      [
        "i",
        "s"
      ],
      [
        "\"",
        " "
      ],
      [
        "h",
        " "
      ],
      [
        "f",
        "or"
      ],
      [
        "@",
        " "
      ],
      [
        "th",
        " "
      ],
      [
        "a",
        "s"
      ],
      [
        "e",
        "c"
      ],
      [
        "u",
        "r"
      ],
      [
        "e",
        "s"
      ],
      [
        "o",
        "m"
      ],
      [
        "w",
        "as "
      ],
      [
        "a",
        "m"
      ],
      [
        "o",
        "l"
      ],
      [
        "e",
        "n "
      ],
      [
        "i",
        "r"
      ],
      [
        "ti",
        "on "
      ],
      [
        "l",
        "y "
      ],
      [
        "o",
        "w"
      ],
      [
        "s",
        "i"
      ],
      [
        "r",
        "i"
      ],
      [
        "-",
        "@ "
      ],
      [
        "@",
        "-@ "
      ],
      [
        "= ",
        "= "
      ],
      [
        "T",
        "he "
      ],
      [
        "w",
        "h"
      ],
      [
        "of ",
        "the "
      ],
      [
        "a",
        "d"
      ],
      [
        "w",
        "i"
      ],
      [
        "e",
        "m"
      ],
      [
        "l",
        " "
      ],
      [
        "c",
        "h"
      ],
      [
        "k",
        " "
      ],
      [
        "'",
        "s "
      ],
      [
        "u",
        "n"
      ],
      [
        "p",
        "l"
      ],
      [
        ". ",
        "\n"
      ],
      [
        "u",
        "s"
      ],
      [
        "th",
        "at "
      ],
      [
        "for",
        " "
      ],
      [
        "d",
        "i"
      ],
      [
        "a",
        "g"
      ],
      [
        "e",
        "v"
      ],
      [
        "h",
        "a"
      ],
      [
        "en",
        "t "
      ],
      [
        "b",
        "y "
      ],
      [
        "i",
        "g"
      ],
      [
        "v",
        "e "
      ],
      [
        "wi",
        "th "
      ],
      [
        "e",
        "t"
      ],
      [
        "c",
        "on"
      ],
      [
        "s ",
        ", "
      ],
      [
        "o",
        "s"
      ],
      [
        "(",
        " "
      ],
      [
        "en",
        "t"
      ],
      [
        "l",
        "e"
      ],
      [
        "e ",
        ", "
      ],
      [
        "r",
        "a"
      ],
      [
        "s",
        "u"
      ],
      [
        "1",
        "9"
      ],
      [
        "0",
        " "
      ],
      [
        "er",
        "e "
      ],
      [
        ". ",
        "The "
      ],
      [
        "in ",
        "the "
      ],
      [
        "l",
        "i"
      ],
      [
        "o",
        "p"
      ],
      [
        "p",
        "ro"
      ],
      [
        "h",
        "is "
      ],
      [
        "or",
        " "
      ],
      [
        "l",
        "e "
      ],
      [
        "o",
        "v"
      ],
      [
        "e",
        "ar"
      ],
      [
        "ou",
        "n"
      ],
      [
        "a",
        "b"
      ],
      [
        "b",
        "e"
      ],
      [
        "c",
        "om"
      ],
      [
        "er",
        "s "
      ],
      [
        "h",
        "i"
      ],
      [
        "b",
        "u"
      ],
      [
        "c",
        "e "
      ],
      [
        ")",
        " "
      ],
      [
        "a",
        "p"
      ],
      [
        "e",
        "x"
      ],
      [
        "th",
        "e"
      ],
      [
        "ro",
        "m "
      ],
      [
        "ti",
        "on"
      ],
      [
        "a",
        "tion "
      ],
      [
        "u",
        "l"
      ],
      [
        "i",
        "t "
      ],
      [
        "f",
        "rom "
      ],
      [
        "t",
        "ed "
      ],
      [
        "e",
        "p"
      ],
      [
        "a",
        "y "
      ],
      [
        "o",
        "c"
      ],
      [
        "2",
        "0"
      ],
      [
        "t",
        "er "
      ],
      [
        "c",
        "l"
      ],
      [
        "i",
        "d"
      ],
      [
        "e",
        "w"
      ],
      [
        "s",
        "p"
      ],
      [
        "u",
        "c"
      ],
      [
        "w",
        "ere "
      ],
      [
        ". ",
        "I"
      ],
      [
        "to ",
        "the "
      ],
      [
        "i",
        "m"
      ],
      [
        "s",
        "t "
      ],
      [
        "th",
        "er "
      ],
      [
        "p",
        " "
      ],
      [
        "ou",
        "r"
      ],
      [
        "t",
        "r"
      ],
      [
        "q",
        "u"
      ],
      [
        "ti",
        "c"
      ],
      [
        "o",
        "o"
      ],
      [
        "t",
        "s "
      ],
      [
        "t",
        "er"
      ],
      [
        "s",
        "e"
      ],
      [
        "p",
        "er"
      ],
      [
        "e",
        "a"
      ],
      [
        "f",
        "f"
      ],
      [
        ". ",
        "A"
      ],
      [
        "at",
        "ed "
      ],
      [
        "a",
        "y"
      ],
      [
        "at",
        "e "
      ],
      [
        "p",
        "re"
      ],
      [
        "s",
        "h"
      ],
      [
        "in",
        "g"
      ],
      [
        "it",
        "y "
      ],
      [
        "a",
        "in"
      ],
      [
        "n",
        "o"
      ],
      [
        "ic",
        " "
      ],
      [
        "ha",
        "d "
      ],
      [
        " ",
        "= = "
      ],
      [
        "ic",
        "h "
      ],
      [
        "ar",
        " "
      ],
      [
        "ig",
        "h"
      ],
      [
        "re",
        "c"
      ],
      [
        "ed ",
        "the "
      ],
      [
        "l",
        "d "
      ],
      [
        "u",
        "m"
      ],
      [
        "ing ",
        "the "
      ],
      [
        "i",
        "v"
      ],
      [
        ", ",
        "and "
      ],
      [
        "ou",
        "g"
      ],
      [
        "d",
        "s "
      ],
      [
        "1",
        " "
      ],
      [
        "ir",
        " "
      ],
      [
        "ed ",
        "to "
      ],
      [
        "c",
        "h "
      ],
      [
        "wh",
        "ich "
      ],
      [
        "e ",
        "of "
      ],
      [
        "am",
        "e "
      ],
      [
        "a",
        "k"
      ],
      [
        "es",
        "t "
      ],
      [
        "st",
        "r"
      ],
      [
        "b",
        "er "
      ],
      [
        "S",
        "t"
      ],
      [
        "5",
        " "
      ],
      [
        "2",
        " "
      ],
      [
        "p",
        "ar"
      ],
      [
        "b",
        "e "
      ],
      [
        "u",
        "d"
      ],
      [
        "al",
        "ly "
      ],
      [
        "ed ",
        "by "
      ],
      [
        "ar",
        "e "
      ],
      [
        "ou",
        "t "
      ],
      [
        "e",
        "d"
      ],
      [
        ". ",
        "H"
      ],
      [
        "o",
        "d"
      ],
      [
        "al",
        "l"
      ],
      [
        "al",
        "l "
      ],
      [
        "s",
        "o "
      ],
      [
        "f",
        "ir"
      ],
      [
        "a",
        "tion"
      ],
      [
        "a",
        "v"
      ],
      [
        ". ",
        "T"
      ],
      [
        "i",
        "es "
      ],
      [
        "e",
        "t "
      ],
      [
        "on",
        "e "
      ],
      [
        "ti",
        "m"
      ],
      [
        "on",
        "g "
      ],
      [
        "e",
        "st"
      ],
      [
        "ar",
        "y "
      ],
      [
        "3",
        " "
      ],
      [
        "on ",
        "the "
      ],
      [
        "it",
        "s "
      ],
      [
        "m",
        "an"
      ],
      [
        "p",
        "or"
      ],
      [
        "w",
        "or"
      ],
      [
        "C",
        "h"
      ],
      [
        "p",
        "o"
      ],
      [
        "ew",
        " "
      ],
      [
        "4",
        " "
      ],
      [
        "t",
        "ur"
      ],
      [
        "bu",
        "t "
      ],
      [
        "b",
        "l"
      ],
      [
        "at",
        "t"
      ],
      [
        "ow",
        " "
      ],
      [
        "no",
        "t "
      ],
      [
        "ou",
        "ld "
      ],
      [
        "s",
        "er"
      ],
      [
        "el",
        " "
      ],
      [
        "s ",
        "and "
      ],
      [
        "20",
        "0"
      ],
      [
        "h",
        "er "
      ],
      [
        "r",
        "an"
      ],
      [
        "f",
        "ter "
      ],
      [
        "6",
        " "
      ],
      [
        "o",
        "t"
      ],
      [
        "o",
        "g"
      ],
      [
        "d",
        "er "
      ],
      [
        "t",
        "w"
      ],
      [
        "ow",
        "n "
      ],
      [
        "ar",
        "d "
      ],
      [
        "w",
        "e"
      ],
      [
        "s",
        "c"
      ],
      [
        "g",
        "e "
      ],
      [
        ";",
        " "
      ],
      [
        ". I",
        "n "
      ],
      [
        "fir",
        "st "
      ],
      [
        "8",
        " "
      ],
      [
        "the",
        "ir "
      ],
      [
        "d",
        "e"
      ],
      [
        "–",
        " "
      ],
      [
        "i",
        " "
      ],
      [
        "in",
        "e "
      ],
      [
        "d",
        "ing "
      ],
      [
        "7",
        " "
      ],
      [
        ", ",
        "the "
      ],
      [
        "ed ",
        "in "
      ],
      [
        ":",
        " "
      ],
      [
        "al",
        "so "
      ],
      [
        "oug",
        "h "
      ],
      [
        "con",
        "t"
      ],
      [
        "for ",
        "the "
      ],
      [
        "os",
        "t "
      ],
      [
        "as",
        "t "
      ],
      [
        "s ",
        "of "
      ],
      [
        "v",
        "i"
      ],
      [
        "ol",
        "l"
      ],
      [
        "oun",
        "d "
      ],
      [
        "m",
        "ent "
      ],
      [
        "or",
        "e "
      ],
      [
        "si",
        "d"
      ],
      [
        "0",
        "0 "
      ],
      [
        "o",
        "ther "
      ],
      [
        "u",
        "t"
      ],
      [
        "i",
        "d "
      ],
      [
        "a",
        "in "
      ],
      [
        "ha",
        "ve "
      ],
      [
        " ",
        "The "
      ],
      [
        "and ",
        "the "
      ],
      [
        "il",
        "l"
      ],
      [
        "i",
        "on "
      ],
      [
        "f",
        "l"
      ],
      [
        "f",
        "i"
      ],
      [
        "a",
        "w"
      ],
      [
        ".",
        "@ "
      ],
      [
        "@",
        ".@ "
      ],
      [
        "d",
        "is"
      ],
      [
        "es ",
        ", "
      ],
      [
        "er ",
        ", "
      ],
      [
        "g",
        "r"
      ],
      [
        "tw",
        "o "
      ],
      [
        "e ",
        "the "
      ],
      [
        "s",
        "hi"
      ],
      [
        "b",
        "ec"
      ],
      [
        "b",
        "o"
      ],
      [
        "wh",
        "o "
      ],
      [
        "ac",
        "k "
      ],
      [
        "st",
        "or"
      ],
      [
        "d",
        "uc"
      ],
      [
        "v",
        "er"
      ],
      [
        "p",
        "h"
      ],
      [
        "be",
        "en "
      ],
      [
        "h",
        "as "
      ],
      [
        "en",
        "d"
      ],
      [
        "s",
        "ec"
      ],
      [
        "i",
        "a "
      ],
      [
        "= ",
        "\n"
      ],
      [
        ". ",
        "S"
      ],
      [
        "ov",
        "er"
      ],
      [
        "r",
        "u"
      ],
      [
        "= = ",
        "\n"
      ],
      [
        "9",
        " "
      ],
      [
        "el",
        "y "
      ],
      [
        "e",
        "y "
      ],
      [
        ",",
        "@ "
      ],
      [
        "@",
        ",@ "
      ],
      [
        "20",
        "1"
      ],
      [
        "d",
        "es"
      ],
      [
        "ag",
        "e "
      ],
      [
        "ti",
        "ve "
      ],
      [
        "a",
        "u"
      ],
      [
        "th",
        "is "
      ],
      [
        "y",
        "ear"
      ],
      [
        "o",
        "b"
      ],
      [
        "for",
        "m"
      ],
      [
        "t",
        "ing "
      ],
      [
        "as",
        "s"
      ],
      [
        "cl",
        "ud"
      ],
      [
        "om",
        "e "
      ],
      [
        "at ",
        "the "
      ],
      [
        "el",
        "l"
      ],
      [
        "I",
        " "
      ],
      [
        ". ",
        "\" "
      ],
      [
        "com",
        "m"
      ],
      [
        "p",
        "r"
      ],
      [
        "m",
        "il"
      ],
      [
        "en",
        "ce "
      ],
      [
        "1",
        "8"
      ],
      [
        "em",
        "ber "
      ],
      [
        "ac",
        "k"
      ],
      [
        "c",
        "re"
      ],
      [
        "f",
        "in"
      ],
      [
        "an",
        "t "
      ],
      [
        "an",
        "d"
      ],
      [
        "the",
        "y "
      ],
      [
        "our",
        " "
      ],
      [
        "ou",
        "s "
      ],
      [
        "'",
        " "
      ],
      [
        "m",
        "in"
      ],
      [
        "with ",
        "the "
      ],
      [
        " , ",
        "and "
      ],
      [
        "igh",
        "t "
      ],
      [
        "U",
        "n"
      ],
      [
        "from ",
        "the "
      ],
      [
        "M",
        "ar"
      ],
      [
        "si",
        "on "
      ],
      [
        "u",
        "e "
      ],
      [
        "at",
        "er "
      ],
      [
        "is",
        "h"
      ],
      [
        "u",
        "s "
      ],
      [
        "a",
        "fter "
      ],
      [
        "in",
        "clud"
      ],
      [
        "l",
        "and "
      ],
      [
        "I",
        "n"
      ],
      [
        ". H",
        "e "
      ],
      [
        "ic",
        "al "
      ],
      [
        "f",
        "e"
      ],
      [
        "a",
        "d "
      ],
      [
        "w",
        "ould "
      ],
      [
        "p",
        "e"
      ],
      [
        "il",
        " "
      ],
      [
        "ab",
        "le "
      ],
      [
        "r",
        "it"
      ],
      [
        "y ",
        ", "
      ],
      [
        "re",
        "s"
      ],
      [
        "s",
        "on "
      ],
      [
        "s",
        "e "
      ],
      [
        "i",
        "al "
      ],
      [
        "as ",
        "a "
      ],
      [
        "m",
        "e"
      ],
      [
        "ov",
        "er "
      ],
      [
        "a",
        "st"
      ],
      [
        "el",
        "l "
      ],
      [
        " ",
        "A"
      ],
      [
        "ed ",
        "a "
      ],
      [
        "i",
        "an "
      ],
      [
        "re",
        "e "
      ],
      [
        "e",
        "g"
      ],
      [
        "ent",
        "s "
      ],
      [
        "f",
        "t "
      ],
      [
        " = = ",
        "= "
      ],
      [
        "pre",
        "s"
      ],
      [
        "pl",
        "ay"
      ],
      [
        "er",
        "al "
      ],
      [
        ". T",
        "h"
      ],
      [
        "es",
        "s "
      ],
      [
        "f",
        "il"
      ],
      [
        " ",
        "@-@ "
      ],
      [
        "re",
        "n"
      ],
      [
        "c",
        "ri"
      ],
      [
        " , ",
        "the "
      ],
      [
        "m",
        "an "
      ],
      [
        "ch",
        "ar"
      ],
      [
        "in",
        "ter"
      ],
      [
        "re",
        "m"
      ],
      [
        "g",
        "u"
      ],
      [
        "ad",
        "e "
      ],
      [
        "p",
        "os"
      ],
      [
        "en",
        "c"
      ],
      [
        "i",
        "z"
      ],
      [
        "p",
        "u"
      ],
      [
        "er",
        "n "
      ],
      [
        "m",
        "er"
      ],
      [
        "o",
        "ff"
      ],
      [
        ". ",
        "B"
      ],
      [
        "= = ",
        "= \n"
      ],
      [
        "m",
        "ore "
      ],
      [
        "t",
        "y "
      ],
      [
        ". ",
        "O"
      ],
      [
        "ic",
        "e "
      ],
      [
        "es",
        "s"
      ],
      [
        "an",
        "c"
      ],
      [
        "sp",
        "ec"
      ],
      [
        "u",
        "p "
      ],
      [
        "an",
        "n"
      ],
      [
        "ac",
        "e "
      ],
      [
        "es",
        "e "
      ],
      [
        "at",
        "es "
      ],
      [
        "that ",
        "the "
      ],
      [
        "on",
        "s "
      ],
      [
        "b",
        "et"
      ],
      [
        "an",
        "ce "
      ],
      [
        "k",
        "e "
      ],
      [
        "tic",
        " "
      ],
      [
        "us",
        "t "
      ],
      [
        "x",
        " "
      ],
      [
        "h",
        "t "
      ],
      [
        "on",
        "d "
      ],
      [
        "m",
        "ost "
      ],
      [
        "a ",
        ", "
      ],
      [
        "m",
        "ar"
      ],
      [
        "tim",
        "e "
      ],
      [
        "k",
        "n"
      ],
      [
        "il",
        "e "
      ],
      [
        "d",
        "er"
      ],
      [
        "d",
        "ec"
      ],
      [
        "wh",
        "en "
      ],
      [
        "ser",
        "v"
      ],
      [
        "A",
        "u"
      ],
      [
        "c",
        "ar"
      ],
      [
        "hi",
        "m "
      ],
      [
        "s",
        "he "
      ],
      [
        "in",
        "t"
      ],
      [
        "on",
        "g"
      ],
      [
        "d",
        "ur"
      ],
      [
        ". I",
        "t "
      ],
      [
        "u",
        "m "
      ],
      [
        ". ",
        "W"
      ],
      [
        "ac",
        "h"
      ],
      [
        "k",
        "s "
      ],
      [
        "it",
        "ed "
      ],
      [
        "i",
        "ti"
      ],
      [
        "on",
        "ly "
      ],
      [
        ")",
        " , "
      ],
      [
        "i",
        "st"
      ],
      [
        "it",
        "e "
      ],
      [
        "as ",
        "the "
      ],
      [
        "v",
        "id"
      ],
      [
        "t ",
        "of "
      ],
      [
        "c",
        "ent"
      ],
      [
        "a",
        "us"
      ],
      [
        "s",
        "ur"
      ],
      [
        "in ",
        "19"
      ],
      [
        "l",
        "ar"
      ],
      [
        "is",
        "h "
      ],
      [
        "re",
        "g"
      ],
      [
        "th",
        "r"
      ],
      [
        "s",
        "a"
      ],
      [
        "th",
        "an "
      ],
      [
        "A",
        "n"
      ],
      [
        "ol",
        "d "
      ],
      [
        "ation",
        "s "
      ],
      [
        " ",
        "I"
      ],
      [
        "c",
        "o"
      ],
      [
        "we",
        "en "
      ],
      [
        "t",
        "e "
      ],
      [
        "A",
        "r"
      ],
      [
        "en",
        "d "
      ],
      [
        "s",
        "ev"
      ],
      [
        "ro",
        "w"
      ],
      [
        "c",
        "or"
      ],
      [
        "t",
        "or"
      ],
      [
        "r",
        "ic"
      ],
      [
        "E",
        "n"
      ],
      [
        "t",
        "ra"
      ],
      [
        "ab",
        "out "
      ],
      [
        "as",
        "on "
      ],
      [
        "A",
        "l"
      ],
      [
        "m",
        "on"
      ],
      [
        "T",
        "h"
      ],
      [
        "w",
        "ay "
      ],
      [
        "s",
        "y"
      ],
      [
        "shi",
        "p "
      ],
      [
        "as",
        "ed "
      ],
      [
        "an",
        "s "
      ],
      [
        "am",
        "p"
      ],
      [
        "p",
        "an"
      ],
      [
        "en",
        "ti"
      ],
      [
        "t",
        "on "
      ],
      [
        "at",
        "ur"
      ],
      [
        "bet",
        "ween "
      ],
      [
        "is",
        "t "
      ],
      [
        "tion",
        "s "
      ],
      [
        "oo",
        "d "
      ],
      [
        "re",
        "le"
      ],
      [
        "t",
        "o"
      ],
      [
        "a",
        "m "
      ],
      [
        "pl",
        "e "
      ],
      [
        "oo",
        "k "
      ],
      [
        "an",
        "g"
      ],
      [
        "u",
        "p"
      ],
      [
        "s",
        "el"
      ],
      [
        "o",
        "f"
      ],
      [
        "a",
        "ir"
      ],
      [
        "re",
        "l"
      ],
      [
        "n",
        "um"
      ],
      [
        "pro",
        "duc"
      ],
      [
        "t",
        "e"
      ],
      [
        "il",
        "l "
      ],
      [
        "oll",
        "ow"
      ],
      [
        "k",
        "ing "
      ],
      [
        "ac",
        "h "
      ],
      [
        "th",
        "ree "
      ],
      [
        "ev",
        "el"
      ],
      [
        ". ",
        "M"
      ],
      [
        "i",
        "f"
      ],
      [
        "n",
        "ing "
      ],
      [
        "A",
        " "
      ],
      [
        "in ",
        "a "
      ],
      [
        "in",
        "to "
      ],
      [
        "ti",
        "s"
      ],
      [
        "ti",
        "v"
      ],
      [
        "mer",
        "ic"
      ],
      [
        "g",
        "en"
      ],
      [
        "ation",
        "al "
      ],
      [
        "b",
        "er"
      ],
      [
        "o",
        "t "
      ],
      [
        "n",
        "or"
      ],
      [
        "al",
        "s "
      ],
      [
        "su",
        "b"
      ],
      [
        "to ",
        "be "
      ],
      [
        "\"",
        " , "
      ],
      [
        "n",
        "ew "
      ],
      [
        "ri",
        "g"
      ],
      [
        ". ",
        "D"
      ],
      [
        "@,@ ",
        "0"
      ],
      [
        "re",
        "s "
      ],
      [
        "a",
        "il"
      ],
      [
        ". ",
        "F"
      ],
      [
        "w",
        "rit"
      ],
      [
        "A",
        "meric"
      ],
      [
        "in",
        "d"
      ],
      [
        "be",
        "g"
      ],
      [
        "e",
        "b"
      ],
      [
        "ap",
        "p"
      ],
      [
        "ed ",
        ", "
      ],
      [
        "ak",
        "e "
      ],
      [
        "os",
        "e "
      ],
      [
        "wh",
        "ere "
      ],
      [
        "c",
        "oun"
      ],
      [
        "C",
        "om"
      ],
      [
        "J",
        "o"
      ],
      [
        "g",
        "ame "
      ],
      [
        " I",
        "n "
      ],
      [
        "em",
        "ent "
      ],
      [
        "si",
        "g"
      ],
      [
        "as",
        "e "
      ],
      [
        "h",
        "el"
      ],
      [
        "th",
        "ough "
      ],
      [
        "r",
        "y "
      ],
      [
        "ar",
        "d"
      ],
      [
        "t",
        "en "
      ],
      [
        "f",
        "u"
      ],
      [
        "at",
        "ing "
      ],
      [
        "rec",
        "or"
      ],
      [
        "u",
        "b"
      ],
      [
        "fil",
        "m "
      ],
      [
        "ing",
        "s "
      ],
      [
        "P",
        "ar"
      ],
      [
        "ou",
        "s"
      ],
      [
        "op",
        " "
      ],
      [
        "19",
        "9"
      ],
      [
        "l",
        "ater "
      ],
      [
        "r",
        "e "
      ],
      [
        "es ",
        "and "
      ],
      [
        "se",
        "ason "
      ],
      [
        "S",
        " "
      ],
      [
        "t ",
        ", "
      ],
      [
        "m",
        "us"
      ],
      [
        "o",
        "y"
      ],
      [
        "str",
        "uc"
      ],
      [
        "ti",
        "t"
      ],
      [
        "l",
        "oc"
      ],
      [
        "v",
        "is"
      ],
      [
        "bu",
        "il"
      ],
      [
        "ri",
        "v"
      ],
      [
        "in",
        "c"
      ],
      [
        "n",
        "ed "
      ],
      [
        "s , ",
        "and "
      ],
      [
        "p",
        "p"
      ],
      [
        "en",
        "g"
      ],
      [
        "k",
        "ed "
      ],
      [
        "by ",
        "the "
      ],
      [
        "su",
        "ch "
      ],
      [
        "be",
        "for"
      ],
      [
        "m",
        "a"
      ],
      [
        "@,@ 0",
        "00 "
      ],
      [
        "es ",
        "of "
      ],
      [
        "N",
        "or"
      ],
      [
        "c",
        "ap"
      ],
      [
        "m",
        "o"
      ],
      [
        "p",
        "ol"
      ],
      [
        "with ",
        "a "
      ],
      [
        "C",
        "on"
      ],
      [
        "N",
        "ew "
      ],
      [
        "al",
        "bu"
      ],
      [
        "h",
        "e"
      ],
      [
        "pu",
        "bl"
      ],
      [
        "ea",
        "m "
      ],
      [
        "ec",
        "ted "
      ],
      [
        "the",
        "m "
      ],
      [
        "ow",
        "ev"
      ],
      [
        "ea",
        "d "
      ],
      [
        "ou",
        "th "
      ],
      [
        "ear",
        " "
      ],
      [
        "st",
        "e"
      ],
      [
        "s",
        "l"
      ],
      [
        "m",
        "ade "
      ],
      [
        "o",
        "m "
      ],
      [
        "f",
        "ollow"
      ],
      [
        "th",
        "en "
      ],
      [
        "is",
        "od"
      ],
      [
        "p",
        "s "
      ],
      [
        "m",
        "at"
      ],
      [
        "com",
        "pl"
      ],
      [
        "/",
        " "
      ],
      [
        "ing ",
        "a "
      ],
      [
        "b",
        "le "
      ],
      [
        "B",
        "ri"
      ],
      [
        "ol",
        " "
      ],
      [
        "n",
        "am"
      ],
      [
        "ro",
        "s"
      ],
      [
        "wh",
        "ile "
      ],
      [
        "ain",
        "st "
      ],
      [
        "e",
        "a "
      ],
      [
        "wi",
        "th"
      ],
      [
        "d",
        "ay "
      ],
      [
        "ep",
        "isod"
      ],
      [
        "thr",
        "ough "
      ],
      [
        "f",
        "ac"
      ],
      [
        "ch",
        "o"
      ],
      [
        "an",
        "t"
      ],
      [
        "sec",
        "ond "
      ],
      [
        "l",
        "es "
      ],
      [
        "st",
        "ar"
      ],
      [
        "m",
        "is"
      ],
      [
        "in",
        "v"
      ],
      [
        "ag",
        "ainst "
      ],
      [
        "su",
        "p"
      ],
      [
        "ed ",
        "that "
      ],
      [
        "man",
        "y "
      ],
      [
        "b",
        "r"
      ],
      [
        "w",
        "ell "
      ],
      [
        "char",
        "ac"
      ],
      [
        "l",
        "in"
      ],
      [
        "po",
        "si"
      ],
      [
        "c",
        "an "
      ],
      [
        "s",
        "ome "
      ],
      [
        "albu",
        "m "
      ],
      [
        "t",
        "ri"
      ],
      [
        "ar",
        "i"
      ],
      [
        "s",
        "ong "
      ],
      [
        "C",
        " "
      ],
      [
        "ar",
        "m"
      ],
      [
        "bec",
        "ame "
      ],
      [
        "g",
        "l"
      ],
      [
        "c",
        "ur"
      ],
      [
        "il",
        "y "
      ],
      [
        "m",
        "p"
      ],
      [
        "n",
        "o "
      ],
      [
        "c",
        "all"
      ],
      [
        "num",
        "ber "
      ],
      [
        "ec",
        "t "
      ],
      [
        "f",
        "er"
      ],
      [
        "d",
        "e "
      ],
      [
        "s",
        "ing"
      ],
      [
        "c",
        "c"
      ],
      [
        "m",
        "ov"
      ],
      [
        "it ",
        "was "
      ],
      [
        "in",
        "ce "
      ],
      [
        " ",
        "S"
      ],
      [
        "he ",
        "was "
      ],
      [
        "ear",
        "ly "
      ],
      [
        ". T",
        "his "
      ],
      [
        "Un",
        "ited "
      ],
      [
        "—",
        " "
      ],
      [
        "ser",
        "ies "
      ],
      [
        "iv",
        "er"
      ],
      [
        "n",
        "e"
      ],
      [
        "bo",
        "th "
      ],
      [
        "g",
        "re"
      ],
      [
        "ed by ",
        "the "
      ],
      [
        "tion ",
        "of "
      ],
      [
        "be",
        "ing "
      ],
      [
        "po",
        "in"
      ],
      [
        "wor",
        "k "
      ],
      [
        "Jo",
        "h"
      ],
      [
        "kn",
        "own "
      ],
      [
        "d",
        "ep"
      ],
      [
        "si",
        "st"
      ],
      [
        "d",
        "evel"
      ],
      [
        "li",
        "on "
      ],
      [
        "l",
        "an"
      ],
      [
        "ar",
        "ds "
      ],
      [
        "e ",
        "and "
      ],
      [
        "ad",
        "i"
      ],
      [
        "i",
        "p"
      ],
      [
        "r",
        "is"
      ],
      [
        "th",
        "ere "
      ],
      [
        "ed ",
        "in the "
      ],
      [
        "su",
        "l"
      ],
      [
        "ol",
        "og"
      ],
      [
        "cont",
        "in"
      ],
      [
        "is ",
        "a "
      ],
      [
        "b",
        "el"
      ],
      [
        "l",
        "o"
      ],
      [
        "di",
        "rec"
      ],
      [
        "is",
        "ion "
      ],
      [
        "e , ",
        "and "
      ],
      [
        "su",
        "cc"
      ],
      [
        "L",
        "e"
      ],
      [
        "un",
        "der "
      ],
      [
        "f",
        "our "
      ],
      [
        "u",
        "al "
      ],
      [
        "t",
        "eam "
      ],
      [
        "ay",
        "s "
      ],
      [
        "per",
        "i"
      ],
      [
        "y ",
        "of "
      ],
      [
        "pl",
        "ac"
      ],
      [
        "or",
        "ig"
      ],
      [
        "1",
        "0 "
      ],
      [
        "ig",
        "n "
      ],
      [
        "ow",
        "er "
      ],
      [
        "w",
        " "
      ],
      [
        "sa",
        "id "
      ],
      [
        "over",
        "n"
      ],
      [
        "c",
        "er"
      ],
      [
        "ti",
        "l"
      ],
      [
        "er",
        "ed "
      ],
      [
        "s",
        "m"
      ],
      [
        "y",
        "p"
      ],
      [
        "di",
        "ff"
      ],
      [
        "am",
        "es "
      ],
      [
        "rec",
        "e"
      ],
      [
        "W",
        "or"
      ],
      [
        "C",
        "ar"
      ],
      [
        "c",
        "ol"
      ],
      [
        "i",
        "on"
      ],
      [
        "sev",
        "eral "
      ],
      [
        "e",
        "f"
      ],
      [
        "ro",
        "p"
      ],
      [
        "h",
        "igh"
      ],
      [
        "b",
        "ro"
      ],
      [
        ". A",
        " "
      ],
      [
        "befor",
        "e "
      ],
      [
        "G",
        "er"
      ],
      [
        "devel",
        "op"
      ],
      [
        "di",
        "d "
      ],
      [
        "a",
        "z"
      ],
      [
        "c",
        "ould "
      ],
      [
        "ur",
        "y "
      ],
      [
        "year",
        "s "
      ],
      [
        "app",
        "ear"
      ],
      [
        "s",
        "k"
      ],
      [
        "tr",
        "an"
      ],
      [
        "ou",
        "t"
      ],
      [
        "an",
        "y "
      ],
      [
        "u",
        "ally "
      ],
      [
        "t",
        "ers "
      ],
      [
        "Americ",
        "an "
      ],
      [
        "oun",
        "d"
      ],
      [
        "tis",
        "h "
      ],
      [
        "orig",
        "in"
      ],
      [
        "oug",
        "ht "
      ],
      [
        "or",
        "g"
      ],
      [
        "re",
        "tur"
      ],
      [
        "ep",
        "t"
      ],
      [
        "beg",
        "an "
      ],
      [
        "tic",
        "al "
      ],
      [
        "sel",
        "f "
      ],
      [
        "ig",
        "h "
      ],
      [
        ". ",
        "R"
      ],
      [
        "dur",
        "ing the "
      ],
      [
        "ti",
        "l "
      ],
      [
        "tur",
        "e "
      ],
      [
        "t",
        "or "
      ],
      [
        " ",
        "B"
      ],
      [
        "vi",
        "ew"
      ],
      [
        "a",
        "tive "
      ],
      [
        "J",
        "u"
      ],
      [
        "ac",
        "c"
      ],
      [
        ". ",
        "P"
      ],
      [
        "ation ",
        "of "
      ],
      [
        "s",
        "ol"
      ],
      [
        "li",
        "f"
      ],
      [
        "off",
        "ic"
      ],
      [
        "th",
        "er"
      ],
      [
        "1",
        "7"
      ],
      [
        "w",
        "ard "
      ],
      [
        "ed ",
        "on "
      ],
      [
        "owev",
        "er , "
      ],
      [
        "g",
        "o"
      ],
      [
        "oc",
        "i"
      ],
      [
        "al",
        "e "
      ],
      [
        "a",
        "ve "
      ],
      [
        "as",
        "s "
      ],
      [
        ", ",
        "but "
      ],
      [
        ". O",
        "n "
      ],
      [
        "w",
        "in"
      ],
      [
        " ",
        "\" "
      ],
      [
        "des",
        "cri"
      ],
      [
        "19",
        "4"
      ],
      [
        "un",
        "til "
      ],
      [
        "t",
        "ak"
      ],
      [
        "n",
        "e "
      ],
      [
        "was ",
        "the "
      ],
      [
        "f",
        "am"
      ],
      [
        "S",
        "h"
      ],
      [
        "stor",
        "y "
      ],
      [
        "l",
        "ine "
      ],
      [
        ". ",
        "L"
      ],
      [
        "d",
        "re"
      ],
      [
        "le",
        "g"
      ],
      [
        "rece",
        "iv"
      ],
      [
        "O",
        "c"
      ],
      [
        "or",
        "s "
      ],
      [
        "k",
        " , "
      ],
      [
        "t ",
        "the "
      ],
      [
        "19",
        "8"
      ],
      [
        "er",
        "y "
      ],
      [
        "on",
        "d"
      ],
      [
        "C",
        "l"
      ],
      [
        "p",
        "op"
      ],
      [
        "op",
        "er"
      ],
      [
        "for",
        "c"
      ],
      [
        "ul",
        "ar "
      ],
      [
        "gr",
        "ou"
      ],
      [
        "year",
        " "
      ],
      [
        "b",
        "or"
      ],
      [
        "t",
        "ly "
      ],
      [
        "s ",
        "the "
      ],
      [
        "W",
        "h"
      ],
      [
        "of",
        "f "
      ],
      [
        "n",
        "er "
      ],
      [
        "1",
        " , "
      ],
      [
        "sup",
        "por"
      ],
      [
        "t",
        "en"
      ],
      [
        "r",
        "on"
      ],
      [
        "ed ",
        "for "
      ],
      [
        "G",
        "re"
      ],
      [
        "mil",
        "lion "
      ],
      [
        "sig",
        "n"
      ],
      [
        " ",
        "M"
      ],
      [
        "ing ",
        "to "
      ],
      [
        "em",
        "p"
      ],
      [
        "b",
        "ack "
      ],
      [
        ". W",
        "h"
      ],
      [
        "had ",
        "been "
      ],
      [
        "or",
        "t "
      ],
      [
        "was ",
        "a "
      ],
      [
        "ev",
        "er "
      ],
      [
        " ",
        ") "
      ],
      [
        "m",
        "y "
      ],
      [
        "ed ",
        "and "
      ],
      [
        "C",
        "ol"
      ],
      [
        "el",
        "d "
      ],
      [
        "m",
        "od"
      ],
      [
        "$",
        " "
      ],
      [
        "W",
        "il"
      ],
      [
        "f",
        "ound "
      ],
      [
        "pe",
        "o"
      ],
      [
        "m",
        "i"
      ],
      [
        "th",
        "ese "
      ],
      [
        "includ",
        "ing "
      ],
      [
        "t",
        "ain"
      ],
      [
        "Bri",
        "tish "
      ],
      [
        "le",
        "y "
      ],
      [
        "ir",
        "d "
      ],
      [
        "J",
        "un"
      ],
      [
        "p",
        "ri"
      ],
      [
        "contin",
        "u"
      ],
      [
        "b",
        "re"
      ],
      [
        "rem",
        "ain"
      ],
      [
        "u",
        "res "
      ],
      [
        "st",
        "ri"
      ],
      [
        "sid",
        "e "
      ],
      [
        "em",
        "b"
      ],
      [
        "m ",
        ") "
      ],
      [
        "ab",
        "l"
      ],
      [
        "t ",
        "of the "
      ],
      [
        "ing ",
        ", "
      ],
      [
        "ept",
        "ember "
      ],
      [
        "e",
        "y"
      ],
      [
        " ",
        "and "
      ],
      [
        "2",
        "0 "
      ],
      [
        "si",
        "ve "
      ],
      [
        "re",
        "qu"
      ],
      [
        "a ",
        "f"
      ],
      [
        "t",
        "ook "
      ],
      [
        "0",
        " , "
      ],
      [
        "ed ",
        "with "
      ],
      [
        "l",
        "ong "
      ],
      [
        "S",
        "eptember "
      ],
      [
        "i",
        "e "
      ],
      [
        "e , ",
        "the "
      ],
      [
        "fu",
        "l "
      ],
      [
        "or",
        "y "
      ],
      [
        "s",
        "ame "
      ],
      [
        "bec",
        "aus"
      ],
      [
        "S",
        "c"
      ],
      [
        "o",
        "d "
      ],
      [
        "ic",
        "k"
      ],
      [
        ". A",
        "fter "
      ],
      [
        "tion",
        "al "
      ],
      [
        "pl",
        "ay "
      ],
      [
        "e",
        "k "
      ],
      [
        "re",
        "sul"
      ],
      [
        "ar",
        "ound "
      ],
      [
        "en",
        "n"
      ],
      [
        "d",
        "o"
      ],
      [
        "e",
        "ach "
      ],
      [
        "ic",
        "h"
      ],
      [
        "li",
        "ke "
      ],
      [
        "United ",
        "St"
      ],
      [
        "Wor",
        "ld "
      ],
      [
        "2",
        " , "
      ],
      [
        "b",
        "att"
      ],
      [
        "m",
        "ay "
      ],
      [
        "al",
        "i"
      ],
      [
        "for",
        "m "
      ],
      [
        "episod",
        "e "
      ],
      [
        " ",
        "O"
      ],
      [
        "g",
        "overn"
      ],
      [
        "19",
        "7"
      ],
      [
        "5",
        " , "
      ],
      [
        "d",
        "r"
      ],
      [
        "B",
        "l"
      ],
      [
        "as",
        "h"
      ],
      [
        "19",
        "6"
      ],
      [
        "ec",
        "tion "
      ],
      [
        "m",
        "et"
      ],
      [
        "g",
        "ust "
      ],
      [
        "es ",
        "to "
      ],
      [
        "ig",
        "n"
      ],
      [
        "N",
        "ov"
      ],
      [
        "5",
        "0 "
      ],
      [
        "Au",
        "str"
      ],
      [
        "b",
        "ur"
      ],
      [
        "ed ",
        "as "
      ],
      [
        "en",
        "s"
      ],
      [
        "ou",
        " "
      ],
      [
        "b",
        "ri"
      ],
      [
        "re",
        "por"
      ],
      [
        "J",
        "an"
      ],
      [
        "p",
        "ass"
      ],
      [
        "ity ",
        "of "
      ],
      [
        "descri",
        "b"
      ],
      [
        "d",
        "own "
      ],
      [
        "4",
        " , "
      ],
      [
        "s ",
        "in "
      ],
      [
        ", ",
        "which "
      ],
      [
        "ted ",
        "to "
      ],
      [
        "st",
        "ate "
      ],
      [
        "com",
        "pan"
      ],
      [
        "F",
        "ran"
      ],
      [
        "t",
        "ain "
      ],
      [
        "j",
        "o"
      ],
      [
        "ste",
        "m "
      ],
      [
        "a",
        "th"
      ],
      [
        "v",
        "ing "
      ],
      [
        "m",
        "ak"
      ],
      [
        "le",
        "ad"
      ],
      [
        "s ",
        "to "
      ],
      [
        "3",
        " , "
      ],
      [
        "to",
        "ber "
      ],
      [
        "mus",
        "ic "
      ],
      [
        "al",
        "ong "
      ],
      [
        "Oc",
        "tober "
      ],
      [
        "Joh",
        "n "
      ],
      [
        "n",
        "ational "
      ],
      [
        "Au",
        "gust "
      ],
      [
        "in",
        "to the "
      ],
      [
        "such ",
        "as "
      ],
      [
        "a ",
        "and "
      ],
      [
        "is ",
        "the "
      ],
      [
        "H",
        "ar"
      ],
      [
        "e",
        "ff"
      ],
      [
        "of ",
        "a "
      ],
      [
        "w",
        "ar"
      ],
      [
        "p",
        "er "
      ],
      [
        ". ",
        "E"
      ],
      [
        "a",
        "ir "
      ],
      [
        "Y",
        "or"
      ],
      [
        "tr",
        "y "
      ],
      [
        "ac",
        "t "
      ],
      [
        " ",
        "D"
      ],
      [
        "de",
        "f"
      ],
      [
        "ent",
        "ly "
      ],
      [
        "ec",
        "h"
      ],
      [
        "m",
        "e "
      ],
      [
        "fi",
        "ve "
      ],
      [
        "dis",
        "c"
      ],
      [
        "v",
        "en"
      ],
      [
        "have ",
        "been "
      ],
      [
        "ow",
        "n"
      ],
      [
        "3",
        "0 "
      ],
      [
        "ap",
        "pro"
      ],
      [
        "uc",
        "h "
      ],
      [
        "l",
        "y"
      ],
      [
        "M",
        "ay "
      ],
      [
        "iver",
        "s"
      ],
      [
        "at",
        "ely "
      ],
      [
        "one ",
        "of the "
      ],
      [
        "s",
        "ou"
      ],
      [
        "al",
        " , "
      ],
      [
        "s , ",
        "the "
      ],
      [
        "ma",
        "j"
      ],
      [
        "si",
        "on"
      ],
      [
        "F",
        "or"
      ],
      [
        "D",
        "ec"
      ],
      [
        "s ",
        "were "
      ],
      [
        "peo",
        "ple "
      ],
      [
        "oug",
        "h"
      ],
      [
        "ur",
        "e "
      ],
      [
        "s",
        "om"
      ],
      [
        "un",
        "der"
      ],
      [
        "e",
        "o "
      ],
      [
        "cont",
        "ro"
      ],
      [
        "g",
        "iv"
      ],
      [
        "th",
        "ern "
      ],
      [
        "for ",
        "a "
      ],
      [
        "P",
        "ro"
      ],
      [
        "S",
        "p"
      ],
      [
        "l",
        "ed "
      ],
      [
        "b",
        "and "
      ],
      [
        "d",
        "u"
      ],
      [
        "C",
        "an"
      ],
      [
        "a",
        "f"
      ],
      [
        "d",
        "ra"
      ],
      [
        "6",
        " , "
      ],
      [
        "re",
        "sp"
      ],
      [
        "compl",
        "et"
      ],
      [
        "es ",
        "in "
      ],
      [
        "dur",
        "ing "
      ],
      [
        "oun",
        "c"
      ],
      [
        "Ju",
        "ly "
      ],
      [
        "m",
        "en "
      ],
      [
        "aw",
        " "
      ],
      [
        "United St",
        "ates "
      ],
      [
        "h",
        "al"
      ],
      [
        "Nov",
        "ember "
      ],
      [
        "con",
        "sid"
      ],
      [
        "c",
        "aus"
      ],
      [
        "par",
        "tic"
      ],
      [
        "d",
        "et"
      ],
      [
        "Austr",
        "al"
      ],
      [
        "is",
        "m "
      ],
      [
        "v",
        "ari"
      ],
      [
        "h",
        "igh "
      ],
      [
        "g",
        "ra"
      ],
      [
        "ex",
        "t "
      ],
      [
        "f",
        "ul"
      ],
      [
        ". ",
        "C"
      ],
      [
        "a",
        "h"
      ],
      [
        ". A",
        "l"
      ],
      [
        "1",
        "2 "
      ],
      [
        "se",
        "qu"
      ],
      [
        "s",
        "ince "
      ],
      [
        "b",
        "i"
      ],
      [
        "r",
        "ed "
      ],
      [
        "u",
        "ary "
      ],
      [
        ". Th",
        "ey "
      ],
      [
        "r",
        "un"
      ],
      [
        "ar",
        "ly "
      ],
      [
        "se",
        "t "
      ],
      [
        " ",
        "'s "
      ],
      [
        "op",
        "en"
      ],
      [
        "o",
        "s "
      ],
      [
        "A",
        "pr"
      ],
      [
        "d",
        "am"
      ],
      [
        "s",
        "on"
      ],
      [
        "G",
        "u"
      ],
      [
        "did ",
        "not "
      ],
      [
        "a ",
        "'s "
      ],
      [
        "ish",
        "ed "
      ],
      [
        "L",
        "i"
      ],
      [
        "\" ",
        "and "
      ],
      [
        ". ",
        "N"
      ],
      [
        "c",
        "oll"
      ],
      [
        "c",
        "ul"
      ],
      [
        "pro",
        "vid"
      ],
      [
        "in",
        "cre"
      ],
      [
        "ar",
        "ea "
      ],
      [
        ". In ",
        "the "
      ],
      [
        "1",
        "5 "
      ],
      [
        "et",
        "s "
      ],
      [
        "lar",
        "g"
      ],
      [
        "G",
        "e"
      ],
      [
        "an",
        "e "
      ],
      [
        "P",
        "h"
      ],
      [
        "ev",
        "en "
      ],
      [
        "me",
        "di"
      ],
      [
        "er ",
        "and "
      ],
      [
        ". \" ",
        "\n"
      ],
      [
        "t",
        "re"
      ],
      [
        "P",
        "l"
      ],
      [
        "ir",
        "e "
      ],
      [
        "ou",
        "se "
      ],
      [
        "s",
        "cho"
      ],
      [
        "to ",
        "a "
      ],
      [
        "o ",
        ", "
      ],
      [
        "E",
        "u"
      ],
      [
        "us",
        "ed "
      ],
      [
        "w",
        "ill "
      ],
      [
        "u",
        "di"
      ],
      [
        "b",
        "as"
      ],
      [
        "wh",
        "at "
      ],
      [
        " ",
        "F"
      ],
      [
        "di",
        "tion "
      ],
      [
        "is",
        "e "
      ],
      [
        "In",
        "di"
      ],
      [
        "d",
        "em"
      ],
      [
        "le",
        "ft "
      ],
      [
        "i",
        "f "
      ],
      [
        "d",
        "ue "
      ],
      [
        "diff",
        "er"
      ],
      [
        "n",
        "ow "
      ],
      [
        "ch",
        "il"
      ],
      [
        "ic",
        "k "
      ],
      [
        "has ",
        "been "
      ],
      [
        "f",
        "un"
      ],
      [
        "c",
        "as"
      ],
      [
        "es ",
        "the "
      ],
      [
        "u",
        "g"
      ],
      [
        "rele",
        "ased "
      ],
      [
        "d",
        "ea"
      ],
      [
        ".",
        "."
      ],
      [
        "in",
        "st"
      ],
      [
        "ex",
        "pl"
      ],
      [
        "h",
        "er"
      ],
      [
        "og",
        "ra"
      ],
      [
        "Dec",
        "ember "
      ],
      [
        "an",
        "other "
      ],
      [
        "Jan",
        "uary "
      ],
      [
        "G",
        "r"
      ],
      [
        "li",
        "m"
      ],
      [
        "au",
        "g"
      ],
      [
        "m",
        "uch "
      ],
      [
        "sh",
        "ow "
      ],
      [
        "Jun",
        "e "
      ],
      [
        "lar",
        "ge "
      ],
      [
        "su",
        "m"
      ],
      [
        "Ch",
        "ar"
      ],
      [
        "cl",
        "a"
      ],
      [
        "w",
        "ro"
      ],
[...]
