{
  "version": "1.0",
  "truncation": null,
  "padding": null,
  "added_tokens": [
    {
      "id": 0,
      "content": "[UNK]",
      "single_word": false,
      "lstrip": false,
      "rstrip": false,
      "normalized": false,
      "special": true
    },
    {
      "id": 1,
      "content": "[CLS]",
      "single_word": false,
      "lstrip": false,
      "rstrip": false,
      "normalized": false,
      "special": true
    },
    {
      "id": 2,
      "content": "[SEP]",
      "single_word": false,
      "lstrip": false,
      "rstrip": false,
      "normalized": false,
      "special": true
    },
    {
      "id": 3,
      "content": "[PAD]",
      "single_word": false,
      "lstrip": false,
      "rstrip": false,
      "normalized": false,
      "special": true
    },
    {
      "id": 4,
      "content": "[MASK]",
      "single_word": false,
      "lstrip": false,
      "rstrip": false,
      "normalized": false,
      "special": true
    }
  ],
  "normalizer": null,
  "pre_tokenizer": null,
  "post_processor": null,
  "decoder": null,
  "model": {
    "type": "BPE",
    "dropout": null,
    "unk_token": null,
    "continuing_subword_prefix": null,
    "end_of_word_suffix": null,
    "fuse_unk": false,
    "byte_fallback": false,
    "ignore_merges": false,
    "vocab": {
      "[UNK]": 0,
      "[CLS]": 1,
      "[SEP]": 2,
      "[PAD]": 3,
      "[MASK]": 4,
      "\n": 5,
      " ": 6,
      "!": 7,
      "\"": 8,
      "#": 9,
      "$": 10,
      "%": 11,
      "&": 12,
      "'": 13,
      "(": 14,
      ")": 15,
      "*": 16,
      "+": 17,
      ",": 18,
      "-": 19,
      ".": 20,
      "/": 21,
      "0": 22,
      "1": 23,
      "2": 24,
      "3": 25,
      "4": 26,
      "5": 27,
      "6": 28,
      "7": 29,
      "8": 30,
      "9": 31,
      ":": 32,
      ";": 33,
      "<": 34,
      "=": 35,
      ">": 36,
      "?": 37,
      "@": 38,
      "A": 39,
      "B": 40,
      "C": 41,
      "D": 42,
      "E": 43,
      "F": 44,
      "G": 45,
      "H": 46,
      "I": 47,
      "J": 48,
      "K": 49,
      "L": 50,
      "M": 51,
      "N": 52,
      "O": 53,
      "P": 54,
      "Q": 55,
      "R": 56,
      "S": 57,
      "T": 58,
      "U": 59,
      "V": 60,
      "W": 61,
      "X": 62,
      "Y": 63,
      "Z": 64,
      "[": 65,
      "\\": 66,
      "]": 67,
      "^": 68,
      "_": 69,
      "`": 70,
      "a": 71,
      "b": 72,
      "c": 73,
      "d": 74,
      "e": 75,
      "f": 76,
      "g": 77,
      "h": 78,
      "i": 79,
      "j": 80,
      "k": 81,
      "l": 82,
      "m": 83,
      "n": 84,
      "o": 85,
      "p": 86,
      "q": 87,
      "r": 88,
      "s": 89,
      "t": 90,
      "u": 91,
      "v": 92,
      "w": 93,
      "x": 94,
      "y": 95,
      "z": 96,
      "{": 97,
      "|": 98,
      "}": 99,
      "~": 100,
      "": 101,
      "": 102,
      "": 103,
      "": 104,
      "": 105,
      "": 106,
      "¡": 107,
      "¢": 108,
      "£": 109,
      "¤": 110,
      "¥": 111,
      "§": 112,
      "©": 113,
      "«": 114,
      "­": 115,
      "®": 116,
      "¯": 117,
      "°": 118,
      "±": 119,
      "²": 120,
      "³": 121,
      "´": 122,
      "µ": 123,
      "¶": 124,
      "·": 125,
      "¹": 126,
      "º": 127,
      "»": 128,
      "¼": 129,
      "½": 130,
      "¾": 131,
      "¿": 132,
      "À": 133,
      "Á": 134,
      "Â": 135,
      "Ä": 136,
      "Å": 137,
      "Æ": 138,
      "Ç": 139,
      "È": 140,
      "É": 141,
      "Ê": 142,
      "Ë": 143,
      "Ì": 144,
      "Í": 145,
      "Î": 146,
      "Ï": 147,
      "Ð": 148,
      "Ñ": 149,
      "Ò": 150,
      "Ó": 151,
      "Ô": 152,
      "Õ": 153,
      "Ö": 154,
      "×": 155,
      "Ø": 156,
      "Ù": 157,
      "Ú": 158,
      "Ü": 159,
      "Ý": 160,
      "Þ": 161,
      "ß": 162,
      "à": 163,
      "á": 164,
      "â": 165,
      "ã": 166,
      "ä": 167,
      "å": 168,
      "æ": 169,
      "ç": 170,
      "è": 171,
      "é": 172,
      "ê": 173,
      "ë": 174,
      "ì": 175,
      "í": 176,
      "î": 177,
      "ï": 178,
      "ð": 179,
      "ñ": 180,
      "ò": 181,
      "ó": 182,
      "ô": 183,
      "õ": 184,
      "ö": 185,
      "÷": 186,
      "ø": 187,
      "ù": 188,
      "ú": 189,
      "û": 190,
      "ü": 191,
      "ý": 192,
      "þ": 193,
      "ÿ": 194,
      "Ā": 195,
      "ā": 196,
      "Ă": 197,
      "ă": 198,
      "ą": 199,
      "Ć": 200,
      "ć": 201,
      "ĉ": 202,
      "Ċ": 203,
      "ċ": 204,
      "Č": 205,
      "č": 206,
      "Ď": 207,
      "ď": 208,
      "Đ": 209,
      "đ": 210,
      "Ē": 211,
      "ē": 212,
      "Ĕ": 213,
      "ĕ": 214,
      "Ė": 215,
      "ė": 216,
      "ę": 217,
      "Ě": 218,
      "ě": 219,
      "ğ": 220,
      "Ġ": 221,
      "ġ": 222,
      "Ģ": 223,
      "ģ": 224,
      "Ĥ": 225,
      "Ħ": 226,
      "ħ": 227,
      "ĩ": 228,
      "Ī": 229,
      "ī": 230,
      "ĭ": 231,
      "į": 232,
      "İ": 233,
      "ı": 234,
      "ĵ": 235,
      "Ķ": 236,
      "ķ": 237,
      "ĸ": 238,
      "ĺ": 239,
      "ļ": 240,
      "Ľ": 241,
      "ľ": 242,
      "Ł": 243,
      "ł": 244,
      "ń": 245,
      "ņ": 246,
      "ň": 247,
      "Ŋ": 248,
      "ŋ": 249,
      "Ō": 250,
      "ō": 251,
      "ŏ": 252,
      "ő": 253,
      "Œ": 254,
      "œ": 255,
      "Ŗ": 256,
      "ŗ": 257,
      "Ř": 258,
      "ř": 259,
      "Ś": 260,
      "ś": 261,
      "Ŝ": 262,
      "Ş": 263,
      "ş": 264,
      "Š": 265,
      "š": 266,
      "Ţ": 267,
      "ţ": 268,
      "ť": 269,
      "ŧ": 270,
      "ũ": 271,
      "Ū": 272,
      "ū": 273,
      "ŭ": 274,
      "ů": 275,
      "ű": 276,
      "ų": 277,
      "ŵ": 278,
      "ŷ": 279,
      "Ź": 280,
      "ź": 281,
      "Ż": 282,
      "ż": 283,
      "Ž": 284,
      "ž": 285,
      "ſ": 286,
      "ƀ": 287,
      "Ɔ": 288,
      "Ƈ": 289,
      "ƈ": 290,
      "Ɖ": 291,
      "ƍ": 292,
      "Ǝ": 293,
      "Ə": 294,
      "Ɛ": 295,
      "ƒ": 296,
      "Ɣ": 297,
      "ƙ": 298,
      "ƛ": 299,
      "ơ": 300,
      "Ƣ": 301,
      "ƥ": 302,
      "ƭ": 303,
      "ư": 304,
      "Ʋ": 305,
      "ƿ": 306,
      "ǀ": 307,
      "ǁ": 308,
      "ǂ": 309,
      "ǃ": 310,
      "ǎ": 311,
      "ǐ": 312,
      "Ǒ": 313,
      "ǒ": 314,
      "ǔ": 315,
      "ǚ": 316,
      "ǜ": 317,
      "ǝ": 318,
      "Ǣ": 319,
      "ǣ": 320,
      "Ǧ": 321,
      "ǧ": 322,
      "Ǫ": 323,
      "ǫ": 324,
      "ǭ": 325,
      "ǰ": 326,
      "ǵ": 327,
      "Ƿ": 328,
      "Ǹ": 329,
      "ǹ": 330,
      "ǽ": 331,
      "Ș": 332,
      "ș": 333,
      "Ț": 334,
      "ț": 335,
      "Ȝ": 336,
      "ȝ": 337,
      "ȟ": 338,
      "ȯ": 339,
      "ȳ": 340,
      "ȷ": 341,
      "Ɉ": 342,
      "ɐ": 343,
      "ɑ": 344,
      "ɒ": 345,
      "ɓ": 346,
      "ɔ": 347,
      "ɕ": 348,
      "ɖ": 349,
      "ɗ": 350,
      "ɘ": 351,
      "ə": 352,
      "ɚ": 353,
      "ɛ": 354,
      "ɜ": 355,
      "ɞ": 356,
      "ɟ": 357,
      "ɠ": 358,
      "ɡ": 359,
      "ɢ": 360,
      "ɣ": 361,
      "ɤ": 362,
      "ɥ": 363,
      "ɦ": 364,
      "ɧ": 365,
      "ɨ": 366,
      "ɪ": 367,
      "ɫ": 368,
      "ɬ": 369,
      "ɭ": 370,
      "ɮ": 371,
      "ɯ": 372,
      "ɰ": 373,
      "ɱ": 374,
      "ɲ": 375,
      "ɳ": 376,
      "ɴ": 377,
      "ɵ": 378,
      "ɶ": 379,
      "ɷ": 380,
      "ɸ": 381,
      "ɹ": 382,
      "ɺ": 383,
      "ɻ": 384,
      "ɽ": 385,
      "ɾ": 386,
      "ʀ": 387,
      "ʁ": 388,
      "ʂ": 389,
      "ʃ": 390,
      "ʄ": 391,
      "ʇ": 392,
      "ʈ": 393,
      "ʉ": 394,
      "ʊ": 395,
      "ʋ": 396,
      "ʌ": 397,
      "ʍ": 398,
      "ʎ": 399,
      "ʏ": 400,
      "ʐ": 401,
      "ʑ": 402,
      "ʒ": 403,
      "ʔ": 404,
      "ʕ": 405,
      "ʖ": 406,
      "ʗ": 407,
      "ʘ": 408,
      "ʙ": 409,
      "ʛ": 410,
      "ʝ": 411,
      "ʟ": 412,
      "ʠ": 413,
      "ʡ": 414,
      "ʰ": 415,
      "ʱ": 416,
      "ʲ": 417,
      "ʳ": 418,
      "ʷ": 419,
      "ʹ": 420,
      "ʻ": 421,
      "ʼ": 422,
      "ʽ": 423,
      "ʾ": 424,
      "ʿ": 425,
      "ˀ": 426,
      "ˁ": 427,
      "ˆ": 428,
      "ˇ": 429,
      "ˈ": 430,
      "ˌ": 431,
      "ː": 432,
      "ˑ": 433,
      "˔": 434,
      "˕": 435,
      "˘": 436,
      "˚": 437,
      "˜": 438,
      "ˠ": 439,
      "ˢ": 440,
      "ˣ": 441,
      "ˤ": 442,
      "˥": 443,
      "˦": 444,
      "˧": 445,
      "˨": 446,
      "˩": 447,
      "̀": 448,
      "́": 449,
      "̂": 450,
      "̃": 451,
      "̄": 452,
      "̆": 453,
      "̇": 454,
      "̈": 455,
      "̊": 456,
      "̋": 457,
      "̌": 458,
      "̍": 459,
      "̏": 460,
      "̑": 461,
      "̖": 462,
      "̗": 463,
      "̚": 464,
      "̝": 465,
      "̞": 466,
      "̟": 467,
      "̠": 468,
      "̣": 469,
      "̤": 470,
      "̥": 471,
      "̧": 472,
      "̩": 473,
      "̪": 474,
      "̬": 475,
      "̮": 476,
      "̯": 477,
      "̰": 478,
      "̱": 479,
      "̲": 480,
      "̳": 481,
      "̺": 482,
      "̽": 483,
      "͍": 484,
      "͘": 485,
      "͜": 486,
      "͡": 487,
      "΄": 488,
      "Ά": 489,
      "Έ": 490,
      "Ή": 491,
      "Ί": 492,
      "Ό": 493,
      "Ύ": 494,
      "ΐ": 495,
      "Α": 496,
      "Β": 497,
      "Γ": 498,
      "Δ": 499,
      "Ε": 500,
      "Ζ": 501,
      "Η": 502,
      "Θ": 503,
      "Ι": 504,
      "Κ": 505,
      "Λ": 506,
      "Μ": 507,
      "Ν": 508,
      "Ξ": 509,
      "Ο": 510,
      "Π": 511,
      "Ρ": 512,
      "Σ": 513,
      "Τ": 514,
      "Υ": 515,
      "Φ": 516,
      "Χ": 517,
      "Ψ": 518,
      "Ω": 519,
      "ά": 520,
      "έ": 521,
      "ή": 522,
      "ί": 523,
      "α": 524,
      "β": 525,
      "γ": 526,
      "δ": 527,
      "ε": 528,
      "ζ": 529,
      "η": 530,
      "θ": 531,
      "ι": 532,
      "κ": 533,
      "λ": 534,
      "μ": 535,
      "ν": 536,
      "ξ": 537,
      "ο": 538,
      "π": 539,
      "ρ": 540,
      "ς": 541,
      "σ": 542,
      "τ": 543,
      "υ": 544,
      "φ": 545,
      "χ": 546,
      "ψ": 547,
      "ω": 548,
      "ϊ": 549,
      "ό": 550,
      "ύ": 551,
      "ώ": 552,
      "ϑ": 553,
      "ϕ": 554,
      "ϝ": 555,
      "ϟ": 556,
      "ϵ": 557,
      "Ђ": 558,
      "Є": 559,
      "І": 560,
      "Ї": 561,
      "Ј": 562,
      "Љ": 563,
      "Ћ": 564,
      "А": 565,
      "Б": 566,
      "В": 567,
      "Г": 568,
      "Д": 569,
      "Е": 570,
      "Ж": 571,
      "З": 572,
      "И": 573,
      "Й": 574,
      "К": 575,
      "Л": 576,
      "М": 577,
      "Н": 578,
      "О": 579,
      "П": 580,
      "Р": 581,
      "С": 582,
      "Т": 583,
      "У": 584,
      "Ф": 585,
      "Х": 586,
      "Ц": 587,
      "Ч": 588,
      "Ш": 589,
      "Щ": 590,
      "Ъ": 591,
      "Ы": 592,
      "Ь": 593,
      "Э": 594,
      "Ю": 595,
      "Я": 596,
      "а": 597,
      "б": 598,
      "в": 599,
      "г": 600,
      "д": 601,
      "е": 602,
      "ж": 603,
      "з": 604,
      "и": 605,
      "й": 606,
      "к": 607,
      "л": 608,
      "м": 609,
      "н": 610,
      "о": 611,
      "п": 612,
      "р": 613,
      "с": 614,
      "т": 615,
      "у": 616,
      "ф": 617,
      "х": 618,
      "ц": 619,
      "ч": 620,
      "ш": 621,
      "щ": 622,
      "ъ": 623,
      "ы": 624,
      "ь": 625,
      "э": 626,
      "ю": 627,
      "я": 628,
      "ё": 629,
      "ђ": 630,
      "є": 631,
      "і": 632,
      "ї": 633,
      "ј": 634,
      "љ": 635,
      "њ": 636,
      "ћ": 637,
      "ѝ": 638,
      "ў": 639,
      "Ѡ": 640,
      "ѡ": 641,
      "Ѣ": 642,
      "ѣ": 643,
      "ѥ": 644,
      "ѧ": 645,
      "Ѯ": 646,
      "ѹ": 647,
      "҆": 648,
      "ғ": 649,
      "қ": 650,
      "ү": 651,
      "ҳ": 652,
      "ҷ": 653,
      "ӣ": 654,
      "Ө": 655,
      "ө": 656,
      "ӯ": 657,
      "Ա": 658,
      "Բ": 659,
      "Գ": 660,
      "Դ": 661,
      "Ե": 662,
      "Զ": 663,
      "Է": 664,
      "Ը": 665,
      "Թ": 666,
      "Ժ": 667,
      "Ի": 668,
      "Լ": 669,
      "Խ": 670,
      "Կ": 671,
      "Հ": 672,
      "Ձ": 673,
      "Ղ": 674,
      "Ճ": 675,
      "Մ": 676,
      "Յ": 677,
      "Ն": 678,
      "Շ": 679,
      "Ո": 680,
      "Պ": 681,
      "Ջ": 682,
      "Ս": 683,
      "Վ": 684,
      "Տ": 685,
      "Ք": 686,
      "Օ": 687,
      "ա": 688,
      "բ": 689,
      "գ": 690,
      "դ": 691,
      "ե": 692,
      "զ": 693,
      "է": 694,
      "ը": 695,
      "թ": 696,
      "ժ": 697,
      "ի": 698,
      "լ": 699,
      "խ": 700,
      "ծ": 701,
      "կ": 702,
      "հ": 703,
      "ձ": 704,
      "ղ": 705,
      "ճ": 706,
      "մ": 707,
      "յ": 708,
      "ն": 709,
      "շ": 710,
      "ո": 711,
      "չ": 712,
      "պ": 713,
      "ջ": 714,
      "ռ": 715,
      "ս": 716,
      "վ": 717,
      "տ": 718,
      "ր": 719,
      "ց": 720,
      "ւ": 721,
      "փ": 722,
      "ք": 723,
      "օ": 724,
      "և": 725,
      "֤": 726,
      "֫": 727,
      "ְ": 728,
      "ֱ": 729,
      "ֲ": 730,
      "ֳ": 731,
      "ִ": 732,
      "ֵ": 733,
      "ֶ": 734,
      "ַ": 735,
      "ָ": 736,
      "ֹ": 737,
      "ֻ": 738,
      "ּ": 739,
      "ֽ": 740,
      "ֿ": 741,
      "ׁ": 742,
      "ׂ": 743,
      "א": 744,
      "ב": 745,
      "ג": 746,
      "ד": 747,
      "ה": 748,
      "ו": 749,
      "ז": 750,
      "ח": 751,
      "ט": 752,
      "י": 753,
      "ך": 754,
      "כ": 755,
      "ל": 756,
      "ם": 757,
      "מ": 758,
      "ן": 759,
      "נ": 760,
      "ס": 761,
      "ע": 762,
      "ף": 763,
      "פ": 764,
      "ץ": 765,
      "צ": 766,
      "ק": 767,
      "ר": 768,
      "ש": 769,
      "ת": 770,
      "ױ": 771,
      "׳": 772,
      "،": 773,
      "ء": 774,
      "آ": 775,
      "أ": 776,
      "ؤ": 777,
      "إ": 778,
      "ئ": 779,
      "ا": 780,
      "ب": 781,
      "ة": 782,
      "ت": 783,
      "ث": 784,
      "ج": 785,
      "ح": 786,
      "خ": 787,
      "د": 788,
      "ذ": 789,
      "ر": 790,
      "ز": 791,
      "س": 792,
      "ش": 793,
      "ص": 794,
      "ض": 795,
      "ط": 796,
      "ظ": 797,
      "ع": 798,
      "غ": 799,
      "ـ": 800,
      "ف": 801,
      "ق": 802,
      "ك": 803,
      "ل": 804,
      "م": 805,
      "ن": 806,
      "ه": 807,
      "و": 808,
      "ى": 809,
      "ي": 810,
      "ً": 811,
      "ٍ": 812,
      "َ": 813,
      "ُ": 814,
      "ِ": 815,
      "ّ": 816,
      "ْ": 817,
      "ٔ": 818,
      "١": 819,
      "٧": 820,
      "ٰ": 821,
      "پ": 822,
      "چ": 823,
      "ڈ": 824,
      "ڠ": 825,
      "ک": 826,
      "ڬ": 827,
      "گ": 828,
      "ں": 829,
      "ھ": 830,
      "ہ": 831,
      "ی": 832,
      "ۍ": 833,
      "ے": 834,
      "ە": 835,
      "ܐ": 836,
      "ܒ": 837,
      "ܔ": 838,
      "ܕ": 839,
      "ܗ": 840,
      "ܘ": 841,
      "ܙ": 842,
      "ܚ": 843,
      "ܛ": 844,
      "ܝ": 845,
      "ܠ": 846,
      "ܡ": 847,
      "ܢ": 848,
      "ܣ": 849,
      "ܥ": 850,
      "ܦ": 851,
      "ܪ": 852,
      "ܬ": 853,
      "ܲ": 854,
      "ܵ": 855,
      "ܼ": 856,
      "݂": 857,
      "ँ": 858,
      "ं": 859,
      "ः": 860,
      "अ": 861,
      "आ": 862,
      "इ": 863,
      "ई": 864,
      "उ": 865,
      "ए": 866,
      "ऐ": 867,
      "औ": 868,
      "क": 869,
      "ख": 870,
      "ग": 871,
      "घ": 872,
      "ङ": 873,
      "च": 874,
      "छ": 875,
      "ज": 876,
      "ञ": 877,
      "ट": 878,
      "ठ": 879,
      "ड": 880,
      "ण": 881,
      "त": 882,
      "थ": 883,
      "द": 884,
      "ध": 885,
      "न": 886,
      "प": 887,
      "फ": 888,
      "ब": 889,
      "भ": 890,
      "म": 891,
      "य": 892,
      "र": 893,
      "ल": 894,
      "व": 895,
      "श": 896,
      "ष": 897,
      "स": 898,
      "ह": 899,
      "़": 900,
      "ा": 901,
      "ि": 902,
      "ी": 903,
      "ु": 904,
      "ू": 905,
      "ृ": 906,
      "ॆ": 907,
      "े": 908,
      "ै": 909,
      "ॉ": 910,
      "ॊ": 911,
      "ो": 912,
      "ौ": 913,
      "्": 914,
      "।": 915,
      "॥": 916,
      "ং": 917,
      "অ": 918,
      "আ": 919,
      "ই": 920,
      "এ": 921,
      "ক": 922,
      "খ": 923,
      "গ": 924,
      "ঙ": 925,
      "চ": 926,
      "জ": 927,
      "ট": 928,
      "ড": 929,
      "ঢ": 930,
      "ণ": 931,
      "ত": 932,
      "থ": 933,
      "দ": 934,
      "ন": 935,
      "প": 936,
      "ব": 937,
      "ভ": 938,
      "ম": 939,
      "য": 940,
      "র": 941,
      "ল": 942,
      "শ": 943,
      "ষ": 944,
      "স": 945,
      "হ": 946,
      "়": 947,
      "া": 948,
      "ি": 949,
      "ী": 950,
      "ু": 951,
      "ূ": 952,
      "ে": 953,
      "ৈ": 954,
      "ো": 955,
      "্": 956,
      "ৰ": 957,
      "ਂ": 958,
      "ਅ": 959,
      "ਉ": 960,
      "ਖ": 961,
      "ਘ": 962,
      "ਜ": 963,
      "ਝ": 964,
      "ਦ": 965,
      "ਲ": 966,
      "ਵ": 967,
      "ਸ": 968,
      "ਹ": 969,
      "਼": 970,
      "ਾ": 971,
      "ਿ": 972,
      "ੁ": 973,
      "ੇ": 974,
      "ੰ": 975,
      "ੱ": 976,
      "ખ": 977,
      "ફ": 978,
      "બ": 979,
      "ર": 980,
      "લ": 981,
      "સ": 982,
      "ા": 983,
      "ો": 984,
      "ପ": 985,
      "ର": 986,
      "ୀ": 987,
      "ୁ": 988,
      "ஃ": 989,
      "அ": 990,
      "ஆ": 991,
      "இ": 992,
      "ஈ": 993,
      "எ": 994,
      "ஒ": 995,
      "க": 996,
      "ங": 997,
      "ச": 998,
      "ட": 999,
      "ண": 1000,
      "த": 1001,
      "ந": 1002,
      "ன": 1003,
      "ப": 1004,
      "ம": 1005,
      "ய": 1006,
      "ர": 1007,
      "ற": 1008,
      "ல": 1009,
      "ள": 1010,
      "ழ": 1011,
      "வ": 1012,
      "ஸ": 1013,
      "ா": 1014,
      "ி": 1015,
      "ீ": 1016,
      "ு": 1017,
      "ூ": 1018,
      "ெ": 1019,
      "ே": 1020,
      "ை": 1021,
      "ோ": 1022,
      "்": 1023,
      "ం": 1024,
      "ఖ": 1025,
      "గ": 1026,
      "జ": 1027,
      "ట": 1028,
      "ఠ": 1029,
      "డ": 1030,
      "ద": 1031,
      "న": 1032,
      "ప": 1033,
      "బ": 1034,
      "భ": 1035,
      "మ": 1036,
      "ర": 1037,
      "ల": 1038,
      "వ": 1039,
      "ష": 1040,
      "స": 1041,
      "ా": 1042,
      "ి": 1043,
      "ీ": 1044,
      "ు": 1045,
      "ో": 1046,
      "్": 1047,
      "ಂ": 1048,
      "ಃ": 1049,
      "ಕ": 1050,
      "ಖ": 1051,
      "ಗ": 1052,
      "ಚ": 1053,
      "ಟ": 1054,
      "ಠ": 1055,
      "ಡ": 1056,
      "ತ": 1057,
      "ದ": 1058,
      "ನ": 1059,
      "ಪ": 1060,
      "ಬ": 1061,
      "ಭ": 1062,
      "ಮ": 1063,
      "ಯ": 1064,
      "ರ": 1065,
      "ಱ": 1066,
      "ಲ": 1067,
      "ಳ": 1068,
      "ವ": 1069,
      "ಶ": 1070,
      "ಸ": 1071,
      "ಹ": 1072,
      "ಾ": 1073,
      "ಿ": 1074,
      "ು": 1075,
      "ೇ": 1076,
      "ೋ": 1077,
      "್": 1078,
      "ೞ": 1079,
      "ങ": 1080,
      "ദ": 1081,
      "ന": 1082,
      "പ": 1083,
      "മ": 1084,
      "യ": 1085,
      "ര": 1086,
      "വ": 1087,
      "ശ": 1088,
      "സ": 1089,
      "ാ": 1090,
      "ി": 1091,
      "്": 1092,
      "අ": 1093,
      "එ": 1094,
      "ක": 1095,
      "ග": 1096,
      "ජ": 1097,
      "ත": 1098,
      "ධ": 1099,
      "න": 1100,
      "ප": 1101,
      "ම": 1102,
      "ය": 1103,
      "ර": 1104,
      "ල": 1105,
      "ව": 1106,
      "ශ": 1107,
      "හ": 1108,
      "ළ": 1109,
      "්": 1110,
      "ා": 1111,
      "ැ": 1112,
      "ි": 1113,
      "ු": 1114,
      "ේ": 1115,
      "ෝ": 1116,
      "ก": 1117,
      "ข": 1118,
      "ค": 1119,
      "ฆ": 1120,
      "ง": 1121,
      "จ": 1122,
      "ฉ": 1123,
      "ช": 1124,
      "ซ": 1125,
      "ญ": 1126,
      "ฎ": 1127,
      "ฏ": 1128,
      "ฐ": 1129,
      "ฑ": 1130,
      "ณ": 1131,
      "ด": 1132,
      "ต": 1133,
      "ถ": 1134,
      "ท": 1135,
      "ธ": 1136,
      "น": 1137,
      "บ": 1138,
      "ป": 1139,
      "ผ": 1140,
      "ฝ": 1141,
      "พ": 1142,
      "ฟ": 1143,
      "ภ": 1144,
      "ม": 1145,
      "ย": 1146,
      "ร": 1147,
      "ฤ": 1148,
      "ล": 1149,
      "ว": 1150,
      "ศ": 1151,
      "ษ": 1152,
      "ส": 1153,
      "ห": 1154,
      "ฬ": 1155,
      "อ": 1156,
      "ะ": 1157,
      "ั": 1158,
      "า": 1159,
      "ำ": 1160,
      "ิ": 1161,
      "ี": 1162,
      "ึ": 1163,
      "ื": 1164,
      "ุ": 1165,
      "ู": 1166,
      "฿": 1167,
      "เ": 1168,
      "แ": 1169,
      "โ": 1170,
      "ใ": 1171,
      "ไ": 1172,
      "็": 1173,
      "่": 1174,
      "้": 1175,
      "๊": 1176,
      "์": 1177,
      "་": 1178,
      "༌": 1179,
      "།": 1180,
      "ཀ": 1181,
      "ཁ": 1182,
      "ག": 1183,
      "ང": 1184,
      "ཆ": 1185,
      "ཇ": 1186,
      "ཐ": 1187,
      "ད": 1188,
      "ན": 1189,
      "པ": 1190,
      "བ": 1191,
      "མ": 1192,
      "ཙ": 1193,
      "ཚ": 1194,
      "ཛ": 1195,
      "འ": 1196,
      "ཡ": 1197,
      "ར": 1198,
      "ལ": 1199,
      "ས": 1200,
      "ཧ": 1201,
      "ི": 1202,
      "ུ": 1203,
      "ེ": 1204,
      "ོ": 1205,
      "ྟ": 1206,
      "ྡ": 1207,
      "ྣ": 1208,
      "ྤ": 1209,
      "ྥ": 1210,
      "ྱ": 1211,
      "ྲ": 1212,
      "က": 1213,
      "ဂ": 1214,
      "င": 1215,
      "စ": 1216,
      "န": 1217,
      "ပ": 1218,
      "ဗ": 1219,
      "ဘ": 1220,
      "မ": 1221,
      "ယ": 1222,
      "ရ": 1223,
      "လ": 1224,
      "ဝ": 1225,
      "ဟ": 1226,
      "ာ": 1227,
      "ိ": 1228,
      "ီ": 1229,
      "ု": 1230,
      "ူ": 1231,
      "ဲ": 1232,
      "း": 1233,
      "္": 1234,
      "်": 1235,
      "ျ": 1236,
      "ြ": 1237,
      "ှ": 1238,
      "Ⴈ": 1239,
      "Ⴕ": 1240,
      "Ⴟ": 1241,
      "ა": 1242,
      "ბ": 1243,
      "გ": 1244,
      "დ": 1245,
      "ე": 1246,
      "ვ": 1247,
      "ზ": 1248,
      "თ": 1249,
      "ი": 1250,
      "კ": 1251,
      "ლ": 1252,
      "მ": 1253,
      "ნ": 1254,
      "ო": 1255,
      "პ": 1256,
      "რ": 1257,
      "ს": 1258,
      "ტ": 1259,
      "უ": 1260,
      "ფ": 1261,
      "ქ": 1262,
      "ყ": 1263,
      "შ": 1264,
      "ც": 1265,
      "ძ": 1266,
      "წ": 1267,
      "ხ": 1268,
      "ჯ": 1269,
      "ჱ": 1270,
      "ჲ": 1271,
      "ჵ": 1272,
      "჻": 1273,
      "ሀ": 1274,
      "ለ": 1275,
      "ሐ": 1276,
      "ሓ": 1277,
      "ሕ": 1278,
      "መ": 1279,
      "ማ": 1280,
      "ሥ": 1281,
      "ረ": 1282,
      "ር": 1283,
      "ሰ": 1284,
      "ስ": 1285,
      "ቆ": 1286,
      "ቈ": 1287,
      "በ": 1288,
      "ብ": 1289,
      "ቲ": 1290,
      "ታ": 1291,
      "ት": 1292,
      "ነ": 1293,
      "ና": 1294,
      "ን": 1295,
      "ኖ": 1296,
      "አ": 1297,
      "ኢ": 1298,
      "እ": 1299,
      "ከ": 1300,
      "ኲ": 1301,
      "ዕ": 1302,
      "ዘ": 1303,
      "ዛ": 1304,
      "የ": 1305,
      "ያ": 1306,
      "ይ": 1307,
      "ዮ": 1308,
      "ደ": 1309,
      "ድ": 1310,
      "ጅ": 1311,
      "ገ": 1312,
      "ጉ": 1313,
      "ጵ": 1314,
      "ፈ": 1315,
      "ፍ": 1316,
      "፡": 1317,
      "Ꭰ": 1318,
      "Ꭳ": 1319,
      "Ꭶ": 1320,
      "Ꭸ": 1321,
      "Ꭹ": 1322,
      "Ꮀ": 1323,
      "Ꮃ": 1324,
      "Ꮉ": 1325,
      "Ꮝ": 1326,
      "Ꮿ": 1327,
      "Ᏹ": 1328,
      "ᐊ": 1329,
      "ᑲ": 1330,
      "ᒡ": 1331,
      "ᓘ": 1332,
      "ᚣ": 1333,
      "ᚦ": 1334,
      "ᚨ": 1335,
      "ᚩ": 1336,
      "ᚬ": 1337,
      "ᚱ": 1338,
      "ᚷ": 1339,
      "ᚹ": 1340,
      "ᚻ": 1341,
      "ᚼ": 1342,
      "ᚾ": 1343,
      "ᛁ": 1344,
      "ᛃ": 1345,
      "ᛄ": 1346,
      "ᛇ": 1347,
      "ᛋ": 1348,
      "ᛏ": 1349,
      "ᛒ": 1350,
      "ᛗ": 1351,
      "ᛚ": 1352,
      "ᛝ": 1353,
      "ᛞ": 1354,
      "ᛟ": 1355,
      "ᛠ": 1356,
      "ក": 1357,
      "ខ": 1358,
      "គ": 1359,
      "ង": 1360,
      "ច": 1361,
      "ឆ": 1362,
      "ជ": 1363,
      "ដ": 1364,
      "ឋ": 1365,
      "ណ": 1366,
      "ត": 1367,
      "ទ": 1368,
      "ធ": 1369,
      "ន": 1370,
      "ប": 1371,
      "ព": 1372,
      "ភ": 1373,
      "ម": 1374,
      "យ": 1375,
      "រ": 1376,
      "ល": 1377,
      "វ": 1378,
      "ស": 1379,
      "ហ": 1380,
      "អ": 1381,
      "ឥ": 1382,
      "ឪ": 1383,
      "ឫ": 1384,
      "ឯ": 1385,
      "឵": 1386,
      "ា": 1387,
      "ិ": 1388,
      "ី": 1389,
      "ឹ": 1390,
      "ឺ": 1391,
      "ុ": 1392,
      "ូ": 1393,
      "ួ": 1394,
      "ៀ": 1395,
      "េ": 1396,
      "ែ": 1397,
      "ៃ": 1398,
      "ោ": 1399,
      "ៅ": 1400,
      "ំ": 1401,
      "ះ": 1402,
      "ៈ": 1403,
      "៉": 1404,
      "់": 1405,
      "្": 1406,
      "ᠪ": 1407,
      "ᠰ": 1408,
      "ᡝ": 1409,
      "ᡥ": 1410,
      "ᡨ": 1411,
      "ᡳ": 1412,
      "ᴰ": 1413,
      "ᴷ": 1414,
      "ᴺ": 1415,
      "ᵀ": 1416,
      "ᵊ": 1417,
      "ᵑ": 1418,
      "ᵗ": 1419,
      "ᵘ": 1420,
      "ᵝ": 1421,
      "ᵻ": 1422,
      "ᵿ": 1423,
      "ᶢ": 1424,
      "ᶦ": 1425,
      "ᶴ": 1426,
      "ᶷ": 1427,
      "᷄": 1428,
      "᷅": 1429,
      "᷆": 1430,
      "᷇": 1431,
      "᷈": 1432,
      "᷉": 1433,
      "Ḍ": 1434,
      "ḍ": 1435,
      "Ḏ": 1436,
      "ḏ": 1437,
      "ḑ": 1438,
      "ḕ": 1439,
      "ḗ": 1440,
      "Ḣ": 1441,
      "Ḥ": 1442,
      "ḥ": 1443,
      "ḩ": 1444,
      "Ḫ": 1445,
      "ḫ": 1446,
      "ḭ": 1447,
      "ḱ": 1448,
      "Ḳ": 1449,
      "ḳ": 1450,
      "ḵ": 1451,
      "ḷ": 1452,
      "ḹ": 1453,
      "ḻ": 1454,
      "ḿ": 1455,
      "ṁ": 1456,
      "ṃ": 1457,
      "ṅ": 1458,
      "ṇ": 1459,
      "ṉ": 1460,
      "ṓ": 1461,
      "ṙ": 1462,
      "Ṛ": 1463,
      "ṛ": 1464,
      "Ṝ": 1465,
      "ṝ": 1466,
      "ṟ": 1467,
      "Ṣ": 1468,
      "ṣ": 1469,
      "Ṧ": 1470,
      "Ṫ": 1471,
      "Ṭ": 1472,
      "ṭ": 1473,
      "Ṯ": 1474,
      "ṯ": 1475,
      "ṳ": 1476,
      "ṵ": 1477,
      "Ṽ": 1478,
      "ṽ": 1479,
      "Ẓ": 1480,
      "ẓ": 1481,
      "ẖ": 1482,
      "ạ": 1483,
      "ả": 1484,
      "Ấ": 1485,
      "ấ": 1486,
      "ầ": 1487,
      "Ẩ": 1488,
      "ẩ": 1489,
      "ẫ": 1490,
      "ậ": 1491,
      "ắ": 1492,
      "ằ": 1493,
      "ẵ": 1494,
      "ặ": 1495,
      "ẹ": 1496,
      "ẻ": 1497,
      "ẽ": 1498,
      "ế": 1499,
      "ề": 1500,
      "ể": 1501,
      "ễ": 1502,
      "ệ": 1503,
      "ỉ": 1504,
      "ị": 1505,
      "Ọ": 1506,
      "ọ": 1507,
      "ỏ": 1508,
      "ố": 1509,
      "ồ": 1510,
      "ổ": 1511,
      "ỗ": 1512,
      "ộ": 1513,
      "ớ": 1514,
      "ờ": 1515,
      "ở": 1516,
      "ợ": 1517,
      "Ụ": 1518,
      "ụ": 1519,
      "ủ": 1520,
      "Ứ": 1521,
      "ứ": 1522,
      "ừ": 1523,
      "ử": 1524,
      "ữ": 1525,
      "ự": 1526,
      "ỳ": 1527,
      "ỵ": 1528,
      "ỹ": 1529,
      "ἀ": 1530,
      "ἁ": 1531,
      "ἃ": 1532,
      "ἄ": 1533,
      "ἅ": 1534,
      "Ἀ": 1535,
      "Ἁ": 1536,
      "Ἄ": 1537,
      "Ἅ": 1538,
      "ἐ": 1539,
      "ἑ": 1540,
      "ἒ": 1541,
      "ἔ": 1542,
      "ἕ": 1543,
      "Ἐ": 1544,
      "Ἑ": 1545,
      "Ἔ": 1546,
      "Ἕ": 1547,
      "ἠ": 1548,
      "ἡ": 1549,
      "ἤ": 1550,
      "ἥ": 1551,
      "ἦ": 1552,
      "ἧ": 1553,
      "Ἠ": 1554,
      "Ἡ": 1555,
      "ἰ": 1556,
      "ἱ": 1557,
      "ἲ": 1558,
      "ἳ": 1559,
      "ἴ": 1560,
      "ἵ": 1561,
      "ἶ": 1562,
      "ἷ": 1563,
      "Ἰ": 1564,
      "Ἱ": 1565,
      "Ἶ": 1566,
      "ὀ": 1567,
      "ὁ": 1568,
      "ὂ": 1569,
      "ὃ": 1570,
      "ὄ": 1571,
      "ὅ": 1572,
      "Ὁ": 1573,
      "Ὄ": 1574,
      "ὐ": 1575,
      "ὑ": 1576,
      "ὔ": 1577,
      "ὕ": 1578,
      "ὖ": 1579,
      "ὗ": 1580,
      "Ὕ": 1581,
      "ὡ": 1582,
      "ὣ": 1583,
      "ὤ": 1584,
      "ὥ": 1585,
      "ὦ": 1586,
      "Ὡ": 1587,
      "ὰ": 1588,
      "ὲ": 1589,
      "ὴ": 1590,
      "ὶ": 1591,
      "ὸ": 1592,
      "ὺ": 1593,
      "ὼ": 1594,
      "ᾓ": 1595,
      "ᾰ": 1596,
      "ᾳ": 1597,
      "ᾶ": 1598,
      "ᾷ": 1599,
      "᾿": 1600,
      "ῆ": 1601,
      "ῇ": 1602,
      "Ὲ": 1603,
      "ῐ": 1604,
      "ῑ": 1605,
      "ῖ": 1606,
      "Ὶ": 1607,
      "ῠ": 1608,
      "ῥ": 1609,
      "ῦ": 1610,
      "Ῥ": 1611,
      "ῳ": 1612,
      "ῶ": 1613,
      "ῷ": 1614,
      "​": 1615,
      "‌": 1616,
      "‍": 1617,
      "‐": 1618,
      "‑": 1619,
      "‒": 1620,
      "–": 1621,
      "—": 1622,
      "―": 1623,
      "‖": 1624,
      "‘": 1625,
      "’": 1626,
      "‚": 1627,
      "‛": 1628,
      "“": 1629,
      "”": 1630,
      "„": 1631,
      "‟": 1632,
      "†": 1633,
      "‡": 1634,
      "•": 1635,
      "…": 1636,
      "‰": 1637,
      "′": 1638,
      "″": 1639,
      "※": 1640,
      "‼": 1641,
      "‿": 1642,
      "⁄": 1643,
      "⁠": 1644,
      "⁰": 1645,
      "⁺": 1646,
      "ⁿ": 1647,
      "₁": 1648,
      "₂": 1649,
      "₃": 1650,
      "₄": 1651,
      "₡": 1652,
      "₣": 1653,
      "₤": 1654,
      "₦": 1655,
      "₧": 1656,
      "₨": 1657,
      "₩": 1658,
      "₫": 1659,
      "€": 1660,
      "₱": 1661,
      "₴": 1662,
      "₹": 1663,
      "ℂ": 1664,
      "℃": 1665,
      "ℓ": 1666,
      "№": 1667,
      "ℛ": 1668,
      "ℝ": 1669,
      "℞": 1670,
      "™": 1671,
      "ℤ": 1672,
      "℥": 1673,
      "ℵ": 1674,
      "⅓": 1675,
      "⅔": 1676,
      "⅙": 1677,
      "⅛": 1678,
      "⅜": 1679,
      "⅝": 1680,
      "⅞": 1681,
      "Ⅱ": 1682,
      "↑": 1683,
      "→": 1684,
      "↓": 1685,
      "↦": 1686,
      "↵": 1687,
      "⇌": 1688,
      "⇒": 1689,
      "⇪": 1690,
      "∀": 1691,
      "∂": 1692,
      "∆": 1693,
      "∇": 1694,
      "∈": 1695,
      "∉": 1696,
      "∑": 1697,
      "−": 1698,
      "∕": 1699,
      "∖": 1700,
      "∗": 1701,
      "∘": 1702,
      "√": 1703,
      "∝": 1704,
      "∞": 1705,
      "∤": 1706,
      "∩": 1707,
      "∪": 1708,
      "∴": 1709,
      "∼": 1710,
      "≈": 1711,
      "≠": 1712,
      "≡": 1713,
      "≢": 1714,
      "≤": 1715,
      "≥": 1716,
      "≪": 1717,
      "≲": 1718,
      "⊂": 1719,
      "⊕": 1720,
      "⊗": 1721,
      "⊙": 1722,
      "⊞": 1723,
      "⊢": 1724,
      "⊣": 1725,
      "⊥": 1726,
      "⋅": 1727,
      "⋆": 1728,
      "⋯": 1729,
      "⌘": 1730,
      "①": 1731,
      "②": 1732,
      "③": 1733,
      "④": 1734,
      "⑤": 1735,
      "⑥": 1736,
      "⑦": 1737,
      "⑧": 1738,
      "─": 1739,
      "▢": 1740,
      "▲": 1741,
      "▼": 1742,
      "○": 1743,
      "●": 1744,
      "★": 1745,
      "☆": 1746,
      "☉": 1747,
      "☧": 1748,
      "☭": 1749,
      "☽": 1750,
      "☾": 1751,
      "♀": 1752,
      "♂": 1753,
      "♄": 1754,
      "♅": 1755,
      "♆": 1756,
      "♇": 1757,
      "♈": 1758,
      "♉": 1759,
      "♠": 1760,
      "♣": 1761,
      "♥": 1762,
      "♦": 1763,
      "♩": 1764,
      "♪": 1765,
      "♭": 1766,
      "♮": 1767,
      "♯": 1768,
      "⚳": 1769,
      "⚵": 1770,
      "⛢": 1771,
      "✡": 1772,
      "✱": 1773,
      "❤": 1774,
      "⟦": 1775,
      "⟧": 1776,
      "⟨": 1777,
      "⟩": 1778,
      "⩽": 1779,
      "⫶": 1780,
      "ⱱ": 1781,
      "ⲁ": 1782,
      "ⲛ": 1783,
      "ⲥ": 1784,
      "ⲧ": 1785,
      "ⲩ": 1786,
      "Ⲫ": 1787,
      "ⲱ": 1788,
      "ⴰ": 1789,
      "ⴻ": 1790,
      "ⴽ": 1791,
      "ⵉ": 1792,
      "ⵎ": 1793,
      "ⵏ": 1794,
      "ⵓ": 1795,
      "ⵔ": 1796,
      "ⵖ": 1797,
      "ⵛ": 1798,
      "ⵜ": 1799,
      "ⵣ": 1800,
      "、": 1801,
      "。": 1802,
      "々": 1803,
      "〈": 1804,
      "〉": 1805,
      "《": 1806,
      "》": 1807,
      "「": 1808,
      "」": 1809,
      "『": 1810,
      "』": 1811,
      "【": 1812,
      "】": 1813,
      "〒": 1814,
      "〜": 1815,
      "あ": 1816,
      "ぃ": 1817,
      "い": 1818,
      "ぅ": 1819,
      "う": 1820,
      "ぇ": 1821,
      "え": 1822,
      "お": 1823,
      "か": 1824,
      "が": 1825,
      "き": 1826,
      "ぎ": 1827,
      "く": 1828,
      "ぐ": 1829,
      "け": 1830,
      "げ": 1831,
      "こ": 1832,
      "ご": 1833,
      "さ": 1834,
      "ざ": 1835,
      "し": 1836,
      "じ": 1837,
      "す": 1838,
      "ず": 1839,
      "せ": 1840,
      "ぜ": 1841,
      "そ": 1842,
      "ぞ": 1843,
      "た": 1844,
      "だ": 1845,
      "ち": 1846,
      "っ": 1847,
      "つ": 1848,
      "づ": 1849,
      "て": 1850,
      "で": 1851,
      "と": 1852,
      "ど": 1853,
      "な": 1854,
      "に": 1855,
      "ぬ": 1856,
      "ね": 1857,
      "の": 1858,
      "は": 1859,
      "ば": 1860,
      "ぱ": 1861,
      "ひ": 1862,
      "び": 1863,
      "ぴ": 1864,
      "ふ": 1865,
      "ぶ": 1866,
      "ぷ": 1867,
      "へ": 1868,
      "べ": 1869,
      "ぺ": 1870,
      "ほ": 1871,
      "ぼ": 1872,
      "ぽ": 1873,
      "ま": 1874,
      "み": 1875,
      "む": 1876,
      "め": 1877,
      "も": 1878,
      "ゃ": 1879,
      "や": 1880,
      "ゅ": 1881,
      "ゆ": 1882,
      "ょ": 1883,
      "よ": 1884,
      "ら": 1885,
      "り": 1886,
      "る": 1887,
      "れ": 1888,
      "ろ": 1889,
      "わ": 1890,
      "を": 1891,
      "ん": 1892,
      "ァ": 1893,
      "ア": 1894,
      "ィ": 1895,
      "イ": 1896,
      "ゥ": 1897,
      "ウ": 1898,
      "ェ": 1899,
      "エ": 1900,
      "ォ": 1901,
      "オ": 1902,
      "カ": 1903,
      "ガ": 1904,
      "キ": 1905,
      "ギ": 1906,
      "ク": 1907,
      "グ": 1908,
      "ケ": 1909,
      "ゲ": 1910,
      "コ": 1911,
      "ゴ": 1912,
      "サ": 1913,
      "ザ": 1914,
      "シ": 1915,
      "ジ": 1916,
      "ス": 1917,
      "ズ": 1918,
      "セ": 1919,
      "ゼ": 1920,
      "ソ": 1921,
      "ゾ": 1922,
      "タ": 1923,
      "ダ": 1924,
      "チ": 1925,
      "ヂ": 1926,
      "ッ": 1927,
      "ツ": 1928,
      "ヅ": 1929,
      "テ": 1930,
      "デ": 1931,
      "ト": 1932,
      "ド": 1933,
      "ナ": 1934,
      "ニ": 1935,
      "ヌ": 1936,
      "ネ": 1937,
      "ノ": 1938,
      "ハ": 1939,
      "バ": 1940,
      "パ": 1941,
      "ヒ": 1942,
      "ビ": 1943,
      "ピ": 1944,
      "フ": 1945,
      "ブ": 1946,
      "プ": 1947,
      "ヘ": 1948,
      "ベ": 1949,
      "ペ": 1950,
      "ホ": 1951,
      "ボ": 1952,
      "ポ": 1953,
      "マ": 1954,
      "ミ": 1955,
      "ム": 1956,
      "メ": 1957,
      "モ": 1958,
      "ャ": 1959,
      "ヤ": 1960,
      "ュ": 1961,
      "ユ": 1962,
      "ョ": 1963,
      "ヨ": 1964,
      "ラ": 1965,
      "リ": 1966,
      "ル": 1967,
      "レ": 1968,
      "ロ": 1969,
      "ワ": 1970,
      "ヲ": 1971,
      "ン": 1972,
      "ヴ": 1973,
      "ヶ": 1974,
      "・": 1975,
      "ー": 1976,
      "一": 1977,
      "丁": 1978,
      "七": 1979,
      "万": 1980,
      "丈": 1981,
      "三": 1982,
      "上": 1983,
      "下": 1984,
      "不": 1985,
      "与": 1986,
      "丑": 1987,
      "且": 1988,
      "世": 1989,
      "丘": 1990,
      "丙": 1991,
      "东": 1992,
      "丝": 1993,
      "丞": 1994,
      "両": 1995,
      "丨": 1996,
      "个": 1997,
      "中": 1998,
      "丶": 1999,
      "丸": 2000,
      "丹": 2001,
      "为": 2002,
      "主": 2003,
      "丽": 2004,
      "丿": 2005,
      "乃": 2006,
      "久": 2007,
      "义": 2008,
      "之": 2009,
      "乌": 2010,
      "乎": 2011,
      "乐": 2012,
      "乘": 2013,
      "乙": 2014,
      "乚": 2015,
      "乛": 2016,
      "九": 2017,
      "也": 2018,
      "习": 2019,
      "书": 2020,
      "乩": 2021,
      "买": 2022,
      "乱": 2023,
      "乳": 2024,
      "乾": 2025,
      "亀": 2026,
      "亅": 2027,
      "了": 2028,
      "争": 2029,
      "事": 2030,
      "二": 2031,
      "云": 2032,
      "五": 2033,
      "井": 2034,
      "亚": 2035,
      "些": 2036,
      "亜": 2037,
      "亞": 2038,
      "亡": 2039,
      "交": 2040,
      "亦": 2041,
      "亨": 2042,
      "京": 2043,
      "亮": 2044,
      "亰": 2045,
      "人": 2046,
      "仁": 2047,
      "仇": 2048,
      "今": 2049,
      "介": 2050,
      "仔": 2051,
      "仕": 2052,
      "他": 2053,
      "付": 2054,
      "仙": 2055,
      "代": 2056,
      "令": 2057,
      "以": 2058,
      "仪": 2059,
      "们": 2060,
      "仮": 2061,
      "仰": 2062,
      "仲": 2063,
      "件": 2064,
      "任": 2065,
      "伊": 2066,
      "伏": 2067,
      "伐": 2068,
      "休": 2069,
      "会": 2070,
      "伝": 2071,
      "伟": 2072,
      "伪": 2073,
      "伯": 2074,
      "伴": 2075,
      "伸": 2076,
      "似": 2077,
      "佃": 2078,
      "但": 2079,
      "位": 2080,
      "住": 2081,
      "佐": 2082,
      "体": 2083,
      "何": 2084,
      "余": 2085,
      "佛": 2086,
      "作": 2087,
      "你": 2088,
      "佳": 2089,
      "併": 2090,
      "使": 2091,
      "來": 2092,
      "例": 2093,
      "侍": 2094,
      "侗": 2095,
      "供": 2096,
      "依": 2097,
      "侠": 2098,
      "侨": 2099,
      "侬": 2100,
      "侯": 2101,
      "係": 2102,
      "促": 2103,
      "俄": 2104,
      "俊": 2105,
      "保": 2106,
      "信": 2107,
      "俭": 2108,
      "修": 2109,
      "俱": 2110,
      "俳": 2111,
      "倉": 2112,
      "個": 2113,
      "們": 2114,
      "候": 2115,
      "借": 2116,
      "倪": 2117,
      "倫": 2118,
      "倭": 2119,
      "偃": 2120,
      "假": 2121,
      "偏": 2122,
      "健": 2123,
      "側": 2124,
      "偵": 2125,
      "偽": 2126,
      "傀": 2127,
      "傅": 2128,
      "傑": 2129,
      "傘": 2130,
      "備": 2131,
      "催": 2132,
      "傭": 2133,
      "傳": 2134,
      "像": 2135,
      "僑": 2136,
      "僕": 2137,
      "儀": 2138,
      "億": 2139,
      "儒": 2140,
      "儚": 2141,
      "儡": 2142,
      "優": 2143,
      "儿": 2144,
      "允": 2145,
      "元": 2146,
      "充": 2147,
      "兆": 2148,
      "先": 2149,
      "光": 2150,
      "克": 2151,
      "免": 2152,
      "兒": 2153,
      "兔": 2154,
      "兜": 2155,
      "入": 2156,
      "內": 2157,
      "全": 2158,
      "兩": 2159,
      "八": 2160,
      "公": 2161,
      "六": 2162,
      "兰": 2163,
      "共": 2164,
      "关": 2165,
      "兵": 2166,
      "其": 2167,
      "具": 2168,
      "典": 2169,
      "养": 2170,
      "冀": 2171,
      "内": 2172,
      "円": 2173,
      "冉": 2174,
      "册": 2175,
      "再": 2176,
      "冒": 2177,
      "写": 2178,
      "军": 2179,
      "冠": 2180,
      "冥": 2181,
      "冫": 2182,
      "冬": 2183,
      "冯": 2184,
      "决": 2185,
      "冴": 2186,
      "冶": 2187,
      "冷": 2188,
      "净": 2189,
      "准": 2190,
      "凤": 2191,
      "処": 2192,
      "凪": 2193,
      "凯": 2194,
      "凰": 2195,
      "凱": 2196,
      "凶": 2197,
      "凹": 2198,
      "出": 2199,
      "刀": 2200,
      "刃": 2201,
      "分": 2202,
      "切": 2203,
      "刊": 2204,
      "划": 2205,
      "列": 2206,
      "刘": 2207,
      "初": 2208,
      "判": 2209,
      "別": 2210,
      "利": 2211,
      "别": 2212,
      "到": 2213,
      "制": 2214,
      "券": 2215,
      "刹": 2216,
      "刺": 2217,
      "刻": 2218,
      "則": 2219,
      "前": 2220,
      "剑": 2221,
      "剛": 2222,
      "剣": 2223,
      "剧": 2224,
      "剩": 2225,
      "副": 2226,
      "割": 2227,
      "創": 2228,
      "劃": 2229,
      "劇": 2230,
      "劉": 2231,
      "劍": 2232,
      "力": 2233,
      "办": 2234,
      "加": 2235,
      "劣": 2236,
      "动": 2237,
      "助": 2238,
      "劳": 2239,
      "勃": 2240,
      "勅": 2241,
      "勇": 2242,
      "勒": 2243,
      "動": 2244,
      "勘": 2245,
      "務": 2246,
      "勝": 2247,
      "勞": 2248,
      "勢": 2249,
      "勳": 2250,
      "勾": 2251,
      "包": 2252,
      "化": 2253,
      "北": 2254,
      "匠": 2255,
      "匹": 2256,
      "区": 2257,
      "區": 2258,
      "十": 2259,
      "千": 2260,
      "升": 2261,
      "半": 2262,
      "华": 2263,
      "协": 2264,
      "卐": 2265,
      "卒": 2266,
      "卓": 2267,
      "協": 2268,
      "单": 2269,
      "卖": 2270,
      "南": 2271,
      "博": 2272,
      "卜": 2273,
      "占": 2274,
      "卡": 2275,
      "卢": 2276,
      "卦": 2277,
      "卫": 2278,
      "印": 2279,
      "危": 2280,
      "即": 2281,
      "却": 2282,
      "卸": 2283,
      "卿": 2284,
      "厂": 2285,
      "厄": 2286,
      "历": 2287,
      "厘": 2288,
      "厚": 2289,
      "原": 2290,
      "厥": 2291,
      "厦": 2292,
      "厩": 2293,
      "去": 2294,
      "县": 2295,
      "参": 2296,
      "參": 2297,
      "叉": 2298,
      "及": 2299,
      "友": 2300,
      "双": 2301,
      "反": 2302,
      "収": 2303,
      "发": 2304,
      "叔": 2305,
      "取": 2306,
      "受": 2307,
      "变": 2308,
      "叛": 2309,
      "叠": 2310,
      "叡": 2311,
      "叢": 2312,
      "口": 2313,
      "古": 2314,
      "只": 2315,
      "叫": 2316,
      "召": 2317,
      "可": 2318,
      "台": 2319,
      "史": 2320,
      "右": 2321,
      "叶": 2322,
      "号": 2323,
      "司": 2324,
      "合": 2325,
      "吉": 2326,
      "同": 2327,
      "名": 2328,
      "后": 2329,
      "向": 2330,
      "吕": 2331,
      "君": 2332,
      "吟": 2333,
      "吧": 2334,
      "启": 2335,
      "吳": 2336,
      "吴": 2337,
      "吸": 2338,
      "吹": 2339,
      "吾": 2340,
      "呂": 2341,
      "呉": 2342,
      "告": 2343,
      "周": 2344,
      "呪": 2345,
      "味": 2346,
      "呼": 2347,
      "命": 2348,
      "咆": 2349,
      "和": 2350,
      "咖": 2351,
      "咫": 2352,
      "咲": 2353,
      "咸": 2354,
      "哀": 2355,
      "品": 2356,
      "哈": 2357,
      "响": 2358,
      "員": 2359,
      "哥": 2360,
      "哮": 2361,
      "哲": 2362,
      "唄": 2363,
      "唐": 2364,
      "唯": 2365,
      "唱": 2366,
      "商": 2367,
      "問": 2368,
      "啓": 2369,
      "啟": 2370,
      "啡": 2371,
      "善": 2372,
      "喇": 2373,
      "喋": 2374,
      "喚": 2375,
      "喜": 2376,
      "喝": 2377,
      "喬": 2378,
      "嘉": 2379,
      "嘘": 2380,
      "噛": 2381,
      "器": 2382,
      "嚣": 2383,
      "嚴": 2384,
      "囁": 2385,
      "囂": 2386,
      "囃": 2387,
      "囚": 2388,
      "四": 2389,
      "回": 2390,
      "因": 2391,
      "団": 2392,
      "図": 2393,
      "国": 2394,
      "图": 2395,
      "圈": 2396,
      "國": 2397,
      "圍": 2398,
      "園": 2399,
      "圓": 2400,
      "圖": 2401,
      "土": 2402,
      "圣": 2403,
      "圧": 2404,
      "在": 2405,
      "地": 2406,
      "圻": 2407,
      "坂": 2408,
      "均": 2409,
      "坊": 2410,
      "块": 2411,
      "坚": 2412,
      "坝": 2413,
      "坡": 2414,
      "坤": 2415,
      "坪": 2416,
      "型": 2417,
      "垣": 2418,
      "城": 2419,
      "埔": 2420,
      "域": 2421,
      "執": 2422,
      "培": 2423,
      "基": 2424,
      "堀": 2425,
      "堂": 2426,
      "堅": 2427,
      "堆": 2428,
      "堡": 2429,
      "堤": 2430,
      "堯": 2431,
      "報": 2432,
      "場": 2433,
      "塊": 2434,
      "塔": 2435,
      "塘": 2436,
      "塚": 2437,
      "塞": 2438,
      "塩": 2439,
      "填": 2440,
      "塵": 2441,
      "境": 2442,
      "墓": 2443,
      "墙": 2444,
      "增": 2445,
      "壁": 2446,
      "壌": 2447,
      "壓": 2448,
      "壟": 2449,
      "壤": 2450,
      "士": 2451,
      "壬": 2452,
      "声": 2453,
      "壱": 2454,
      "売": 2455,
      "壳": 2456,
      "壷": 2457,
      "壽": 2458,
      "处": 2459,
      "备": 2460,
      "変": 2461,
      "复": 2462,
      "夏": 2463,
      "夕": 2464,
      "外": 2465,
      "多": 2466,
      "夜": 2467,
      "够": 2468,
      "夢": 2469,
      "夤": 2470,
      "大": 2471,
      "天": 2472,
      "太": 2473,
      "夫": 2474,
      "央": 2475,
      "失": 2476,
      "头": 2477,
      "夷": 2478,
      "奇": 2479,
      "奈": 2480,
      "奉": 2481,
      "奎": 2482,
      "奏": 2483,
      "奐": 2484,
      "契": 2485,
      "奥": 2486,
      "奧": 2487,
      "奪": 2488,
      "女": 2489,
      "奴": 2490,
      "好": 2491,
      "如": 2492,
      "妃": 2493,
      "妇": 2494,
      "妍": 2495,
      "妖": 2496,
      "妙": 2497,
      "妮": 2498,
      "妹": 2499,
      "妻": 2500,
      "姉": 2501,
      "姊": 2502,
      "始": 2503,
      "姑": 2504,
      "委": 2505,
      "姚": 2506,
      "姥": 2507,
      "姦": 2508,
      "姫": 2509,
      "姬": 2510,
      "姿": 2511,
      "威": 2512,
      "娘": 2513,
      "娜": 2514,
      "婁": 2515,
      "婷": 2516,
      "嫁": 2517,
      "嬢": 2518,
      "嬴": 2519,
      "子": 2520,
      "孔": 2521,
      "字": 2522,
      "存": 2523,
      "孙": 2524,
      "孝": 2525,
      "孟": 2526,
      "季": 2527,
      "孤": 2528,
      "学": 2529,
      "孩": 2530,
      "孫": 2531,
      "孵": 2532,
      "學": 2533,
      "宁": 2534,
      "宅": 2535,
      "宇": 2536,
      "守": 2537,
      "安": 2538,
      "宋": 2539,
      "完": 2540,
      "宏": 2541,
      "宗": 2542,
      "官": 2543,
      "宙": 2544,
      "定": 2545,
      "宝": 2546,
      "实": 2547,
      "実": 2548,
      "客": 2549,
      "宣": 2550,
      "室": 2551,
      "宫": 2552,
      "宮": 2553,
      "宴": 2554,
      "家": 2555,
      "宸": 2556,
      "容": 2557,
      "宿": 2558,
      "寂": 2559,
      "寄": 2560,
      "密": 2561,
      "寇": 2562,
      "富": 2563,
      "寔": 2564,
      "寗": 2565,
      "寛": 2566,
      "寝": 2567,
      "寞": 2568,
      "察": 2569,
      "寧": 2570,
      "寨": 2571,
      "審": 2572,
      "寬": 2573,
      "寵": 2574,
      "寶": 2575,
      "寸": 2576,
      "对": 2577,
      "寺": 2578,
      "寻": 2579,
      "対": 2580,
      "寿": 2581,
      "封": 2582,
      "射": 2583,
      "将": 2584,
      "將": 2585,
      "尉": 2586,
      "尊": 2587,
      "尋": 2588,
      "對": 2589,
      "導": 2590,
      "小": 2591,
      "少": 2592,
      "尔": 2593,
      "尚": 2594,
      "尧": 2595,
      "就": 2596,
      "尸": 2597,
      "尺": 2598,
      "尼": 2599,
      "尽": 2600,
      "尾": 2601,
      "局": 2602,
      "居": 2603,
      "届": 2604,
      "屋": 2605,
      "屍": 2606,
      "屑": 2607,
      "展": 2608,
      "屠": 2609,
      "層": 2610,
      "屬": 2611,
      "屯": 2612,
      "山": 2613,
      "屿": 2614,
      "岐": 2615,
      "岑": 2616,
      "岚": 2617,
      "岛": 2618,
      "岡": 2619,
      "岩": 2620,
      "岬": 2621,
      "岭": 2622,
      "岳": 2623,
      "岸": 2624,
      "峰": 2625,
      "島": 2626,
      "崇": 2627,
      "崎": 2628,
      "崖": 2629,
      "嵐": 2630,
      "嶋": 2631,
      "嶺": 2632,
      "嶼": 2633,
      "巂": 2634,
      "巖": 2635,
      "川": 2636,
      "州": 2637,
      "巡": 2638,
      "工": 2639,
      "左": 2640,
      "巨": 2641,
      "巫": 2642,
      "差": 2643,
      "己": 2644,
      "巳": 2645,
      "巴": 2646,
      "巻": 2647,
      "币": 2648,
      "市": 2649,
      "布": 2650,
      "帆": 2651,
      "师": 2652,
      "希": 2653,
      "帕": 2654,
      "帖": 2655,
      "帝": 2656,
      "帥": 2657,
      "带": 2658,
      "師": 2659,
      "帮": 2660,
      "帰": 2661,
      "帶": 2662,
      "常": 2663,
      "幕": 2664,
      "幡": 2665,
      "幣": 2666,
      "干": 2667,
      "平": 2668,
      "年": 2669,
      "幸": 2670,
      "幻": 2671,
      "幽": 2672,
      "广": 2673,
      "庁": 2674,
      "広": 2675,
      "庄": 2676,
      "庆": 2677,
      "庇": 2678,
      "序": 2679,
      "库": 2680,
      "底": 2681,
      "庖": 2682,
      "店": 2683,
      "庙": 2684,
      "庚": 2685,
      "府": 2686,
      "度": 2687,
      "座": 2688,
      "庫": 2689,
      "庭": 2690,
      "庵": 2691,
      "康": 2692,
      "廉": 2693,
      "廊": 2694,
      "廟": 2695,
      "廣": 2696,
      "廬": 2697,
      "延": 2698,
      "廷": 2699,
      "建": 2700,
      "廻": 2701,
      "开": 2702,
      "弁": 2703,
      "式": 2704,
      "弐": 2705,
      "弓": 2706,
      "弔": 2707,
      "引": 2708,
      "弘": 2709,
      "弟": 2710,
      "张": 2711,
      "弥": 2712,
      "弦": 2713,
      "弧": 2714,
      "弱": 2715,
      "張": 2716,
      "強": 2717,
      "弹": 2718,
      "强": 2719,
      "弾": 2720,
      "彌": 2721,
      "当": 2722,
      "录": 2723,
      "彖": 2724,
      "彙": 2725,
      "形": 2726,
      "彦": 2727,
      "彩": 2728,
      "彪": 2729,
      "彬": 2730,
      "彭": 2731,
      "影": 2732,
      "役": 2733,
      "彼": 2734,
      "征": 2735,
      "径": 2736,
      "待": 2737,
      "律": 2738,
      "後": 2739,
      "徐": 2740,
      "徒": 2741,
      "得": 2742,
      "從": 2743,
      "御": 2744,
      "復": 2745,
      "微": 2746,
      "徳": 2747,
      "德": 2748,
      "徹": 2749,
      "徽": 2750,
      "心": 2751,
      "必": 2752,
      "忍": 2753,
      "志": 2754,
      "忘": 2755,
      "応": 2756,
      "忠": 2757,
      "快": 2758,
      "念": 2759,
      "怀": 2760,
      "怒": 2761,
      "怖": 2762,
      "思": 2763,
      "怡": 2764,
      "急": 2765,
      "性": 2766,
      "怨": 2767,
      "怪": 2768,
      "总": 2769,
      "恆": 2770,
      "恋": 2771,
      "恐": 2772,
      "恢": 2773,
      "恥": 2774,
      "恩": 2775,
      "恭": 2776,
      "息": 2777,
      "恵": 2778,
      "恼": 2779,
      "悔": 2780,
      "悟": 2781,
      "悠": 2782,
      "悦": 2783,
      "悪": 2784,
      "悲": 2785,
      "悼": 2786,
      "情": 2787,
      "惑": 2788,
      "惟": 2789,
      "惠": 2790,
      "惡": 2791,
      "想": 2792,
      "愁": 2793,
      "愍": 2794,
      "意": 2795,
      "愚": 2796,
      "愛": 2797,
      "感": 2798,
      "愽": 2799,
      "慈": 2800,
      "態": 2801,
      "慎": 2802,
      "慧": 2803,
      "慰": 2804,
      "慶": 2805,
      "憂": 2806,
      "憑": 2807,
      "憲": 2808,
      "憶": 2809,
      "應": 2810,
      "懍": 2811,
      "懷": 2812,
      "戈": 2813,
      "戊": 2814,
      "戎": 2815,
      "成": 2816,
      "我": 2817,
      "战": 2818,
      "戦": 2819,
      "戯": 2820,
      "戰": 2821,
      "戴": 2822,
      "户": 2823,
      "戸": 2824,
      "房": 2825,
      "所": 2826,
      "扇": 2827,
      "扈": 2828,
      "扉": 2829,
      "手": 2830,
      "才": 2831,
      "打": 2832,
      "托": 2833,
      "扶": 2834,
      "找": 2835,
      "承": 2836,
      "技": 2837,
      "抄": 2838,
      "抓": 2839,
      "投": 2840,
      "抜": 2841,
      "択": 2842,
      "护": 2843,
      "报": 2844,
      "披": 2845,
      "抱": 2846,
      "抵": 2847,
      "担": 2848,
      "拉": 2849,
      "拍": 2850,
      "拏": 2851,
      "拐": 2852,
      "拖": 2853,
      "拘": 2854,
      "招": 2855,
      "拜": 2856,
      "拟": 2857,
      "拥": 2858,
      "括": 2859,
      "拳": 2860,
      "拾": 2861,
      "持": 2862,
      "挂": 2863,
      "指": 2864,
      "挑": 2865,
      "振": 2866,
      "据": 2867,
      "捷": 2868,
      "授": 2869,
      "掛": 2870,
      "採": 2871,
      "探": 2872,
      "控": 2873,
      "掲": 2874,
      "描": 2875,
      "提": 2876,
      "揚": 2877,
      "換": 2878,
      "援": 2879,
      "揺": 2880,
      "摂": 2881,
      "摩": 2882,
      "摸": 2883,
      "撃": 2884,
      "撞": 2885,
      "播": 2886,
      "撲": 2887,
      "操": 2888,
      "攝": 2889,
      "支": 2890,
      "改": 2891,
      "攻": 2892,
      "放": 2893,
      "政": 2894,
      "故": 2895,
      "敏": 2896,
      "救": 2897,
      "教": 2898,
      "敢": 2899,
      "散": 2900,
      "敦": 2901,
      "敬": 2902,
      "数": 2903,
      "敵": 2904,
      "敷": 2905,
      "數": 2906,
      "文": 2907,
      "斉": 2908,
      "斎": 2909,
      "斗": 2910,
      "料": 2911,
      "斜": 2912,
      "斤": 2913,
      "斩": 2914,
      "斬": 2915,
      "断": 2916,
      "斯": 2917,
      "新": 2918,
      "方": 2919,
      "於": 2920,
      "施": 2921,
      "旅": 2922,
      "旋": 2923,
      "族": 2924,
      "旗": 2925,
      "无": 2926,
      "日": 2927,
      "旦": 2928,
      "旧": 2929,
      "早": 2930,
      "旭": 2931,
      "时": 2932,
      "旺": 2933,
      "昂": 2934,
      "昇": 2935,
      "昌": 2936,
      "明": 2937,
      "昏": 2938,
      "易": 2939,
      "昔": 2940,
      "星": 2941,
      "映": 2942,
      "春": 2943,
      "昭": 2944,
      "是": 2945,
      "昼": 2946,
      "時": 2947,
      "晉": 2948,
      "晋": 2949,
      "晒": 2950,
      "普": 2951,
      "景": 2952,
      "晴": 2953,
      "晶": 2954,
      "智": 2955,
      "暁": 2956,
      "暂": 2957,
      "暖": 2958,
      "暗": 2959,
      "暦": 2960,
      "暴": 2961,
      "曆": 2962,
      "曜": 2963,
      "曦": 2964,
      "曲": 2965,
      "更": 2966,
      "書": 2967,
      "曹": 2968,
      "曾": 2969,
      "最": 2970,
      "會": 2971,
      "月": 2972,
      "有": 2973,
      "朋": 2974,
      "服": 2975,
      "朏": 2976,
      "朔": 2977,
      "朗": 2978,
      "望": 2979,
      "朝": 2980,
      "期": 2981,
      "朧": 2982,
      "木": 2983,
      "未": 2984,
      "末": 2985,
      "本": 2986,
      "札": 2987,
      "朱": 2988,
      "朴": 2989,
      "朵": 2990,
      "机": 2991,
      "朽": 2992,
      "杂": 2993,
      "权": 2994,
      "李": 2995,
      "杏": 2996,
      "材": 2997,
      "村": 2998,
      "杖": 2999,
      "杜": 3000,
      "束": 3001,
      "条": 3002,
      "来": 3003,
      "杨": 3004,
      "杯": 3005,
      "東": 3006,
      "杲": 3007,
      "松": 3008,
      "板": 3009,
      "极": 3010,
      "析": 3011,
      "林": 3012,
      "枚": 3013,
      "果": 3014,
      "枝": 3015,
      "枭": 3016,
      "架": 3017,
      "柆": 3018,
      "柔": 3019,
      "柩": 3020,
      "柱": 3021,
      "柳": 3022,
      "柴": 3023,
      "査": 3024,
      "栄": 3025,
      "标": 3026,
      "树": 3027,
      "栖": 3028,
      "栗": 3029,
      "栞": 3030,
      "校": 3031,
      "株": 3032,
      "样": 3033,
      "核": 3034,
      "根": 3035,
      "格": 3036,
      "栽": 3037,
      "栾": 3038,
      "桀": 3039,
      "桂": 3040,
      "桃": 3041,
      "案": 3042,
      "桎": 3043,
      "桐": 3044,
      "桑": 3045,
      "桓": 3046,
      "桜": 3047,
      "桧": 3048,
      "梁": 3049,
      "梅": 3050,
      "梏": 3051,
      "梓": 3052,
      "條": 3053,
      "梦": 3054,
      "梨": 3055,
      "梭": 3056,
      "梯": 3057,
      "械": 3058,
      "梵": 3059,
      "梶": 3060,
      "棋": 3061,
      "棍": 3062,
      "棗": 3063,
      "棘": 3064,
      "棚": 3065,
      "棟": 3066,
      "森": 3067,
      "棲": 3068,
      "棵": 3069,
      "棺": 3070,
      "植": 3071,
      "椎": 3072,
      "椒": 3073,
      "椛": 3074,
      "検": 3075,
      "椰": 3076,
      "椿": 3077,
      "楊": 3078,
      "楚": 3079,
      "楠": 3080,
      "業": 3081,
      "楯": 3082,
      "極": 3083,
      "楼": 3084,
      "楽": 3085,
      "概": 3086,
      "榆": 3087,
      "榊": 3088,
      "榔": 3089,
      "榛": 3090,
      "榮": 3091,
      "榴": 3092,
      "槐": 3093,
      "様": 3094,
      "槤": 3095,
      "槻": 3096,
      "樂": 3097,
      "樉": 3098,
      "樊": 3099,
      "樓": 3100,
      "樗": 3101,
      "標": 3102,
      "樛": 3103,
      "模": 3104,
      "権": 3105,
      "横": 3106,
      "樱": 3107,
      "樸": 3108,
      "樹": 3109,
      "橋": 3110,
      "橘": 3111,
      "橚": 3112,
      "機": 3113,
      "橫": 3114,
      "橿": 3115,
      "檀": 3116,
      "檜": 3117,
      "檳": 3118,
      "檻": 3119,
      "櫓": 3120,
      "櫻": 3121,
      "欒": 3122,
      "欠": 3123,
      "次": 3124,
      "欣": 3125,
      "欲": 3126,
      "欽": 3127,
      "歌": 3128,
      "歓": 3129,
      "止": 3130,
      "正": 3131,
      "步": 3132,
      "武": 3133,
      "歩": 3134,
      "歪": 3135,
      "歲": 3136,
      "歴": 3137,
      "歷": 3138,
      "歸": 3139,
      "死": 3140,
      "殊": 3141,
      "残": 3142,
      "段": 3143,
      "殺": 3144,
      "殻": 3145,
      "殿": 3146,
      "毅": 3147,
      "母": 3148,
      "毎": 3149,
      "比": 3150,
      "毕": 3151,
      "毘": 3152,
      "毛": 3153,
      "毫": 3154,
      "毬": 3155,
      "氏": 3156,
      "民": 3157,
      "气": 3158,
      "気": 3159,
      "氣": 3160,
      "水": 3161,
      "氷": 3162,
      "永": 3163,
      "氾": 3164,
      "汇": 3165,
      "汉": 3166,
      "汐": 3167,
      "汗": 3168,
      "汝": 3169,
      "江": 3170,
      "池": 3171,
      "汤": 3172,
      "汰": 3173,
      "汶": 3174,
      "決": 3175,
      "汽": 3176,
      "沂": 3177,
      "沃": 3178,
      "沈": 3179,
      "沉": 3180,
      "沐": 3181,
      "沖": 3182,
      "沙": 3183,
      "沛": 3184,
      "没": 3185,
      "沢": 3186,
      "沫": 3187,
      "河": 3188,
      "油": 3189,
      "治": 3190,
      "沼": 3191,
      "沽": 3192,
      "泉": 3193,
      "泊": 3194,
      "法": 3195,
      "泗": 3196,
      "泡": 3197,
      "波": 3198,
      "泣": 3199,
      "泥": 3200,
      "注": 3201,
      "泰": 3202,
      "泾": 3203,
      "洁": 3204,
      "洋": 3205,
      "洛": 3206,
      "洞": 3207,
      "津": 3208,
      "洪": 3209,
      "洲": 3210,
      "活": 3211,
      "派": 3212,
      "流": 3213,
      "浅": 3214,
      "浙": 3215,
      "浚": 3216,
      "浜": 3217,
      "浦": 3218,
      "浩": 3219,
      "浪": 3220,
      "浮": 3221,
      "海": 3222,
      "消": 3223,
      "涙": 3224,
      "润": 3225,
      "涵": 3226,
      "涼": 3227,
      "淇": 3228,
      "淑": 3229,
      "淘": 3230,
      "淡": 3231,
      "淨": 3232,
      "深": 3233,
      "淳": 3234,
      "淵": 3235,
      "淹": 3236,
      "添": 3237,
      "清": 3238,
      "渊": 3239,
      "渚": 3240,
      "減": 3241,
      "渠": 3242,
      "渡": 3243,
      "渣": 3244,
      "渥": 3245,
      "渦": 3246,
      "温": 3247,
      "測": 3248,
      "港": 3249,
      "游": 3250,
      "湊": 3251,
      "湖": 3252,
      "湯": 3253,
      "湾": 3254,
      "満": 3255,
      "源": 3256,
      "準": 3257,
      "溜": 3258,
      "溢": 3259,
      "溪": 3260,
      "溫": 3261,
      "溶": 3262,
      "滅": 3263,
      "滋": 3264,
      "滑": 3265,
      "滿": 3266,
      "漂": 3267,
      "漏": 3268,
      "漠": 3269,
      "漢": 3270,
      "漫": 3271,
      "漳": 3272,
      "漸": 3273,
      "潘": 3274,
      "潜": 3275,
      "潤": 3276,
      "澄": 3277,
      "澤": 3278,
      "激": 3279,
      "濃": 3280,
      "濞": 3281,
      "濟": 3282,
      "瀛": 3283,
      "瀬": 3284,
      "灣": 3285,
      "火": 3286,
      "灯": 3287,
      "灰": 3288,
      "灵": 3289,
      "灶": 3290,
      "灼": 3291,
      "災": 3292,
      "灾": 3293,
      "炎": 3294,
      "炬": 3295,
      "炮": 3296,
      "炷": 3297,
      "炸": 3298,
      "点": 3299,
      "為": 3300,
      "烈": 3301,
      "烏": 3302,
      "烙": 3303,
      "烟": 3304,
      "烦": 3305,
      "烧": 3306,
      "焉": 3307,
      "焔": 3308,
      "無": 3309,
      "焦": 3310,
      "然": 3311,
      "焼": 3312,
      "煌": 3313,
      "煙": 3314,
      "煜": 3315,
      "照": 3316,
      "煩": 3317,
      "煮": 3318,
      "熊": 3319,
      "熔": 3320,
      "熙": 3321,
      "熟": 3322,
      "熱": 3323,
      "燃": 3324,
      "燈": 3325,
      "燕": 3326,
      "營": 3327,
      "爆": 3328,
      "爭": 3329,
      "爱": 3330,
      "爲": 3331,
      "爵": 3332,
      "父": 3333,
      "爺": 3334,
      "爻": 3335,
      "爽": 3336,
      "爾": 3337,
      "片": 3338,
      "版": 3339,
      "牌": 3340,
      "牙": 3341,
      "牛": 3342,
      "牡": 3343,
      "牢": 3344,
      "牧": 3345,
      "物": 3346,
      "牵": 3347,
      "特": 3348,
      "犖": 3349,
      "犬": 3350,
      "犯": 3351,
      "狀": 3352,
      "狂": 3353,
      "狐": 3354,
      "狗": 3355,
      "狛": 3356,
      "狡": 3357,
      "狩": 3358,
      "独": 3359,
      "狭": 3360,
      "狱": 3361,
      "狸": 3362,
      "狼": 3363,
      "猛": 3364,
      "猩": 3365,
      "猪": 3366,
      "猫": 3367,
      "献": 3368,
      "猿": 3369,
      "獄": 3370,
      "獅": 3371,
      "獣": 3372,
      "獵": 3373,
      "獻": 3374,
      "玄": 3375,
      "玉": 3376,
      "王": 3377,
      "玖": 3378,
      "玩": 3379,
      "玲": 3380,
      "珂": 3381,
      "珙": 3382,
      "珠": 3383,
      "現": 3384,
      "球": 3385,
      "理": 3386,
      "琦": 3387,
      "琪": 3388,
      "琬": 3389,
      "琮": 3390,
      "琴": 3391,
      "瑋": 3392,
      "瑙": 3393,
      "瑜": 3394,
      "瑞": 3395,
      "瑠": 3396,
      "瑣": 3397,
      "瑪": 3398,
      "瑾": 3399,
      "璉": 3400,
      "環": 3401,
      "璽": 3402,
      "瓊": 3403,
      "瓜": 3404,
      "瓢": 3405,
      "瓦": 3406,
      "瓩": 3407,
      "瓷": 3408,
      "甘": 3409,
      "甜": 3410,
      "生": 3411,
      "產": 3412,
      "産": 3413,
      "用": 3414,
      "甫": 3415,
      "田": 3416,
      "由": 3417,
      "甲": 3418,
      "申": 3419,
      "男": 3420,
      "町": 3421,
      "画": 3422,
      "甽": 3423,
      "界": 3424,
      "畑": 3425,
      "留": 3426,
      "畜": 3427,
      "畢": 3428,
      "略": 3429,
      "番": 3430,
      "畫": 3431,
      "異": 3432,
      "疾": 3433,
      "病": 3434,
      "症": 3435,
      "痘": 3436,
      "痛": 3437,
      "瘡": 3438,
      "瘤": 3439,
      "発": 3440,
      "登": 3441,
      "發": 3442,
      "白": 3443,
      "百": 3444,
      "的": 3445,
      "皇": 3446,
      "皙": 3447,
      "皮": 3448,
      "皿": 3449,
      "盆": 3450,
      "盈": 3451,
      "益": 3452,
      "盏": 3453,
      "盐": 3454,
      "监": 3455,
      "盒": 3456,
      "盗": 3457,
      "盘": 3458,
      "盛": 3459,
      "盟": 3460,
      "監": 3461,
      "盤": 3462,
      "盧": 3463,
      "目": 3464,
      "直": 3465,
      "相": 3466,
      "盼": 3467,
      "省": 3468,
      "看": 3469,
      "県": 3470,
      "真": 3471,
      "眼": 3472,
      "着": 3473,
      "督": 3474,
      "瞬": 3475,
      "瞳": 3476,
      "矢": 3477,
      "知": 3478,
      "矩": 3479,
      "短": 3480,
      "矮": 3481,
      "矯": 3482,
      "石": 3483,
      "砂": 3484,
      "砍": 3485,
      "研": 3486,
      "砖": 3487,
      "砲": 3488,
      "破": 3489,
      "硕": 3490,
      "硝": 3491,
      "硨": 3492,
      "碍": 3493,
      "碗": 3494,
      "碩": 3495,
      "確": 3496,
      "碼": 3497,
      "磁": 3498,
      "磅": 3499,
      "磐": 3500,
      "磨": 3501,
      "磯": 3502,
      "磲": 3503,
      "礁": 3504,
      "礎": 3505,
      "礮": 3506,
      "示": 3507,
      "礼": 3508,
      "社": 3509,
      "祀": 3510,
      "祈": 3511,
      "祐": 3512,
      "祖": 3513,
      "祚": 3514,
      "神": 3515,
      "祠": 3516,
      "祥": 3517,
      "票": 3518,
      "祭": 3519,
      "祺": 3520,
      "祿": 3521,
      "禁": 3522,
      "禄": 3523,
      "禎": 3524,
      "福": 3525,
      "禦": 3526,
      "禮": 3527,
      "禰": 3528,
      "禺": 3529,
      "秀": 3530,
      "私": 3531,
      "秋": 3532,
      "科": 3533,
      "秒": 3534,
      "秘": 3535,
      "租": 3536,
      "秤": 3537,
      "秦": 3538,
      "移": 3539,
      "程": 3540,
      "稔": 3541,
      "稚": 3542,
      "種": 3543,
      "稲": 3544,
      "稷": 3545,
      "穂": 3546,
      "穌": 3547,
      "積": 3548,
      "穎": 3549,
      "穗": 3550,
      "穢": 3551,
      "究": 3552,
      "空": 3553,
      "突": 3554,
      "窓": 3555,
      "窗": 3556,
      "窟": 3557,
      "竇": 3558,
      "立": 3559,
      "站": 3560,
      "竜": 3561,
      "章": 3562,
      "童": 3563,
      "端": 3564,
      "竹": 3565,
      "竺": 3566,
      "笑": 3567,
      "笔": 3568,
      "笛": 3569,
      "笠": 3570,
      "符": 3571,
      "笨": 3572,
      "第": 3573,
      "笹": 3574,
      "筆": 3575,
      "等": 3576,
      "筋": 3577,
      "筐": 3578,
      "答": 3579,
      "策": 3580,
      "筹": 3581,
      "箇": 3582,
      "算": 3583,
      "管": 3584,
      "箪": 3585,
      "箭": 3586,
      "箱": 3587,
      "節": 3588,
      "範": 3589,
      "篇": 3590,
      "篋": 3591,
      "篤": 3592,
      "簡": 3593,
      "簿": 3594,
      "籃": 3595,
      "籌": 3596,
      "籍": 3597,
      "籠": 3598,
      "米": 3599,
      "籵": 3600,
      "粁": 3601,
      "粉": 3602,
      "粍": 3603,
      "粟": 3604,
      "粥": 3605,
      "粨": 3606,
      "精": 3607,
      "糎": 3608,
      "糖": 3609,
      "糸": 3610,
      "系": 3611,
      "紀": 3612,
      "約": 3613,
      "紅": 3614,
      "紋": 3615,
      "納": 3616,
      "純": 3617,
      "紘": 3618,
      "紙": 3619,
      "級": 3620,
      "素": 3621,
      "紡": 3622,
      "紫": 3623,
      "細": 3624,
      "紹": 3625,
      "紺": 3626,
      "終": 3627,
      "組": 3628,
      "絆": 3629,
      "経": 3630,
      "結": 3631,
      "給": 3632,
      "統": 3633,
      "絵": 3634,
      "絶": 3635,
      "綁": 3636,
      "經": 3637,
      "継": 3638,
      "続": 3639,
      "綜": 3640,
      "綠": 3641,
      "維": 3642,
      "綯": 3643,
      "綱": 3644,
      "網": 3645,
      "綸": 3646,
      "綺": 3647,
      "綾": 3648,
      "緋": 3649,
      "総": 3650,
      "緑": 3651,
      "緒": 3652,
      "線": 3653,
      "締": 3654,
      "編": 3655,
      "緩": 3656,
      "緯": 3657,
      "縄": 3658,
      "縣": 3659,
      "總": 3660,
      "繋": 3661,
      "織": 3662,
      "繼": 3663,
      "續": 3664,
      "红": 3665,
      "级": 3666,
      "纪": 3667,
      "纲": 3668,
      "线": 3669,
      "组": 3670,
      "绅": 3671,
      "细": 3672,
      "终": 3673,
      "绍": 3674,
      "经": 3675,
      "给": 3676,
      "统": 3677,
      "继": 3678,
      "绮": 3679,
      "维": 3680,
      "综": 3681,
      "缽": 3682,
      "网": 3683,
      "罗": 3684,
      "罠": 3685,
      "罪": 3686,
      "置": 3687,
      "罰": 3688,
      "罸": 3689,
      "羅": 3690,
      "羊": 3691,
      "美": 3692,
      "群": 3693,
      "義": 3694,
      "羽": 3695,
      "翁": 3696,
      "習": 3697,
      "翔": 3698,
      "翘": 3699,
      "翠": 3700,
      "翡": 3701,
      "翱": 3702,
      "翹": 3703,
      "翻": 3704,
      "翼": 3705,
      "老": 3706,
      "考": 3707,
      "者": 3708,
      "而": 3709,
      "耕": 3710,
      "耳": 3711,
      "耶": 3712,
      "耿": 3713,
      "聃": 3714,
      "联": 3715,
      "聖": 3716,
      "聘": 3717,
      "聚": 3718,
      "聞": 3719,
      "聡": 3720,
      "聯": 3721,
      "聰": 3722,
      "聲": 3723,
      "職": 3724,
      "肃": 3725,
      "肉": 3726,
      "肖": 3727,
      "肚": 3728,
      "股": 3729,
      "肥": 3730,
      "肩": 3731,
      "育": 3732,
      "胞": 3733,
      "胠": 3734,
      "胡": 3735,
      "胤": 3736,
      "胴": 3737,
      "胸": 3738,
      "能": 3739,
      "脂": 3740,
      "脇": 3741,
      "脈": 3742,
      "脉": 3743,
      "脚": 3744,
      "脩": 3745,
      "脱": 3746,
      "脳": 3747,
      "腐": 3748,
      "腰": 3749,
      "腹": 3750,
      "腿": 3751,
      "膀": 3752,
      "膺": 3753,
      "臂": 3754,
      "臘": 3755,
      "臚": 3756,
      "臣": 3757,
      "臨": 3758,
      "自": 3759,
      "臭": 3760,
      "致": 3761,
      "臺": 3762,
      "與": 3763,
      "興": 3764,
      "舍": 3765,
      "舎": 3766,
      "舞": 3767,
      "舟": 3768,
      "航": 3769,
      "船": 3770,
      "艦": 3771,
      "良": 3772,
      "色": 3773,
      "艳": 3774,
      "艶": 3775,
      "艺": 3776,
      "节": 3777,
      "芒": 3778,
      "芙": 3779,
      "芝": 3780,
      "芦": 3781,
      "芬": 3782,
      "芭": 3783,
      "芮": 3784,
      "芯": 3785,
      "花": 3786,
      "芳": 3787,
      "芸": 3788,
      "芽": 3789,
      "苏": 3790,
      "苑": 3791,
      "苗": 3792,
      "苣": 3793,
      "若": 3794,
      "英": 3795,
      "苺": 3796,
      "茂": 3797,
      "范": 3798,
      "茜": 3799,
      "茶": 3800,
      "茸": 3801,
      "草": 3802,
      "荊": 3803,
      "荒": 3804,
      "荔": 3805,
      "荘": 3806,
      "荥": 3807,
      "荪": 3808,
      "荫": 3809,
      "荷": 3810,
      "莉": 3811,
      "莊": 3812,
      "莎": 3813,
      "莘": 3814,
      "莞": 3815,
      "莫": 3816,
      "莱": 3817,
      "莲": 3818,
      "莴": 3819,
      "菇": 3820,
      "菉": 3821,
      "菊": 3822,
      "菜": 3823,
      "華": 3824,
      "菱": 3825,
      "菲": 3826,
      "萍": 3827,
      "萝": 3828,
      "营": 3829,
      "萧": 3830,
      "萨": 3831,
      "萬": 3832,
      "落": 3833,
      "葆": 3834,
      "葉": 3835,
      "著": 3836,
      "葛": 3837,
      "董": 3838,
      "葦": 3839,
      "葫": 3840,
      "蒙": 3841,
      "蒭": 3842,
      "蒲": 3843,
      "蒼": 3844,
      "蒿": 3845,
      "蓀": 3846,
      "蓝": 3847,
      "蓮": 3848,
      "蔡": 3849,
      "蔭": 3850,
      "蔵": 3851,
      "蕃": 3852,
      "蕉": 3853,
      "蕨": 3854,
      "蕩": 3855,
      "蕭": 3856,
      "薇": 3857,
      "薊": 3858,
      "薔": 3859,
      "薙": 3860,
      "薛": 3861,
      "薩": 3862,
      "薫": 3863,
      "藍": 3864,
      "藏": 3865,
      "藕": 3866,
      "藝": 3867,
      "藤": 3868,
      "藥": 3869,
      "藩": 3870,
      "藻": 3871,
      "蘄": 3872,
      "蘅": 3873,
      "蘇": 3874,
      "蘑": 3875,
      "蘭": 3876,
      "虎": 3877,
      "虐": 3878,
      "虔": 3879,
      "處": 3880,
      "虚": 3881,
      "虛": 3882,
      "號": 3883,
      "虫": 3884,
      "虹": 3885,
      "蛇": 3886,
      "蛍": 3887,
      "蛭": 3888,
      "蜡": 3889,
      "蝉": 3890,
      "蝕": 3891,
      "蝶": 3892,
      "融": 3893,
      "螺": 3894,
      "蟲": 3895,
      "蠻": 3896,
      "血": 3897,
      "衆": 3898,
      "行": 3899,
      "術": 3900,
      "街": 3901,
      "衙": 3902,
      "衛": 3903,
      "衝": 3904,
      "衡": 3905,
      "衢": 3906,
      "衣": 3907,
      "补": 3908,
      "表": 3909,
      "袁": 3910,
      "袈": 3911,
      "袖": 3912,
      "被": 3913,
      "裁": 3914,
      "裂": 3915,
      "装": 3916,
      "裏": 3917,
      "裔": 3918,
      "裕": 3919,
      "補": 3920,
      "裟": 3921,
      "裳": 3922,
      "裸": 3923,
      "製": 3924,
      "襄": 3925,
      "襟": 3926,
      "襲": 3927,
      "西": 3928,
      "要": 3929,
      "覇": 3930,
      "見": 3931,
      "規": 3932,
      "視": 3933,
      "覚": 3934,
      "親": 3935,
      "観": 3936,
      "覺": 3937,
      "觀": 3938,
      "观": 3939,
      "角": 3940,
      "解": 3941,
      "触": 3942,
      "觳": 3943,
      "言": 3944,
      "計": 3945,
      "記": 3946,
      "設": 3947,
      "許": 3948,
      "訳": 3949,
      "証": 3950,
      "詔": 3951,
      "詞": 3952,
      "詠": 3953,
      "試": 3954,
      "詩": 3955,
      "話": 3956,
      "誌": 3957,
      "誐": 3958,
      "誒": 3959,
      "誓": 3960,
      "誕": 3961,
      "誘": 3962,
      "語": 3963,
      "誠": 3964,
      "誡": 3965,
      "誦": 3966,
      "說": 3967,
      "説": 3968,
      "読": 3969,
      "誰": 3970,
      "課": 3971,
      "調": 3972,
      "談": 3973,
      "論": 3974,
      "諭": 3975,
      "諷": 3976,
      "諸": 3977,
      "謀": 3978,
      "謁": 3979,
      "謎": 3980,
      "謙": 3981,
      "講": 3982,
      "謝": 3983,
      "識": 3984,
      "譚": 3985,
      "譜": 3986,
      "警": 3987,
      "議": 3988,
      "護": 3989,
      "讀": 3990,
      "變": 3991,
      "讐": 3992,
      "讓": 3993,
      "计": 3994,
      "让": 3995,
      "议": 3996,
      "许": 3997,
      "论": 3998,
      "讼": 3999,
      "诉": 4000,
      "词": 4001,
      "诗": 4002,
      "诚": 4003,
      "话": 4004,
      "语": 4005,
      "诶": 4006,
      "请": 4007,
      "诺": 4008,
      "读": 4009,
      "课": 4010,
      "谦": 4011,
      "谭": 4012,
      "谷": 4013,
      "豆": 4014,
      "豊": 4015,
      "豌": 4016,
      "豐": 4017,
      "豚": 4018,
      "象": 4019,
      "豪": 4020,
      "豫": 4021,
      "豬": 4022,
      "豹": 4023,
      "貓": 4024,
      "貝": 4025,
      "貞": 4026,
      "負": 4027,
      "財": 4028,
      "貫": 4029,
      "貴": 4030,
      "費": 4031,
      "賀": 4032,
      "資": 4033,
      "賈": 4034,
      "賊": 4035,
      "賓": 4036,
      "賞": 4037,
      "賢": 4038,
      "賦": 4039,
      "質": 4040,
      "購": 4041,
      "贝": 4042,
      "贞": 4043,
      "财": 4044,
      "贤": 4045,
      "质": 4046,
      "贵": 4047,
      "贺": 4048,
      "贼": 4049,
      "资": 4050,
      "赤": 4051,
      "赭": 4052,
      "走": 4053,
      "赵": 4054,
      "起": 4055,
      "超": 4056,
      "越": 4057,
      "趙": 4058,
      "足": 4059,
      "跆": 4060,
      "跑": 4061,
      "跖": 4062,
      "跟": 4063,
      "跡": 4064,
      "路": 4065,
      "跳": 4066,
      "踏": 4067,
      "踢": 4068,
      "蹴": 4069,
      "身": 4070,
      "車": 4071,
      "軌": 4072,
      "軍": 4073,
      "軒": 4074,
      "転": 4075,
      "軽": 4076,
      "載": 4077,
      "輔": 4078,
      "輛": 4079,
      "輝": 4080,
      "輪": 4081,
      "輿": 4082,
      "轉": 4083,
      "车": 4084,
      "轩": 4085,
      "转": 4086,
      "辆": 4087,
      "辉": 4088,
      "辛": 4089,
      "辣": 4090,
      "辭": 4091,
      "辯": 4092,
      "辰": 4093,
      "農": 4094,
      "边": 4095,
      "辺": 4096,
      "辽": 4097,
      "达": 4098,
      "辿": 4099,
      "迅": 4100,
      "过": 4101,
      "迈": 4102,
      "运": 4103,
      "近": 4104,
      "返": 4105,
      "这": 4106,
      "进": 4107,
      "远": 4108,
      "迦": 4109,
      "述": 4110,
      "迷": 4111,
      "追": 4112,
      "送": 4113,
      "适": 4114,
      "逆": 4115,
      "选": 4116,
      "這": 4117,
      "通": 4118,
      "造": 4119,
      "逢": 4120,
      "連": 4121,
      "逯": 4122,
      "週": 4123,
      "進": 4124,
      "遁": 4125,
      "遇": 4126,
      "遊": 4127,
      "運": 4128,
      "遍": 4129,
      "過": 4130,
      "道": 4131,
      "達": 4132,
      "遗": 4133,
      "遙": 4134,
      "遜": 4135,
      "遠": 4136,
      "遥": 4137,
      "遮": 4138,
      "選": 4139,
      "遺": 4140,
      "遼": 4141,
      "避": 4142,
      "邁": 4143,
      "還": 4144,
      "邊": 4145,
      "邑": 4146,
      "邓": 4147,
      "那": 4148,
      "邦": 4149,
      "邪": 4150,
      "邱": 4151,
      "郁": 4152,
      "郊": 4153,
      "郎": 4154,
      "郑": 4155,
      "郛": 4156,
      "郝": 4157,
      "郡": 4158,
      "部": 4159,
      "郭": 4160,
      "郷": 4161,
      "都": 4162,
      "鄧": 4163,
      "鄭": 4164,
      "酈": 4165,
      "酉": 4166,
      "酒": 4167,
      "酔": 4168,
      "酥": 4169,
      "酱": 4170,
      "酷": 4171,
      "酸": 4172,
      "醋": 4173,
      "醒": 4174,
      "醫": 4175,
      "采": 4176,
      "釈": 4177,
      "釋": 4178,
      "里": 4179,
      "重": 4180,
      "野": 4181,
      "量": 4182,
      "金": 4183,
      "釣": 4184,
      "鈍": 4185,
      "鈴": 4186,
      "鉄": 4187,
      "鉦": 4188,
      "鉱": 4189,
      "鉴": 4190,
      "銀": 4191,
      "銃": 4192,
      "銅": 4193,
      "銓": 4194,
      "銖": 4195,
      "銳": 4196,
      "鋪": 4197,
      "鋼": 4198,
      "錄": 4199,
      "錡": 4200,
      "錦": 4201,
      "錬": 4202,
      "録": 4203,
      "鍋": 4204,
      "鍵": 4205,
      "鎖": 4206,
      "鎧": 4207,
      "鎮": 4208,
      "鏡": 4209,
      "鐘": 4210,
      "鐵": 4211,
      "鐸": 4212,
      "鑒": 4213,
      "钢": 4214,
      "钦": 4215,
      "钱": 4216,
      "铁": 4217,
      "铎": 4218,
      "铜": 4219,
      "铭": 4220,
      "铺": 4221,
      "锡": 4222,
      "键": 4223,
      "镇": 4224,
      "镗": 4225,
      "镜": 4226,
      "長": 4227,
      "长": 4228,
      "門": 4229,
      "閃": 4230,
      "開": 4231,
      "閏": 4232,
      "閒": 4233,
      "間": 4234,
      "関": 4235,
      "閣": 4236,
      "閨": 4237,
      "闇": 4238,
      "闕": 4239,
      "闘": 4240,
      "關": 4241,
      "门": 4242,
      "问": 4243,
      "闯": 4244,
      "阁": 4245,
      "阪": 4246,
      "防": 4247,
      "阳": 4248,
      "阿": 4249,
      "附": 4250,
      "际": 4251,
      "陈": 4252,
      "降": 4253,
      "限": 4254,
      "陛": 4255,
      "院": 4256,
      "陣": 4257,
      "除": 4258,
      "陪": 4259,
      "陳": 4260,
      "陵": 4261,
      "陶": 4262,
      "陸": 4263,
      "険": 4264,
      "陽": 4265,
      "隆": 4266,
      "隊": 4267,
      "階": 4268,
      "隔": 4269,
      "隗": 4270,
      "隠": 4271,
      "隣": 4272,
      "隱": 4273,
      "隴": 4274,
      "隸": 4275,
      "隻": 4276,
      "隼": 4277,
      "雀": 4278,
      "雁": 4279,
      "雄": 4280,
      "集": 4281,
      "雇": 4282,
      "雉": 4283,
      "雎": 4284,
      "雕": 4285,
      "雙": 4286,
      "雛": 4287,
      "雜": 4288,
      "雞": 4289,
      "離": 4290,
      "難": 4291,
      "雨": 4292,
      "雪": 4293,
      "雲": 4294,
      "雳": 4295,
      "零": 4296,
      "雷": 4297,
      "電": 4298,
      "雾": 4299,
      "需": 4300,
      "霆": 4301,
      "震": 4302,
      "霊": 4303,
      "霍": 4304,
      "霖": 4305,
      "霜": 4306,
      "霞": 4307,
      "霧": 4308,
      "霰": 4309,
      "露": 4310,
      "霸": 4311,
      "霹": 4312,
      "靂": 4313,
      "靈": 4314,
      "青": 4315,
      "靖": 4316,
      "静": 4317,
      "非": 4318,
      "靠": 4319,
      "面": 4320,
      "革": 4321,
      "靴": 4322,
      "靼": 4323,
      "鞍": 4324,
      "鞠": 4325,
      "韃": 4326,
      "韋": 4327,
      "韓": 4328,
      "韦": 4329,
      "韩": 4330,
      "韭": 4331,
      "音": 4332,
      "韶": 4333,
      "響": 4334,
      "頃": 4335,
      "項": 4336,
      "順": 4337,
      "須": 4338,
      "頌": 4339,
      "領": 4340,
      "頭": 4341,
      "顆": 4342,
      "題": 4343,
      "額": 4344,
      "顏": 4345,
      "顔": 4346,
      "願": 4347,
      "顯": 4348,
      "项": 4349,
      "顾": 4350,
      "颂": 4351,
      "颊": 4352,
      "颗": 4353,
      "颜": 4354,
      "風": 4355,
      "颪": 4356,
      "颱": 4357,
      "飄": 4358,
      "风": 4359,
      "飛": 4360,
      "飞": 4361,
      "食": 4362,
      "飯": 4363,
      "餅": 4364,
      "養": 4365,
      "餓": 4366,
      "館": 4367,
      "饼": 4368,
      "馆": 4369,
      "馒": 4370,
      "首": 4371,
      "香": 4372,
      "馬": 4373,
      "馮": 4374,
      "駆": 4375,
      "駐": 4376,
      "駒": 4377,
      "駙": 4378,
      "駢": 4379,
      "駿": 4380,
      "騎": 4381,
      "騒": 4382,
      "験": 4383,
      "騭": 4384,
      "騰": 4385,
      "騷": 4386,
      "驁": 4387,
      "驚": 4388,
      "驤": 4389,
      "马": 4390,
      "骨": 4391,
      "骸": 4392,
      "髀": 4393,
      "高": 4394,
      "髪": 4395,
      "鬘": 4396,
      "鬥": 4397,
      "鬪": 4398,
      "鬼": 4399,
      "魂": 4400,
      "魄": 4401,
      "魔": 4402,
      "魚": 4403,
      "魯": 4404,
      "鮑": 4405,
      "鮫": 4406,
      "鮮": 4407,
      "鯖": 4408,
      "鯵": 4409,
      "鰐": 4410,
      "鱀": 4411,
      "鱼": 4412,
      "鲤": 4413,
      "鳥": 4414,
      "鳩": 4415,
      "鳳": 4416,
      "鳴": 4417,
      "鳶": 4418,
      "鴉": 4419,
      "鴣": 4420,
      "鴨": 4421,
      "鴻": 4422,
      "鵡": 4423,
      "鵩": 4424,
      "鵬": 4425,
      "鶍": 4426,
      "鶴": 4427,
      "鷓": 4428,
      "鷹": 4429,
      "鷺": 4430,
      "鸚": 4431,
      "鸟": 4432,
      "鸡": 4433,
      "鸭": 4434,
      "鸿": 4435,
      "鹅": 4436,
      "鹹": 4437,
      "鹼": 4438,
      "鹽": 4439,
      "鹿": 4440,
      "麗": 4441,
      "麥": 4442,
      "麵": 4443,
      "麻": 4444,
      "麾": 4445,
      "黃": 4446,
      "黄": 4447,
      "黎": 4448,
      "黑": 4449,
      "黒": 4450,
      "黙": 4451,
      "黛": 4452,
      "黨": 4453,
      "鼉": 4454,
      "鼎": 4455,
      "鼓": 4456,
      "鼠": 4457,
      "鼻": 4458,
      "齉": 4459,
      "齊": 4460,
      "齋": 4461,
      "齐": 4462,
      "龍": 4463,
      "龙": 4464,
      "ꜜ": 4465,
      "ꜣ": 4466,
      "ꞅ": 4467,
      "Ʞ": 4468,
      "ꞵ": 4469,
      "ꦂ": 4470,
      "ꦠ": 4471,
      "ꦯ": 4472,
      "ꦲ": 4473,
      "ꦸ": 4474,
      "ꭓ": 4475,
      "가": 4476,
      "간": 4477,
      "강": 4478,
      "개": 4479,
      "거": 4480,
      "건": 4481,
      "경": 4482,
      "계": 4483,
      "고": 4484,
      "공": 4485,
      "관": 4486,
      "광": 4487,
      "구": 4488,
      "국": 4489,
      "권": 4490,
      "귀": 4491,
      "그": 4492,
      "근": 4493,
      "글": 4494,
      "금": 4495,
      "급": 4496,
      "기": 4497,
      "김": 4498,
      "꺼": 4499,
      "껐": 4500,
      "나": 4501,
      "날": 4502,
      "남": 4503,
      "났": 4504,
      "내": 4505,
      "너": 4506,
      "네": 4507,
      "념": 4508,
      "노": 4509,
      "놔": 4510,
      "눈": 4511,
      "늬": 4512,
      "다": 4513,
      "단": 4514,
      "대": 4515,
      "더": 4516,
      "도": 4517,
      "독": 4518,
      "동": 4519,
      "디": 4520,
      "딱": 4521,
      "라": 4522,
      "람": 4523,
      "래": 4524,
      "런": 4525,
      "렌": 4526,
      "려": 4527,
      "렬": 4528,
      "로": 4529,
      "록": 4530,
      "론": 4531,
      "루": 4532,
      "류": 4533,
      "르": 4534,
      "를": 4535,
      "리": 4536,
      "립": 4537,
      "마": 4538,
      "막": 4539,
      "만": 4540,
      "말": 4541,
      "명": 4542,
      "목": 4543,
      "무": 4544,
      "문": 4545,
      "물": 4546,
      "미": 4547,
      "민": 4548,
      "믿": 4549,
      "바": 4550,
      "박": 4551,
      "방": 4552,
      "백": 4553,
      "뱅": 4554,
      "버": 4555,
      "범": 4556,
      "법": 4557,
      "별": 4558,
      "병": 4559,
      "보": 4560,
      "복": 4561,
      "봐": 4562,
      "부": 4563,
      "불": 4564,
      "붉": 4565,
      "빅": 4566,
      "빙": 4567,
      "빤": 4568,
      "뿐": 4569,
      "사": 4570,
      "산": 4571,
      "살": 4572,
      "삼": 4573,
      "상": 4574,
      "새": 4575,
      "색": 4576,
      "서": 4577,
      "성": 4578,
      "센": 4579,
      "소": 4580,
      "수": 4581,
      "순": 4582,
      "술": 4583,
      "숫": 4584,
      "스": 4585,
      "시": 4586,
      "식": 4587,
      "신": 4588,
      "실": 4589,
      "아": 4590,
      "안": 4591,
      "암": 4592,
      "앙": 4593,
      "애": 4594,
      "야": 4595,
      "양": 4596,
      "어": 4597,
      "에": 4598,
      "엔": 4599,
      "연": 4600,
      "영": 4601,
      "예": 4602,
      "오": 4603,
      "온": 4604,
      "왜": 4605,
      "용": 4606,
      "운": 4607,
      "울": 4608,
      "원": 4609,
      "위": 4610,
      "유": 4611,
      "은": 4612,
      "을": 4613,
      "음": 4614,
      "의": 4615,
      "이": 4616,
      "인": 4617,
      "일": 4618,
      "자": 4619,
      "장": 4620,
      "재": 4621,
      "적": 4622,
      "전": 4623,
      "점": 4624,
      "정": 4625,
      "제": 4626,
      "조": 4627,
      "종": 4628,
      "좋": 4629,
      "주": 4630,
      "줄": 4631,
      "중": 4632,
      "지": 4633,
      "진": 4634,
      "집": 4635,
      "짓": 4636,
      "징": 4637,
      "차": 4638,
      "천": 4639,
      "청": 4640,
      "체": 4641,
      "쳐": 4642,
      "초": 4643,
      "춘": 4644,
      "커": 4645,
      "코": 4646,
      "타": 4647,
      "태": 4648,
      "터": 4649,
      "퇴": 4650,
      "투": 4651,
      "특": 4652,
      "파": 4653,
      "판": 4654,
      "퍼": 4655,
      "평": 4656,
      "표": 4657,
      "풍": 4658,
      "피": 4659,
      "하": 4660,
      "학": 4661,
      "한": 4662,
      "합": 4663,
      "해": 4664,
      "행": 4665,
      "향": 4666,
      "허": 4667,
      "헬": 4668,
      "호": 4669,
      "혹": 4670,
      "화": 4671,
      "회": 4672,
      "후": 4673,
      "희": 4674,
      "ﬁ": 4675,
      "ﬂ": 4676,
      "ﮭ": 4677,
      "ﮮ": 4678,
      "ﷲ": 4679,
      "ﷺ": 4680,
      "️": 4681,
      "︠": 4682,
      "︡": 4683,
      "ﺒ": 4684,
      "ﻉ": 4685,
      "ﻔ": 4686,
      "ﻴ": 4687,
      "﻿": 4688,
      "！": 4689,
      "％": 4690,
      "＆": 4691,
      "（": 4692,
      "）": 4693,
      "，": 4694,
      "－": 4695,
      "／": 4696,
      "１": 4697,
      "２": 4698,
      "３": 4699,
      "４": 4700,
      "６": 4701,
      "：": 4702,
      "＜": 4703,
      "＝": 4704,
      "＞": 4705,
      "？": 4706,
      "Ａ": 4707,
      "Ｃ": 4708,
      "Ｄ": 4709,
      "Ｇ": 4710,
      "Ｉ": 4711,
      "Ｊ": 4712,
      "Ｌ": 4713,
      "Ｍ": 4714,
      "Ｐ": 4715,
      "Ｒ": 4716,
      "Ｘ": 4717,
      "［": 4718,
      "］": 4719,
      "｜": 4720,
      "～": 4721,
      "｢": 4722,
      "｣": 4723,
      "･": 4724,
      "ｰ": 4725,
      "￥": 4726,
      "�": 4727,
      "𐀁": 4728,
      "𐀈": 4729,
      "𐀫": 4730,
      "𐎠": 4731,
      "𐎢": 4732,
      "𐎭": 4733,
      "𐎰": 4734,
      "𐎹": 4735,
      "𐎺": 4736,
      "𐎼": 4737,
      "𐏁": 4738,
      "𐭃": 4739,
      "𐭉": 4740,
      "𐭓": 4741,
      "𐭕": 4742,
      "𒀯": 4743,
      "𒀳": 4744,
      "e ": 4745,
      "s ": 4746,
      "th": 4747,
      "d ": 4748,
      "n ": 4749,
      "er": 4750,
      "t ": 4751,
      "the ": 4752,
      "in": 4753,
      "an": 4754,
      ", ": 4755,
      "y ": 4756,
      "ed ": 4757,
      "or": 4758,
      ". ": 4759,
      "ar": 4760,
      "al": 4761,
      "o ": 4762,
      "re": 4763,
      "f ": 4764,
      "ti": 4765,
      "en": 4766,
      "er ": 4767,
      "on": 4768,
      "g ": 4769,
      "and ": 4770,
      "a ": 4771,
      "of ": 4772,
      "on ": 4773,
      "ing ": 4774,
      "in ": 4775,
      "ou": 4776,
      "to ": 4777,
      "as ": 4778,
      "st": 4779,
      "at": 4780,
      "es ": 4781,
      "ic": 4782,
      "ro": 4783,
      "m ": 4784,
      "el": 4785,
      "il": 4786,
      " , ": 4787,
      "ac": 4788,
      "it": 4789,
      "is ": 4790,
      "he ": 4791,
      "at ": 4792,
      "an ": 4793,
      "is": 4794,
      "al ": 4795,
      "h ": 4796,
      "\" ": 4797,
      "for": 4798,
      "th ": 4799,
      "@ ": 4800,
      "as": 4801,
      "ur": 4802,
      "ec": 4803,
      "es": 4804,
      "was ": 4805,
      "om": 4806,
      "am": 4807,
      "ol": 4808,
      "en ": 4809,
      "ir": 4810,
      "ly ": 4811,
      "tion ": 4812,
      "ow": 4813,
      "si": 4814,
      "ri": 4815,
      "-@ ": 4816,
      "@-@ ": 4817,
      "The ": 4818,
      "wh": 4819,
      "of the ": 4820,
      "wi": 4821,
      "ad": 4822,
      "em": 4823,
      "l ": 4824,
      "ch": 4825,
      "k ": 4826,
      "'s ": 4827,
      "un": 4828,
      "pl": 4829,
      "that ": 4830,
      "us": 4831,
      "for ": 4832,
      "di": 4833,
      "ag": 4834,
      ". \n": 4835,
      "ha": 4836,
      "ev": 4837,
      "ent ": 4838,
      "by ": 4839,
      "with ": 4840,
      "ve ": 4841,
      "ig": 4842,
      "et": 4843,
      "con": 4844,
      "s , ": 4845,
      "os": 4846,
      "ere ": 4847,
      "ent": 4848,
      "le": 4849,
      "su": 4850,
      ". The ": 4851,
      "ra": 4852,
      "e , ": 4853,
      "in the ": 4854,
      "0 ": 4855,
      "( ": 4856,
      "li": 4857,
      "19": 4858,
      "op": 4859,
      "his ": 4860,
      "pro": 4861,
      "or ": 4862,
      "ov": 4863,
      "le ": 4864,
      "be": 4865,
      "oun": 4866,
      "ear": 4867,
      "ab": 4868,
      "com": 4869,
      "bu": 4870,
      "ers ": 4871,
      "hi": 4872,
      "ce ": 4873,
      "the": 4874,
      "ex": 4875,
      "ap": 4876,
      "rom ": 4877,
      "it ": 4878,
      "from ": 4879,
      "ted ": 4880,
      "ul": 4881,
      "tion": 4882,
      "ation ": 4883,
      ") ": 4884,
      "ay ": 4885,
      "ep": 4886,
      "oc": 4887,
      "ter ": 4888,
      "cl": 4889,
      "id": 4890,
      "ew": 4891,
      "sp": 4892,
      "20": 4893,
      "were ": 4894,
      ". I": 4895,
      "to the ": 4896,
      "im": 4897,
      "uc": 4898,
      "st ": 4899,
      "ther ": 4900,
      "p ": 4901,
      "tr": 4902,
      "our": 4903,
      "qu": 4904,
      "oo": 4905,
      "tic": 4906,
      "se": 4907,
      "ts ": 4908,
      "ter": 4909,
      ". A": 4910,
      "ea": 4911,
      "ated ": 4912,
      "per": 4913,
      "ff": 4914,
      "pre": 4915,
      "ate ": 4916,
      "sh": 4917,
      "ay": 4918,
      "ain": 4919,
      "no": 4920,
      "had ": 4921,
      "ity ": 4922,
      "ing": 4923,
      "ich ": 4924,
      "ed the ": 4925,
      "ic ": 4926,
      "ar ": 4927,
      "igh": 4928,
      "ld ": 4929,
      ", and ": 4930,
      "ing the ": 4931,
      "rec": 4932,
      "oug": 4933,
      "ed to ": 4934,
      "ir ": 4935,
      "which ": 4936,
      "iv": 4937,
      "um": 4938,
      "ds ": 4939,
      "ame ": 4940,
      "ch ": 4941,
      "e of ": 4942,
      "ak": 4943,
      "est ": 4944,
      "par": 4945,
      "1 ": 4946,
      "ber ": 4947,
      "str": 4948,
      "be ": 4949,
      "ally ": 4950,
      "5 ": 4951,
      "St": 4952,
      "ud": 4953,
      "out ": 4954,
      "ed by ": 4955,
      ". H": 4956,
      "2 ": 4957,
      "are ": 4958,
      "all": 4959,
      "so ": 4960,
      "ed": 4961,
      "od": 4962,
      "all ": 4963,
      "fir": 4964,
      ". T": 4965,
      "av": 4966,
      "one ": 4967,
      "ies ": 4968,
      "et ": 4969,
      "tim": 4970,
      "ong ": 4971,
      "est": 4972,
      "on the ": 4973,
      "ation": 4974,
      "its ": 4975,
      "ary ": 4976,
      "man": 4977,
      "wor": 4978,
      "por": 4979,
      "but ": 4980,
      "po": 4981,
      "ew ": 4982,
      "3 ": 4983,
      "bl": 4984,
      "tur": 4985,
      "att": 4986,
      "Ch": 4987,
      "ould ": 4988,
      "4 ": 4989,
      "not ": 4990,
      "ow ": 4991,
      "her ": 4992,
      "ser": 4993,
      "fter ": 4994,
      "el ": 4995,
      "s and ": 4996,
      "tw": 4997,
      ". In ": 4998,
      "ran": 4999,
      "own ": 5000,
      "der ": 5001,
      "we": 5002,
      "sc": 5003,
      "first ": 5004,
      "ard ": 5005,
      "ot": 5006,
      "ge ": 5007,
      "their ": 5008,
      "; ": 5009,
      "de": 5010,
      ", the ": 5011,
      "6 ": 5012,
      "200": 5013,
      "og": 5014,
      "ine ": 5015,
      "ed in ": 5016,
      "ding ": 5017,
      "ough ": 5018,
      "also ": 5019,
      "for the ": 5020,
      "i ": 5021,
      "cont": 5022,
      "ost ": 5023,
      "8 ": 5024,
      "ast ": 5025,
      "s of ": 5026,
      "vi": 5027,
      "7 ": 5028,
      "oll": 5029,
      "ore ": 5030,
      "sid": 5031,
      "other ": 5032,
      "00 ": 5033,
      "ment ": 5034,
      "ound ": 5035,
      "have ": 5036,
      "id ": 5037,
      "ain ": 5038,
      "and the ": 5039,
      "ut": 5040,
      " The ": 5041,
      "ill": 5042,
      "fi": 5043,
      "fl": 5044,
      "e the ": 5045,
      "bec": 5046,
      "two ": 5047,
      "dis": 5048,
      "ion ": 5049,
      "es , ": 5050,
      ".@ ": 5051,
      "@.@ ": 5052,
      "aw": 5053,
      "er , ": 5054,
      "who ": 5055,
      "bo": 5056,
      "shi": 5057,
      "been ": 5058,
      "ack ": 5059,
      ". S": 5060,
      "ver": 5061,
      "has ": 5062,
      "end": 5063,
      "ely ": 5064,
      "sec": 5065,
      "gr": 5066,
      "– ": 5067,
      "over": 5068,
      ",@ ": 5069,
      "@,@ ": 5070,
      "ru": 5071,
      "ey ": 5072,
      "this ": 5073,
      "ia ": 5074,
      "duc": 5075,
      "des": 5076,
      "ph": 5077,
      "age ": 5078,
      "tive ": 5079,
      "au": 5080,
      "year": 5081,
      "ting ": 5082,
      "stor": 5083,
      "clud": 5084,
      "ome ": 5085,
      "ass": 5086,
      "at the ": 5087,
      "ob": 5088,
      ". \" ": 5089,
      "comm": 5090,
      "mil": 5091,
      "9 ": 5092,
      "ell": 5093,
      "form": 5094,
      "pr": 5095,
      "I ": 5096,
      "ence ": 5097,
      "cre": 5098,
      "ember ": 5099,
      "they ": 5100,
      "fin": 5101,
      "ant ": 5102,
      "201": 5103,
      "18": 5104,
      ": ": 5105,
      " , and ": 5106,
      "with the ": 5107,
      "our ": 5108,
      "and": 5109,
      "ous ": 5110,
      "min": 5111,
      "' ": 5112,
      "from the ": 5113,
      "ight ": 5114,
      "after ": 5115,
      "ater ": 5116,
      "ish": 5117,
      "ue ": 5118,
      ". He ": 5119,
      "ack": 5120,
      "includ": 5121,
      "sion ": 5122,
      "fe": 5123,
      "would ": 5124,
      "Un": 5125,
      "Mar": 5126,
      "us ": 5127,
      "land ": 5128,
      "ad ": 5129,
      "pe": 5130,
      "able ": 5131,
      "y , ": 5132,
      "as a ": 5133,
      "ical ": 5134,
      "il ": 5135,
      "over ": 5136,
      "res": 5137,
      "rit": 5138,
      "ed a ": 5139,
      "son ": 5140,
      "me": 5141,
      "ell ": 5142,
      "se ": 5143,
      "ial ": 5144,
      "ree ": 5145,
      ". Th": 5146,
      "ast": 5147,
      "ian ": 5148,
      "ft ": 5149,
      "play": 5150,
      "In": 5151,
      "eral ": 5152,
      " , the ": 5153,
      "pres": 5154,
      "ents ": 5155,
      "fil": 5156,
      "ess ": 5157,
      "ren": 5158,
      "rem": 5159,
      "char": 5160,
      "eg": 5161,
      " @-@ ": 5162,
      "cri": 5163,
      "man ": 5164,
      "ade ": 5165,
      "inter": 5166,
      "pos": 5167,
      "pu": 5168,
      "iz": 5169,
      "gu": 5170,
      "enc": 5171,
      "ern ": 5172,
      "more ": 5173,
      ". B": 5174,
      ". O": 5175,
      "off": 5176,
      " A": 5177,
      "mer": 5178,
      "ess": 5179,
      "spec": 5180,
      "ty ": 5181,
      "that the ": 5182,
      "anc": 5183,
      "up ": 5184,
      "ese ": 5185,
      "bet": 5186,
      "ice ": 5187,
      "ann": 5188,
      "ace ": 5189,
      "ates ": 5190,
      "ht ": 5191,
      "ke ": 5192,
      "ons ": 5193,
      "ust ": 5194,
      "most ": 5195,
      "ance ": 5196,
      "tic ": 5197,
      "ile ": 5198,
      "kn": 5199,
      "when ": 5200,
      "time ": 5201,
      "dec": 5202,
      "a , ": 5203,
      "mar": 5204,
      "ond ": 5205,
      "x ": 5206,
      "him ": 5207,
      "she ": 5208,
      "der": 5209,
      ". It ": 5210,
      "dur": 5211,
      ". W": 5212,
      "int": 5213,
      "serv": 5214,
      "Au": 5215,
      "only ": 5216,
      "ong": 5217,
      "ach": 5218,
      "as the ": 5219,
      "iti": 5220,
      "ited ": 5221,
      "ite ": 5222,
      "ks ": 5223,
      "um ": 5224,
      "aus": 5225,
      "sur": 5226,
      "in 19": 5227,
      "lar": 5228,
      "t of ": 5229,
      ") , ": 5230,
      "car": 5231,
      "ist": 5232,
      "cent": 5233,
      "vid": 5234,
      "thr": 5235,
      "than ": 5236,
      "sa": 5237,
      "reg": 5238,
      "ish ": 5239,
      "old ": 5240,
      "co": 5241,
      "ween ": 5242,
      "sev": 5243,
      "end ": 5244,
      "about ": 5245,
      "An": 5246,
      "cor": 5247,
      "tra": 5248,
      "row": 5249,
      "tor": 5250,
      "mon": 5251,
      "ased ": 5252,
      "way ": 5253,
      "te ": 5254,
      "between ": 5255,
      " I": 5256,
      "ans ": 5257,
      "ric": 5258,
      "ason ": 5259,
      "sy": 5260,
      "ations ": 5261,
      "pan": 5262,
      "En": 5263,
      "ship ": 5264,
      "Ar": 5265,
      "Al": 5266,
      "atur": 5267,
      "enti": 5268,
      "ist ": 5269,
      "sel": 5270,
      "ook ": 5271,
      "ton ": 5272,
      "of": 5273,
      "ood ": 5274,
      "ple ": 5275,
      "to": 5276,
      "rele": 5277,
      "up": 5278,
      "num": 5279,
      "ang": 5280,
      "air": 5281,
      "amp": 5282,
      "rel": 5283,
      "te": 5284,
      "three ": 5285,
      "king ": 5286,
      "am ": 5287,
      "Th": 5288,
      ". M": 5289,
      "ill ": 5290,
      "ach ": 5291,
      "tions ": 5292,
      "ning ": 5293,
      "ollow": 5294,
      "in a ": 5295,
      "into ": 5296,
      "produc": 5297,
      "nor": 5298,
      "gen": 5299,
      "to be ": 5300,
      "new ": 5301,
      "tiv": 5302,
      ". D": 5303,
      "sub": 5304,
      "\" , ": 5305,
      "@,@ 0": 5306,
      "tis": 5307,
      "evel": 5308,
      ". F": 5309,
      "meric": 5310,
      "if": 5311,
      "beg": 5312,
      "where ": 5313,
      "ber": 5314,
      "game ": 5315,
      "ed , ": 5316,
      "t , ": 5317,
      "res ": 5318,
      "ail": 5319,
      "ose ": 5320,
      "ind": 5321,
      "ake ": 5322,
      "rig": 5323,
      "app": 5324,
      "Americ": 5325,
      "writ": 5326,
      "coun": 5327,
      "ational ": 5328,
      "though ": 5329,
      "als ": 5330,
      "A ": 5331,
      "hel": 5332,
      "sig": 5333,
      "fu": 5334,
      "ating ": 5335,
      "eb": 5336,
      "ten ": 5337,
      "later ": 5338,
      "ement ": 5339,
      "film ": 5340,
      "ard": 5341,
      "ous": 5342,
      "op ": 5343,
      "recor": 5344,
      "ry ": 5345,
      "buil": 5346,
      "riv": 5347,
      "oy": 5348,
      "vis": 5349,
      "mus": 5350,
      "ned ": 5351,
      "loc": 5352,
      "s , and ": 5353,
      " In ": 5354,
      "ub": 5355,
      "ked ": 5356,
      "befor": 5357,
      "season ": 5358,
      "es and ": 5359,
      "such ": 5360,
      "tit": 5361,
      "ings ": 5362,
      "by the ": 5363,
      "inc": 5364,
      "re ": 5365,
      "S ": 5366,
      "Jo": 5367,
      "struc": 5368,
      "Par": 5369,
      "pp": 5370,
      "eng": 5371,
      "ase ": 5372,
      "@,@ 000 ": 5373,
      "ot ": 5374,
      "Com": 5375,
      "cap": 5376,
      "es of ": 5377,
      "with a ": 5378,
      "pol": 5379,
      "mo": 5380,
      "ma": 5381,
      "owev": 5382,
      "them ": 5383,
      "Nor": 5384,
      "he": 5385,
      "albu": 5386,
      "publ": 5387,
      "made ": 5388,
      "ected ": 5389,
      "then ": 5390,
      "ead ": 5391,
      "ste": 5392,
      "sl": 5393,
      "199": 5394,
      "isod": 5395,
      "outh ": 5396,
      "ing a ": 5397,
      "eam ": 5398,
      "compl": 5399,
      "while ": 5400,
      "om ": 5401,
      "ps ": 5402,
      "follow": 5403,
      "ainst ": 5404,
      "mat": 5405,
      "New ": 5406,
      "episod": 5407,
      "with": 5408,
      "ble ": 5409,
      "through ": 5410,
      "day ": 5411,
      "Bri": 5412,
      "ea ": 5413,
      "second ": 5414,
      "ros": 5415,
      "star": 5416,
      "fac": 5417,
      "ear ": 5418,
      "ol ": 5419,
      "ed that ": 5420,
      "against ": 5421,
      "sup": 5422,
      "inv": 5423,
      "cho": 5424,
      "mis": 5425,
      "ant": 5426,
      "many ": 5427,
      "well ": 5428,
      "Con": 5429,
      "les ": 5430,
      "br": 5431,
      "charac": 5432,
      "some ": 5433,
      "became ": 5434,
      "can ": 5435,
      "nam": 5436,
      "/ ": 5437,
      "tri": 5438,
      "arm": 5439,
      "album ": 5440,
      "song ": 5441,
      "lin": 5442,
      "call": 5443,
      "cur": 5444,
      "it was ": 5445,
      "gl": 5446,
      "ari": 5447,
      "he was ": 5448,
      "there ": 5449,
      "no ": 5450,
      "number ": 5451,
      ". This ": 5452,
      "posi": 5453,
      "ily ": 5454,
      "mov": 5455,
      "ect ": 5456,
      "sing": 5457,
      "early ": 5458,
      "ince ": 5459,
      "both ": 5460,
      "C ": 5461,
      "cc": 5462,
      "mp": 5463,
      "fer": 5464,
      "being ": 5465,
      "gre": 5466,
      "ed by the ": 5467,
      "series ": 5468,
      "de ": 5469,
      "ne": 5470,
      "poin": 5471,
      "— ": 5472,
      "United ": 5473,
      "known ": 5474,
      "work ": 5475,
      "tion of ": 5476,
      "dep": 5477,
      "sist": 5478,
      "devel": 5479,
      "lion ": 5480,
      "iver": 5481,
      "contin": 5482,
      "lan": 5483,
      "ed in the ": 5484,
      "sul": 5485,
      "bel": 5486,
      "Joh": 5487,
      "direc": 5488,
      "ris": 5489,
      "ip": 5490,
      "succ": 5491,
      "adi": 5492,
      "lo": 5493,
      "is a ": 5494,
      "four ": 5495,
      "under ": 5496,
      "e , and ": 5497,
      "plac": 5498,
      "ards ": 5499,
      "e and ": 5500,
      "said ": 5501,
      "team ": 5502,
      "peri": 5503,
      "orig": 5504,
      "ision ": 5505,
      "ays ": 5506,
      "w ": 5507,
      "ual ": 5508,
      "ered ": 5509,
      "ower ": 5510,
      "sm": 5511,
      "diff": 5512,
      "til": 5513,
      "rece": 5514,
      "any ": 5515,
      "col": 5516,
      ". A ": 5517,
      "several ": 5518,
      "overn": 5519,
      "cer": 5520,
      "10 ": 5521,
      "yp": 5522,
      "before ": 5523,
      "did ": 5524,
      "high": 5525,
      "could ": 5526,
      "Le": 5527,
      "bro": 5528,
      "ef": 5529,
      "desig": 5530,
      "ames ": 5531,
      "ually ": 5532,
      "develop": 5533,
      "Ger": 5534,
      "ought ": 5535,
      "appear": 5536,
      "out": 5537,
      "began ": 5538,
      "tran": 5539,
      "retur": 5540,
      "sk": 5541,
      "ury ": 5542,
      "origin": 5543,
      "rop": 5544,
      "ion": 5545,
      "az": 5546,
      "self ": 5547,
      "til ": 5548,
      "during the ": 5549,
      "tish ": 5550,
      "olog": 5551,
      "years ": 5552,
      "ound": 5553,
      "y of ": 5554,
      "Car": 5555,
      "American ": 5556,
      "igh ": 5557,
      "ters ": 5558,
      "org": 5559,
      "ept": 5560,
      "owever , ": 5561,
      "acc": 5562,
      ". On ": 5563,
      "Sh": 5564,
      ", but ": 5565,
      "view": 5566,
      ". R": 5567,
      "offic": 5568,
      ". P": 5569,
      "sol": 5570,
      "ed on ": 5571,
      "ative ": 5572,
      "go": 5573,
      "ation of ": 5574,
      "Wor": 5575,
      "tor ": 5576,
      "ave ": 5577,
      "until ": 5578,
      "Ju": 5579,
      "win": 5580,
      "ward ": 5581,
      "was the ": 5582,
      "ale ": 5583,
      "tak": 5584,
      "s the ": 5585,
      "oci": 5586,
      "receiv": 5587,
      "fam": 5588,
      "t the ": 5589,
      "year ": 5590,
      "17": 5591,
      "forc": 5592,
      ". L": 5593,
      "line ": 5594,
      "ture ": 5595,
      "descri": 5596,
      "dre": 5597,
      "pop": 5598,
      "k , ": 5599,
      "grou": 5600,
      "tly ": 5601,
      "tical ": 5602,
      "ne ": 5603,
      "oper": 5604,
      "bor": 5605,
      "ery ": 5606,
      "Oc": 5607,
      "off ": 5608,
      "ass ": 5609,
      "leg": 5610,
      " S": 5611,
      "suppor": 5612,
      ". Wh": 5613,
      "ular ": 5614,
      "had been ": 5615,
      "ron": 5616,
      "ing to ": 5617,
      "194": 5618,
      "million ": 5619,
      "ed for ": 5620,
      "was a ": 5621,
      "back ": 5622,
      "emp": 5623,
      "ther": 5624,
      "ors ": 5625,
      "ed and ": 5626,
      "sign": 5627,
      "ten": 5628,
      "ever ": 5629,
      "ner ": 5630,
      "ond": 5631,
      "$ ": 5632,
      "1 , ": 5633,
      "found ": 5634,
      "these ": 5635,
      "mod": 5636,
      "Wh": 5637,
      "my ": 5638,
      "peo": 5639,
      "continu": 5640,
      "ort ": 5641,
      "remain": 5642,
      "ou ": 5643,
      "including ": 5644,
      "Cl": 5645,
      "Gre": 5646,
      "eld ": 5647,
      "pri": 5648,
      "tain": 5649,
      "British ": 5650,
      "side ": 5651,
      "lif": 5652,
      "abl": 5653,
      "took ": 5654,
      "ird ": 5655,
      " B": 5656,
      "bre": 5657,
      "t of the ": 5658,
      "m ) ": 5659,
      "a f": 5660,
      "long ": 5661,
      "emb": 5662,
      "requ": 5663,
      "ed with ": 5664,
      "mi": 5665,
      "sive ": 5666,
      "becaus": 5667,
      "stri": 5668,
      "ley ": 5669,
      "Wil": 5670,
      "ures ": 5671,
      "ing , ": 5672,
      ". After ": 5673,
      "eptember ": 5674,
      "Col": 5675,
      "same ": 5676,
      "198": 5677,
      "ful ": 5678,
      "Jun": 5679,
      "September ": 5680,
      "ey": 5681,
      "20 ": 5682,
      "around ": 5683,
      "0 , ": 5684,
      "like ": 5685,
      " and ": 5686,
      "resul": 5687,
      "ick": 5688,
      "do": 5689,
      " ) ": 5690,
      "each ": 5691,
      "episode ": 5692,
      "e , the ": 5693,
      "may ": 5694,
      "wee": 5695,
      "govern": 5696,
      "batt": 5697,
      "od ": 5698,
      "ali": 5699,
      "tional ": 5700,
      "ory ": 5701,
      "form ": 5702,
      "es to ": 5703,
      "United St": 5704,
      "play ": 5705,
      "Sc": 5706,
      "met": 5707,
      "enn": 5708,
      "red ": 5709,
      "ich": 5710,
      "pass": 5711,
      "ted to ": 5712,
      "2 , ": 5713,
      "ash": 5714,
      "ie ": 5715,
      "down ": 5716,
      ", which ": 5717,
      "repor": 5718,
      "of a ": 5719,
      "histor": 5720,
      "gust ": 5721,
      "describ": 5722,
      "Austr": 5723,
      "compan": 5724,
      "5 , ": 5725,
      "ens": 5726,
      "bri": 5727,
      "bur": 5728,
      "s to ": 5729,
      "s in ": 5730,
      "ed as ": 5731,
      "mak": 5732,
      "state ": 5733,
      "jo": 5734,
      "along ": 5735,
      "ving ": 5736,
      "50 ": 5737,
      "ection ": 5738,
      "Nov": 5739,
      "into the ": 5740,
      "such as ": 5741,
      "lead": 5742,
      "Bl": 5743,
      "tain ": 5744,
      "stem ": 5745,
      "music ": 5746,
      "Jan": 5747,
      "4 , ": 5748,
      "a and ": 5749,
      ". E": 5750,
      "August ": 5751,
      "ath": 5752,
      "tober ": 5753,
      "ently ": 5754,
      "October ": 5755,
      "ity of ": 5756,
      "eff": 5757,
      "per ": 5758,
      "is the ": 5759,
      "def": 5760,
      "Fran": 5761,
      "uch ": 5762,
      "five ": 5763,
      "3 , ": 5764,
      "ately ": 5765,
      "air ": 5766,
      "try ": 5767,
      "appro": 5768,
      "have been ": 5769,
      "war": 5770,
      "disc": 5771,
      "s , the ": 5772,
      "one of the ": 5773,
      "s were ": 5774,
      "World ": 5775,
      "sou": 5776,
      "196": 5777,
      "maj": 5778,
      "ven": 5779,
      "me ": 5780,
      "197": 5781,
      "own": 5782,
      "Har": 5783,
      "al , ": 5784,
      "people ": 5785,
      "ough": 5786,
      "John ": 5787,
      "under": 5788,
      "May ": 5789,
      "som": 5790,
      "national ": 5791,
      "aw ": 5792,
      "ech": 5793,
      "for a ": 5794,
      "30 ": 5795,
      "giv": 5796,
      " O": 5797,
      "led ": 5798,
      "contro": 5799,
      "band ": 5800,
      "complet": 5801,
      "Dec": 5802,
      "thern ": 5803,
      "ure ": 5804,
      "u ": 5805,
      "act ": 5806,
      "dra": 5807,
      "men ": 5808,
      "during ": 5809,
      "ying ": 5810,
      "sion": 5811,
      "Yor": 5812,
      "\" and ": 5813,
      "consid": 5814,
      "run": 5815,
      ". C": 5816,
      "caus": 5817,
      "partic": 5818,
      "es in ": 5819,
      "hal": 5820,
      "ivers": 5821,
      "high ": 5822,
      ". Al": 5823,
      "af": 5824,
      "ounc": 5825,
      "ful": 5826,
      "det": 5827,
      "resp": 5828,
      "6 , ": 5829,
      "gra": 5830,
      "vari": 5831,
      ". They ": 5832,
      "July ": 5833,
      "ext ": 5834,
      "Austral": 5835,
      "November ": 5836,
      "o , ": 5837,
      "United States ": 5838,
      "did not ": 5839,
      "since ": 5840,
      "sequ": 5841,
      "Sp": 5842,
      " M": 5843,
      "open": 5844,
      "dam": 5845,
      "set ": 5846,
      ". In the ": 5847,
      "ah": 5848,
      "For": 5849,
      "Can": 5850,
      "incre": 5851,
      "a 's ": 5852,
      "ished ": 5853,
      "bi": 5854,
      ". N": 5855,
      "larg": 5856,
      "provid": 5857,
      "du": 5858,
      "coll": 5859,
      "ism ": 5860,
      "area ": 5861,
      "uary ": 5862,
      "even ": 5863,
      "Apr": 5864,
      "to a ": 5865,
      "12 ": 5866,
      "what ": 5867,
      "tre": 5868,
      "os ": 5869,
      ". \" \n": 5870,
      "used ": 5871,
      "left ": 5872,
      "scho": 5873,
      "dr": 5874,
      "ets ": 5875,
      "will ": 5876,
      "due ": 5877,
      " \" ": 5878,
      "dem": 5879,
      "er and ": 5880,
      "if ": 5881,
      "cul": 5882,
      "differ": 5883,
      "Gu": 5884,
      "15 ": 5885,
      "ouse ": 5886,
      "now ": 5887,
      "rais": 5888,
      "bas": 5889,
      "ire ": 5890,
      "cas": 5891,
      "Fl": 5892,
      "eo ": 5893,
      "medi": 5894,
      "has been ": 5895,
      "inst": 5896,
      "es the ": 5897,
      "chil": 5898,
      "another ": 5899,
      "dition ": 5900,
      "expl": 5901,
      "gg": 5902,
      "much ": 5903,
      "Eu": 5904,
      "fun": 5905,
      "ane ": 5906,
      "large ": 5907,
      "udi": 5908,
      "released ": 5909,
      "ick ": 5910,
      "show ": 5911,
      "cla": 5912,
      " 's ": 5913,
      "ign ": 5914,
      "adv": 5915,
      "Indi": 5916,
      "December ": 5917,
      "..": 5918,
      "wro": 5919,
      "place ": 5920,
      "dea": 5921,
      "west ": 5922,
      "aug": 5923,
      "third ": 5924,
      "character ": 5925,
      "gener": 5926,
      "cour": 5927,
      "ive ": 5928,
      "lim": 5929,
      "cording ": 5930,
      "single ": 5931,
      " D": 5932,
      "very ": 5933,
      "Ge": 5934,
      "es were ": 5935,
      "sum": 5936,
      "Ph": 5937,
      "ded ": 5938,
      "January ": 5939,
      "ati": 5940,
      "critic": 5941,
      "city ": 5942,
      "system ": 5943,
      "called ": 5944,
      "es ( ": 5945,
      "government ": 5946,
      "June ": 5947,
      "on a ": 5948,
      "itt": 5949,
      ", a ": 5950,
      "ility ": 5951,
      "as well ": 5952,
      "previ": 5953,
      "after the ": 5954,
      "exp": 5955,
      "comp": 5956,
      "vic": 5957,
      "Jap": 5958,
      "Ro": 5959,
      "[ ": 5960,
      "omin": 5961,
      "her": 5962,
      "del": 5963,
      "fa": 5964,
      "US ": 5965,
      "March ": 5966,
      "y and ": 5967,
      "just ": 5968,
      "rev": 5969,
      "final ": 5970,
      "% ": 5971,
      "fur": 5972,
      "April ": 5973,
      "equ": 5974,
      "Gr": 5975,
      "ers , ": 5976,
      "port": 5977,
      "pur": 5978,
      "esp": 5979,
      "] ": 5980,
      "Qu": 5981,
      "pris": 5982,
      "North ": 5983,
      "position ": 5984,
      "ock": 5985,
      ". She ": 5986,
      ", and the ": 5987,
      "ific": 5988,
      "tal": 5989,
      "er 's ": 5990,
      "do ": 5991,
      "son": 5992,
      "ys": 5993,
      "ins ": 5994,
      "till ": 5995,
      "prot": 5996,
      "beli": 5997,
      "species ": 5998,
      ") and ": 5999,
      "resid": 6000,
      "field ": 6001,
      "dge ": 6002,
      "based ": 6003,
      "organ": 6004,
      "group ": 6005,
      "issu": 6006,
      "9 , ": 6007,
      "attemp": 6008,
      "century ": 6009,
      "cu": 6010,
      "hor": 6011,
      "ature ": 6012,
      "ms ": 6013,
      "Bar": 6014,
      "erg": 6015,
      "world ": 6016,
      "ef ": 6017,
      "scor": 6018,
      "flu": 6019,
      "right ": 6020,
      "name ": 6021,
      "arly ": 6022,
      "lat": 6023,
      "ects ": 6024,
      "as \" ": 6025,
      "over the ": 6026,
      "less ": 6027,
      "Pro": 6028,
      "to re": 6029,
      "eav": 6030,
      "z ": 6031,
      "7 , ": 6032,
      "oon ": 6033,
      "Eng": 6034,
      "ties ": 6035,
      "allow": 6036,
      "D ": 6037,
      "releas": 6038,
      "ind ": 6039,
      "cra": 6040,
      "ogra": 6041,
      "War ": 6042,
      "8 , ": 6043,
      "main ": 6044,
      "ext": 6045,
      "la": 6046,
      "ague ": 6047,
      "ether ": 6048,
      "chang": 6049,
      "\" . \n": 6050,
      "can": 6051,
      "thing ": 6052,
      "stud": 6053,
      "scen": 6054,
      "elev": 6055,
      "York ": 6056,
      "ed his ": 6057,
      "II ": 6058,
      "ean ": 6059,
      "still ": 6060,
      "next ": 6061,
      "following ": 6062,
      "record ": 6063,
      "use ": 6064,
      "held ": 6065,
      "pi": 6066,
      "th , ": 6067,
      "show": 6068,
      "last ": 6069,
      "dist": 6070,
      "ebru": 6071,
      "best ": 6072,
      "ball ": 6073,
      ", \" ": 6074,
      "ly": 6075,
      "ebruary ": 6076,
      "some": 6077,
      "'t ": 6078,
      "February ": 6079,
      ". However , ": 6080,
      "forman": 6081,
      "16": 6082,
      "ants ": 6083,
      "11 ": 6084,
      "family ": 6085,
      "aff": 6086,
      "because ": 6087,
      "Mc": 6088,
      "stit": 6089,
      "popul": 6090,
      "ord": 6091,
      "built ": 6092,
      "o @-@ ": 6093,
      "193": 6094,
      "Char": 6095,
      "late ": 6096,
      "main": 6097,
      "fic": 6098,
      "able to ": 6099,
      "South ": 6100,
      "195": 6101,
      "original ": 6102,
      "construc": 6103,
      "although ": 6104,
      "prov": 6105,
      "fri": 6106,
      "eas ": 6107,
      "Cor": 6108,
      "Gen": 6109,
      "near ": 6110,
      "10": 6111,
      "ney ": 6112,
      "initi": 6113,
      "mor": 6114,
      "im ": 6115,
      "ously ": 6116,
      "ock ": 6117,
      "wat": 6118,
      "establ": 6119,
      "town ": 6120,
      "read": 6121,
      "Bo": 6122,
      "reach": 6123,
      "would be ": 6124,
      "kill": 6125,
      "olv": 6126,
      "success": 6127,
      "ation , ": 6128,
      "Fren": 6129,
      "tively ": 6130,
      "b ": 6131,
      "major ": 6132,
      "again ": 6133,
      "wom": 6134,
      "Li": 6135,
      "Mon": 6136,
      " F": 6137,
      "war ": 6138,
      "ended ": 6139,
      "German ": 6140,
      "them": 6141,
      "mag": 6142,
      "home ": 6143,
      "that he ": 6144,
      "proc": 6145,
      "present": 6146,
      "Di": 6147,
      "clos": 6148,
      "poli": 6149,
      "25 ": 6150,
      "of his ": 6151,
      "simil": 6152,
      "tro": 6153,
      "ities ": 6154,
      "on , ": 6155,
      "get ": 6156,
      "auth": 6157,
      ". It was ": 6158,
      "hum": 6159,
      "number of ": 6160,
      "performan": 6161,
      "water ": 6162,
      "ett": 6163,
      "small ": 6164,
      "eal": 6165,
      "cep": 6166,
      "gam": 6167,
      "north ": 6168,
      "dro": 6169,
      "wrote ": 6170,
      "Ac": 6171,
      "sen": 6172,
      "ships ": 6173,
      "inn": 6174,
      "camp": 6175,
      "often ": 6176,
      "ford ": 6177,
      "18 ": 6178,
      "ug": 6179,
      "six ": 6180,
      "rac": 6181,
      "ing and ": 6182,
      "former ": 6183,
      "version ": 6184,
      "came ": 6185,
      "14 ": 6186,
      "ropical ": 6187,
      "half ": 6188,
      "those ": 6189,
      "roy": 6190,
      "ok": 6191,
      "erc": 6192,
      "ith ": 6193,
      "ina ": 6194,
      "embers ": 6195,
      "National ": 6196,
      "ns ": 6197,
      "itary ": 6198,
      ". As ": 6199,
      "Man": 6200,
      "oute ": 6201,
      "French ": 6202,
      "respon": 6203,
      "16 ": 6204,
      "in his ": 6205,
      "Ma": 6206,
      "received ": 6207,
      ": \" ": 6208,
      "possi": 6209,
      "Ad": 6210,
      "manag": 6211,
      "13 ": 6212,
      "stat": 6213,
      "ands ": 6214,
      "hol": 6215,
      "sch": 6216,
      "storm ": 6217,
      "believ": 6218,
      "100 ": 6219,
      "you ": 6220,
      "role ": 6221,
      "elec": 6222,
      "it is ": 6223,
      "tot": 6224,
      "Willi": 6225,
      "New York ": 6226,
      "yl": 6227,
      "ious ": 6228,
      "ove ": 6229,
      "in 200": 6230,
      "make ": 6231,
      "in 18": 6232,
      "pit": 6233,
      "ret": 6234,
      "typ": 6235,
      "perform": 6236,
      "lik": 6237,
      "ers and ": 6238,
      "; the ": 6239,
      "claim": 6240,
      "life ": 6241,
      "rang": 6242,
      "times ": 6243,
      ". Dur": 6244,
      "England ": 6245,
      "video ": 6246,
      "estern ": 6247,
      "den ": 6248,
      "ution ": 6249,
      "anti": 6250,
      "Mus": 6251,
      "40 ": 6252,
      "view ": 6253,
      "head ": 6254,
      "Pl": 6255,
      "action ": 6256,
      "bar": 6257,
      "ke": 6258,
      "one of ": 6259,
      "s . \n": 6260,
      "hy": 6261,
      "t and ": 6262,
      "public ": 6263,
      "ek ": 6264,
      "divid": 6265,
      "vo": 6266,
      "eer ": 6267,
      "tow": 6268,
      "went ": 6269,
      ". His ": 6270,
      "ington ": 6271,
      "spir": 6272,
      "commun": 6273,
      "cording to ": 6274,
      "inf": 6275,
      "without ": 6276,
      "members ": 6277,
      "craft ": 6278,
      "we ": 6279,
      "club": 6280,
      "anim": 6281,
      "local ": 6282,
      "Engl": 6283,
      "different ": 6284,
      "sit": 6285,
      "ements ": 6286,
      "south ": 6287,
      "studi": 6288,
      "ep ": 6289,
      "order ": 6290,
      "t to ": 6291,
      "ground ": 6292,
      "attack": 6293,
      "Rob": 6294,
      "ange ": 6295,
      "Re": 6296,
      "ik": 6297,
      ". When ": 6298,
      "new": 6299,
      "whil": 6300,
      "m ( ": 6301,
      "arch": 6302,
      "power ": 6303,
      "oot": 6304,
      "sugg": 6305,
      "soci": 6306,
      "named ": 6307,
      "among ": 6308,
      "song": 6309,
      "him": 6310,
      "games ": 6311,
      "dest": 6312,
      "Univers": 6313,
      "of S": 6314,
      "pat": 6315,
      "and a ": 6316,
      ".S": 6317,
      "period ": 6318,
      "influ": 6319,
      "ute ": 6320,
      "Co": 6321,
      "written ": 6322,
      "los": 6323,
      "ject ": 6324,
      "roc": 6325,
      "head": 6326,
      "Riv": 6327,
      "ality ": 6328,
      " H": 6329,
      "Ed": 6330,
      "ittle ": 6331,
      "fron": 6332,
      "road ": 6333,
      "a \" ": 6334,
      "ise ": 6335,
      "El": 6336,
      "quar": 6337,
      "part of the ": 6338,
      "epar": 6339,
      "ody ": 6340,
      "an , ": 6341,
      "defe": 6342,
      "top ": 6343,
      "rown ": 6344,
      "ted the ": 6345,
      "Coun": 6346,
      "join": 6347,
      "sed ": 6348,
      "further ": 6349,
      "decid": 6350,
      "east ": 6351,
      "that \" ": 6352,
      "ress ": 6353,
      "reet ": 6354,
      "ted by ": 6355,
      "let": 6356,
      "given ": 6357,
      "event": 6358,
      "gave ": 6359,
      "thers ": 6360,
      "between the ": 6361,
      "refer": 6362,
      "Pr": 6363,
      "fied ": 6364,
      "tem": 6365,
      "ental ": 6366,
      "design": 6367,
      "back": 6368,
      "ing of ": 6369,
      "Su": 6370,
      "comb": 6371,
      "Cent": 6372,
      " T": 6373,
      "liv": 6374,
      "match ": 6375,
      "contr": 6376,
      "ak ": 6377,
      "track ": 6378,
      "els ": 6379,
      "announc": 6380,
      "17 ": 6381,
      "cop": 6382,
      "player ": 6383,
      ". G": 6384,
      "exam": 6385,
      "1 @.@ ": 6386,
      "featur": 6387,
      "Lond": 6388,
      "death ": 6389,
      "ially ": 6390,
      "val": 6391,
      "ham ": 6392,
      "ta": 6393,
      "U.S": 6394,
      "review": 6395,
      "rest": 6396,
      "heav": 6397,
      " On ": 6398,
      "ized ": 6399,
      "days ": 6400,
      "ium ": 6401,
      "amm": 6402,
      "ref": 6403,
      "es . \n": 6404,
      "had a ": 6405,
      "15": 6406,
      "stated ": 6407,
      "take ": 6408,
      "building ": 6409,
      "tion of the ": 6410,
      "English ": 6411,
      "father ": 6412,
      "on @-@ ": 6413,
      "Or": 6414,
      ". By ": 6415,
      "ation of the ": 6416,
      "dren ": 6417,
      "person": 6418,
      "eh": 6419,
      "age of ": 6420,
      "stric": 6421,
      "Wal": 6422,
      "youn": 6423,
      "book ": 6424,
      "lost ": 6425,
      "sent ": 6426,
      "War": 6427,
      "ral ": 6428,
      "cros": 6429,
      "story ": 6430,
      "school ": 6431,
      "trans": 6432,
      "sal": 6433,
      "ably ": 6434,
      "agre": 6435,
      "xim": 6436,
      "mul": 6437,
      "lead ": 6438,
      ". K": 6439,
      "away ": 6440,
      "Tim": 6441,
      "ator ": 6442,
      "land": 6443,
      "cast ": 6444,
      "cr": 6445,
      "ni": 6446,
      "es of the ": 6447,
      "month": 6448,
      "in which ": 6449,
      "ony ": 6450,
      "0s ": 6451,
      "Inter": 6452,
      "imp": 6453,
      "Min": 6454,
      "through the ": 6455,
      "Ser": 6456,
      "ograph": 6457,
      "ically ": 6458,
      "oughout ": 6459,
      "board ": 6460,
      "gun": 6461,
      "ort": 6462,
      "City ": 6463,
      "ed at ": 6464,
      "replac": 6465,
      "elevision ": 6466,
      "ili": 6467,
      "suff": 6468,
      "similar ": 6469,
      "sw": 6470,
      "never ": 6471,
      "ed to the ": 6472,
      "Is": 6473,
      "grad": 6474,
      "becom": 6475,
      "ker ": 6476,
      "sions ": 6477,
      "onom": 6478,
      "24 ": 6479,
      "R ": 6480,
      "list": 6481,
      "hear": 6482,
      "himself ": 6483,
      "arti": 6484,
      "Batt": 6485,
      "As": 6486,
      "West ": 6487,
      "aver": 6488,
      "Dav": 6489,
      "aircraft ": 6490,
      "become ": 6491,
      "Pol": 6492,
      "cy": 6493,
      "Per": 6494,
      "ed that the ": 6495,
      "arriv": 6496,
      "military ": 6497,
      "of M": 6498,
      "ship": 6499,
      "mark": 6500,
      "how ": 6501,
      "production ": 6502,
      "run ": 6503,
      "Div": 6504,
      ", who ": 6505,
      "import": 6506,
      "intro": 6507,
      "ions ": 6508,
      "ei": 6509,
      "Canad": 6510,
      "cle": 6511,
      "ubl": 6512,
      "urric": 6513,
      "Rom": 6514,
      "consider": 6515,
      "nec": 6516,
      "ential ": 6517,
      "fel": 6518,
      "fail": 6519,
      "ams ": 6520,
      "ed to be ": 6521,
      "ampion": 6522,
      "attack ": 6523,
      "urch ": 6524,
      "under the ": 6525,
      "acros": 6526,
      "es that ": 6527,
      "having ": 6528,
      "har": 6529,
      "mit": 6530,
      "night ": 6531,
      "add": 6532,
      "spe": 6533,
      "carri": 6534,
      "force ": 6535,
      "Rus": 6536,
      "ens ": 6537,
      "company ": 6538,
      "win ": 6539,
      "was not ": 6540,
      "ed from ": 6541,
      "bus": 6542,
      "V ": 6543,
      "mer ": 6544,
      "included ": 6545,
      "thre": 6546,
      "wea": 6547,
      "... ": 6548,
      "th century ": 6549,
      "gar": 6550,
      "development ": 6551,
      "due to ": 6552,
      "fre": 6553,
      "ron ": 6554,
      "as well as ": 6555,
      "yle ": 6556,
      "more than ": 6557,
      "cat": 6558,
      "lev": 6559,
      "hom": 6560,
      "can be ": 6561,
      "children ": 6562,
      "act": 6563,
      "they were ": 6564,
      "men": 6565,
      "ex ": 6566,
      "Af": 6567,
      "22 ": 6568,
      ". There ": 6569,
      "sci": 6570,
      "involv": 6571,
      "light ": 6572,
      "curren": 6573,
      "against the ": 6574,
      "ending ": 6575,
      "es . The ": 6576,
      "previous ": 6577,
      "Scot": 6578,
      "prof": 6579,
      "ploy": 6580,
      "concer": 6581,
      "ling ": 6582,
      "signific": 6583,
      "ogether ": 6584,
      "21 ": 6585,
      "contain": 6586,
      "taken ": 6587,
      ". These ": 6588,
      "squ": 6589,
      "eas": 6590,
      "part of ": 6591,
      "dg": 6592,
      "ribu": 6593,
      "atures ": 6594,
      "vir": 6595,
      "total ": 6596,
      "tropical ": 6597,
      "anese ": 6598,
      "fav": 6599,
      "sing ": 6600,
      "change ": 6601,
      "ends ": 6602,
      "ide ": 6603,
      ". J": 6604,
      "out of ": 6605,
      "house ": 6606,
      "short ": 6607,
      "e , but ": 6608,
      "present ": 6609,
      "seen ": 6610,
      "At": 6611,
      "campa": 6612,
      "consist": 6613,
      "which was ": 6614,
      "fle": 6615,
      "Australia ": 6616,
      "omb": 6617,
      "tig": 6618,
      ", he ": 6619,
      "good ": 6620,
      "low ": 6621,
      "aur": 6622,
      "pow": 6623,
      "ana ": 6624,
      "London ": 6625,
      "trav": 6626,
      "t 's ": 6627,
      "ank ": 6628,
      "control ": 6629,
      "km ": 6630,
      "train": 6631,
      "ems ": 6632,
      "country ": 6633,
      "not": 6634,
      "Be": 6635,
      "created ": 6636,
      "experi": 6637,
      "dom ": 6638,
      "eight ": 6639,
      "introduc": 6640,
      "icul": 6641,
      "go ": 6642,
      "Ex": 6643,
      "areas ": 6644,
      "however , ": 6645,
      "compar": 6646,
      "or , ": 6647,
      "occur": 6648,
      "s , but ": 6649,
      "General ": 6650,
      "es , and ": 6651,
      "13": 6652,
      "Rep": 6653,
      "Mic": 6654,
      "rol": 6655,
      "vol": 6656,
      "prais": 6657,
      "den": 6658,
      ". Although ": 6659,
      "boo": 6660,
      "surv": 6661,
      "return ": 6662,
      ". Ac": 6663,
      "ever": 6664,
      "ring ": 6665,
      "ed \" ": 6666,
      ". He was ": 6667,
      "wan": 6668,
      "vill": 6669,
      "ways ": 6670,
      "owever ": 6671,
      "at a ": 6672,
      "into a ": 6673,
      "bit": 6674,
      "television ": 6675,
      "cir": 6676,
      "should ": 6677,
      "ert ": 6678,
      "s of the ": 6679,
      "med": 6680,
      "great ": 6681,
      "s . The ": 6682,
      "River ": 6683,
      "Her": 6684,
      "Sy": 6685,
      "work": 6686,
      "State ": 6687,
      "rest ": 6688,
      "four": 6689,
      "L ": 6690,
      "pea": 6691,
      "cent ": 6692,
      "ank": 6693,
      "onn": 6694,
      "ounds ": 6695,
      "suggest": 6696,
      "inj": 6697,
      "tory ": 6698,
      "title ": 6699,
      "idd": 6700,
      "opp": 6701,
      "shar": 6702,
      "marri": 6703,
      "scri": 6704,
      "prob": 6705,
      "23 ": 6706,
      "Ang": 6707,
      "ses ": 6708,
      "Japanese ": 6709,
      "point ": 6710,
      "mission ": 6711,
      "political ": 6712,
      "60 ": 6713,
      "tour": 6714,
      "Street ": 6715,
      "’ ": 6716,
      "fire ": 6717,
      "seven ": 6718,
      "doc": 6719,
      "design ": 6720,
      "nov": 6721,
      "orge ": 6722,
      "played ": 6723,
      "when the ": 6724,
      "throughout ": 6725,
      "King ": 6726,
      "cast": 6727,
      "tech": 6728,
      "face ": 6729,
      "ver ": 6730,
      "Division ": 6731,
      "together ": 6732,
      "augh": 6733,
      "too ": 6734,
      "service ": 6735,
      "ration ": 6736,
      "rist": 6737,
      "various ": 6738,
      "Sec": 6739,
      "ang ": 6740,
      "come ": 6741,
      "increas": 6742,
      "radi": 6743,
      "Roy": 6744,
      "ety ": 6745,
      "gran": 6746,
      "the first ": 6747,
      "ost": 6748,
      "Nav": 6749,
      "little ": 6750,
      "William ": 6751,
      "of B": 6752,
      "ed by a ": 6753,
      "earli": 6754,
      "27 ": 6755,
      "art ": 6756,
      "ior ": 6757,
      "190": 6758,
      "propos": 6759,
      "ern": 6760,
      "ularly ": 6761,
      "ability ": 6762,
      "performance ": 6763,
      "No": 6764,
      "audi": 6765,
      "es are ": 6766,
      "ing in ": 6767,
      "as an ": 6768,
      "ici": 6769,
      "ing his ": 6770,
      "release ": 6771,
      "thought ": 6772,
      "time , ": 6773,
      "urricane ": 6774,
      "en , ": 6775,
      "hous": 6776,
      "Mor": 6777,
      "site ": 6778,
      ". For ": 6779,
      "felt ": 6780,
      "characters ": 6781,
      "ch , ": 6782,
      "include ": 6783,
      "28 ": 6784,
      "strong ": 6785,
      "publish": 6786,
      "wood ": 6787,
      "@.@ 5 ": 6788,
      "Pet": 6789,
      ". At ": 6790,
      "won ": 6791,
      "tin ": 6792,
      "ood": 6793,
      "es in the ": 6794,
      "saw ": 6795,
      "eventually ": 6796,
      "ority ": 6797,
      "hon": 6798,
      "ure": 6799,
      "comman": 6800,
      "used to ": 6801,
      "reported ": 6802,
      "peti": 6803,
      "tar": 6804,
      "1 @,@ ": 6805,
      "career ": 6806,
      "e @-@ ": 6807,
      "ts , ": 6808,
      "ing that ": 6809,
      "Cap": 6810,
      "and was ": 6811,
      "member ": 6812,
      "end of the ": 6813,
      "grow": 6814,
      "before the ": 6815,
      "long": 6816,
      "film": 6817,
      "feet ": 6818,
      "iter": 6819,
      "sold ": 6820,
      "minist": 6821,
      "week ": 6822,
      "ler ": 6823,
      "ital ": 6824,
      "Road ": 6825,
      "George ": 6826,
      "noted ": 6827,
      "mi ": 6828,
      "ing it ": 6829,
      "19 ": 6830,
      "2010 ": 6831,
      "sil": 6832,
      "tradi": 6833,
      "about the ": 6834,
      "earch ": 6835,
      "located ": 6836,
      "instead ": 6837,
      "sha": 6838,
      "Australian ": 6839,
      "bir": 6840,
      "live ": 6841,
      "ts of ": 6842,
      "hind ": 6843,
      "leav": 6844,
      "track": 6845,
      "common ": 6846,
      "26 ": 6847,
      "ze ": 6848,
      "respec": 6849,
      "New": 6850,
      "represent": 6851,
      "in S": 6852,
      "in B": 6853,
      "in 199": 6854,
      "er of ": 6855,
      "und": 6856,
      "ah ": 6857,
      "ink ": 6858,
      "Reg": 6859,
      "sian ": 6860,
      "Vi": 6861,
      "mem": 6862,
      "born ": 6863,
      "Afric": 6864,
      "a ( ": 6865,
      "yn": 6866,
      "ensive ": 6867,
      "lab": 6868,
      "once ": 6869,
      "ing \" ": 6870,
      "estim": 6871,
      "body ": 6872,
      "destroy": 6873,
      "James ": 6874,
      "ats ": 6875,
      "ments ": 6876,
      "O ": 6877,
      "fem": 6878,
      "ut ": 6879,
      "moun": 6880,
      "identi": 6881,
      "indu": 6882,
      "inning ": 6883,
      "jec": 6884,
      "y 's ": 6885,
      "Hen": 6886,
      "women ": 6887,
      "for his ": 6888,
      "was also ": 6889,
      "que ": 6890,
      "important ": 6891,
      "players ": 6892,
      "rep": 6893,
      "rather ": 6894,
      "League ": 6895,
      "part ": 6896,
      "em ": 6897,
      "and S": 6898,
      "compos": 6899,
      "in ) ": 6900,
      "ia , ": 6901,
      "Army ": 6902,
      "ering ": 6903,
      "behind ": 6904,
      "presid": 6905,
      "US": 6906,
      "sett": 6907,
      "i , ": 6908,
      "14": 6909,
      "bridge ": 6910,
      "ology ": 6911,
      "relation": 6912,
      "establish": 6913,
      "exc": 6914,
      "fif": 6915,
      ". In": 6916,
      "ement": 6917,
      "s that ": 6918,
      "natur": 6919,
      "prac": 6920,
      "vision ": 6921,
      "wide ": 6922,
      "scre": 6923,
      "using ": 6924,
      "ingdom ": 6925,
      "aged ": 6926,
      "km ) ": 6927,
      "while the ": 6928,
      "ency ": 6929,
      "level ": 6930,
      ") . \n": 6931,
      "ds of ": 6932,
      "wards ": 6933,
      "either ": 6934,
      "campaign ": 6935,
      "support ": 6936,
      "tice ": 6937,
      "ib": 6938,
      "difficul": 6939,
      "Ne": 6940,
      "een ": 6941,
      "cover": 6942,
      "style ": 6943,
      ". At the ": 6944,
      "subsequ": 6945,
      "ics ": 6946,
      "e 's ": 6947,
      "ent , ": 6948,
      "Pri": 6949,
      "figh": 6950,
      "draw": 6951,
      "re @-@ ": 6952,
      "Br": 6953,
      "s , which ": 6954,
      "from a ": 6955,
      "addition ": 6956,
      "separ": 6957,
      "popular ": 6958,
      "white ": 6959,
      "Euro": 6960,
      ". It is ": 6961,
      "uk": 6962,
      "2011 ": 6963,
      "class ": 6964,
      "rul": 6965,
      "originally ": 6966,
      "electr": 6967,
      "aj": 6968,
      "ific ": 6969,
      " L": 6970,
      "working ": 6971,
      "pen": 6972,
      "ris ": 6973,
      "ed of ": 6974,
      "almost ": 6975,
      "wif": 6976,
      "\" the ": 6977,
      "gun ": 6978,
      "foot": 6979,
      "ash ": 6980,
      "29 ": 6981,
      "fig": 6982,
      "associ": 6983,
      "achi": 6984,
      "ush": 6985,
      "tern": 6986,
      "shor": 6987,
      "es a ": 6988,
      "les": 6989,
      "stre": 6990,
      "has a ": 6991,
      "che": 6992,
      "ed on the ": 6993,
      "dev": 6994,
      "E ": 6995,
      "mun": 6996,
      "nomin": 6997,
      "cam": 6998,
      "round ": 6999,
      "righ": 7000,
      "hael ": 7001,
      "every ": 7002,
      "s are ": 7003,
      "put ": 7004,
      ") , and ": 7005,
      "return": 7006,
      "effor": 7007,
      "port ": 7008,
      "\" . The ": 7009,
      "res ( ": 7010,
      "troop": 7011,
      "features ": 7012,
      "heavy ": 7013,
      "Franc": 7014,
      "Gl": 7015,
      "order": 7016,
      "points ": 7017,
      "Rec": 7018,
      "rap": 7019,
      "brought ": 7020,
      "80 ": 7021,
      ", with ": 7022,
      "young ": 7023,
      "Mad": 7024,
      "neg": 7025,
      "she was ": 7026,
      "post": 7027,
      "alist ": 7028,
      "ages ": 7029,
      "BC ": 7030,
      "up to ": 7031,
      "ready ": 7032,
      "km / ": 7033,
      "e , which ": 7034,
      "\" was ": 7035,
      "East ": 7036,
      "successful ": 7037,
      "possible ": 7038,
      "ord ": 7039,
      "200 ": 7040,
      "avail": 7041,
      "Europ": 7042,
      "mother ": 7043,
      "mir": 7044,
      "route ": 7045,
      "ston ": 7046,
      "pain": 7047,
      "cel": 7048,
      "Thom": 7049,
      "\" , and ": 7050,
      "towards ": 7051,
      "mater": 7052,
      "individ": 7053,
      "hand": 7054,
      "laun": 7055,
      "law": 7056,
      "all , ": 7057,
      "scrip": 7058,
      "signed ": 7059,
      "dou": 7060,
      "piec": 7061,
      "anding ": 7062,
      "ation and ": 7063,
      "observ": 7064,
      "Chris": 7065,
      "hour": 7066,
      "econom": 7067,
      "least ": 7068,
      "189": 7069,
      "Ital": 7070,
      "minut": 7071,
      "el , ": 7072,
      "full ": 7073,
      "resident ": 7074,
      "an 's ": 7075,
      "\" and \" ": 7076,
      "km / h ": 7077,
      "ines ": 7078,
      "say": 7079,
      "comment": 7080,
      "ession ": 7081,
      "addi": 7082,
      "ust": 7083,
      "Royal ": 7084,
      "aul": 7085,
      "ate the ": 7086,
      "Tr": 7087,
      "busin": 7088,
      "dic": 7089,
      "close ": 7090,
      "he had ": 7091,
      "general ": 7092,
      "fully ": 7093,
      "Vir": 7094,
      "organiz": 7095,
      "considered ": 7096,
      "conv": 7097,
      "plann": 7098,
      "ence of ": 7099,
      "0 @.@ ": 7100,
      "exist": 7101,
      "region ": 7102,
      "loo": 7103,
      "Bro": 7104,
      "s in the ": 7105,
      "plan": 7106,
      "conn": 7107,
      "ated the ": 7108,
      " After ": 7109,
      "atic ": 7110,
      "Ear": 7111,
      "ur ": 7112,
      "and his ": 7113,
      "soon ": 7114,
      "prec": 7115,
      "east": 7116,
      "n 't ": 7117,
      "edi": 7118,
      "s a ": 7119,
      "along the ": 7120,
      "black ": 7121,
      "stand": 7122,
      "ap ": 7123,
      "club ": 7124,
      "ama ": 7125,
      "recog": 7126,
      "six": 7127,
      "modern ": 7128,
      "non @-@ ": 7129,
      "Scho": 7130,
      "tian ": 7131,
      "western ": 7132,
      "enter": 7133,
      "down": 7134,
      "elling ": 7135,
      "party ": 7136,
      "2008 ": 7137,
      "Sch": 7138,
      "eph": 7139,
      "generally ": 7140,
      "aut": 7141,
      "indic": 7142,
      "500 ": 7143,
      "in an ": 7144,
      "race ": 7145,
      "voc": 7146,
      "met ": 7147,
      "help ": 7148,
      "K ": 7149,
      "foc": 7150,
      "th and ": 7151,
      "occ": 7152,
      "ashington ": 7153,
      "discover": 7154,
      "Fin": 7155,
      "inform": 7156,
      "stage ": 7157,
      "few ": 7158,
      "art": 7159,
      "employ": 7160,
      "by a ": 7161,
      "exec": 7162,
      "exten": 7163,
      "Bi": 7164,
      "see ": 7165,
      "County ": 7166,
      " A ": 7167,
      ". While ": 7168,
      "ped ": 7169,
      "ra ": 7170,
      "Park ": 7171,
      "ained ": 7172,
      "ed in a ": 7173,
      "ences ": 7174,
      "ovi": 7175,
      "broad": 7176,
      "worked ": 7177,
      "ches ": 7178,
      "super": 7179,
      "F ": 7180,
      "captur": 7181,
      "Rich": 7182,
      "Mal": 7183,
      ") . The ": 7184,
      "stry ": 7185,
      "conduc": 7186,
      "battle ": 7187,
      "sour": 7188,
      "ger ": 7189,
      "mph ": 7190,
      "ago ": 7191,
      "aster ": 7192,
      "John": 7193,
      "requir": 7194,
      "aid ": 7195,
      "2012 ": 7196,
      "\" The ": 7197,
      "record": 7198,
      "educ": 7199,
      "r ": 7200,
      "Cour": 7201,
      "expres": 7202,
      "ax": 7203,
      "Squ": 7204,
      "Best ": 7205,
      "room ": 7206,
      "intend": 7207,
      "sor": 7208,
      "2009 ": 7209,
      "leng": 7210,
      "duce ": 7211,
      "ge": 7212,
      "ark ": 7213,
      "Europe": 7214,
      "ed as a ": 7215,
      "vers": 7216,
      "mid ": 7217,
      "70 ": 7218,
      "others ": 7219,
      "with his ": 7220,
      "t was ": 7221,
      "open ": 7222,
      "nd ": 7223,
      "Bur": 7224,
      "World War ": 7225,
      "history ": 7226,
      "started ": 7227,
      "evid": 7228,
      "damage ": 7229,
      " , but ": 7230,
      "David ": 7231,
      "ves ": 7232,
      "chi": 7233,
      "effec": 7234,
      "ed it ": 7235,
      "island ": 7236,
      "public": 7237,
      "deter": 7238,
      "ald ": 7239,
      "station ": 7240,
      "my": 7241,
      "assist": 7242,
      "bat": 7243,
      "date ": 7244,
      "bil": 7245,
      "Washington ": 7246,
      "us , ": 7247,
      "does ": 7248,
      "ness ": 7249,
      "ligh": 7250,
      "at number ": 7251,
      "tors ": 7252,
      "ones ": 7253,
      "driv": 7254,
      "conc": 7255,
      "ech ": 7256,
      "within the ": 7257,
      "adem": 7258,
      "lege ": 7259,
      "oul": 7260,
      "Chin": 7261,
      "exampl": 7262,
      "ological ": 7263,
      "Mil": 7264,
      "significant ": 7265,
      "ester ": 7266,
      "initially ": 7267,
      "largest ": 7268,
      "abor": 7269,
      "class": 7270,
      "ense ": 7271,
      "promo": 7272,
      "appoin": 7273,
      "prepar": 7274,
      "works ": 7275,
      "mix": 7276,
      "utive ": 7277,
      "particularly ": 7278,
      "P ": 7279,
      "efor": 7280,
      "remov": 7281,
      "mot": 7282,
      "inspir": 7283,
      "highest ": 7284,
      "Dr": 7285,
      "sure ": 7286,
      "tion , ": 7287,
      "Ab": 7288,
      "ment": 7289,
      "ampionship ": 7290,
      "serve ": 7291,
      "Cam": 7292,
      "contribu": 7293,
      "Am": 7294,
      "real": 7295,
      "fourth ": 7296,
      "Mo": 7297,
      "age , ": 7298,
      "erous ": 7299,
      "event ": 7300,
      "aff ": 7301,
      "ille ": 7302,
      "surviv": 7303,
      "lands ": 7304,
      "shot ": 7305,
      "gin": 7306,
      "and , ": 7307,
      "ky ": 7308,
      "vent": 7309,
      "ox": 7310,
      "wo ": 7311,
      "to have ": 7312,
      "rain ": 7313,
      "ment of ": 7314,
      "ull ": 7315,
      "active ": 7316,
      "official ": 7317,
      "tural ": 7318,
      "highway ": 7319,
      "is , ": 7320,
      "cycl": 7321,
      "pil": 7322,
      "pot": 7323,
      "any": 7324,
      "ed . \n": 7325,
      "agg": 7326,
      "multi": 7327,
      "European ": 7328,
      "2 @.@ ": 7329,
      "rock ": 7330,
      "2007 ": 7331,
      "to his ": 7332,
      ". During the ": 7333,
      "around the ": 7334,
      "You ": 7335,
      "Tur": 7336,
      " W": 7337,
      "ed him ": 7338,
      "magaz": 7339,
      "southern ": 7340,
      "N ": 7341,
      "pic": 7342,
      "priv": 7343,
      "nar": 7344,
      "Vic": 7345,
      "songs ": 7346,
      "miles ( ": 7347,
      "forces ": 7348,
      "io ": 7349,
      "Cre": 7350,
      "spor": 7351,
      "Republ": 7352,
      " In the ": 7353,
      ". With ": 7354,
      "ched ": 7355,
      "ators ": 7356,
      "lear": 7357,
      "ers were ": 7358,
      "agu": 7359,
      "le , ": 7360,
      "Pal": 7361,
      "nav": 7362,
      "found": 7363,
      "ts and ": 7364,
      "won the ": 7365,
      "Val": 7366,
      "ession": 7367,
      "tour ": 7368,
      "relig": 7369,
      "langu": 7370,
      "hun": 7371,
      "ourn": 7372,
      "competi": 7373,
      "immedi": 7374,
      "meas": 7375,
      "tun": 7376,
      "Battle ": 7377,
      "acqu": 7378,
      "love ": 7379,
      "reduc": 7380,
      "special ": 7381,
      "combin": 7382,
      "iddle ": 7383,
      ". St": 7384,
      "uni": 7385,
      "ess , ": 7386,
      "adron ": 7387,
      "a was ": 7388,
      "irst ": 7389,
      "Hol": 7390,
      "playing ": 7391,
      "Kingdom ": 7392,
      "gram ": 7393,
      "making ": 7394,
      "servic": 7395,
      "net": 7396,
      "accep": 7397,
      "Cali": 7398,
      ". I ": 7399,
      "Hun": 7400,
      "law ": 7401,
      "plat": 7402,
      "ocial ": 7403,
      "clas": 7404,
      "tics ": 7405,
      "far ": 7406,
      " Wh": 7407,
      "key ": 7408,
      "ee ": 7409,
      "ket ": 7410,
      "north": 7411,
      "who had ": 7412,
      "epend": 7413,
      "Henry ": 7414,
      "crew ": 7415,
      ". \" The ": 7416,
      "s and the ": 7417,
      "Compan": 7418,
      "victory ": 7419,
      "Ale": 7420,
      "particip": 7421,
      "commerc": 7422,
      "move ": 7423,
      "son , ": 7424,
      "ression ": 7425,
      "usually ": 7426,
      "viol": 7427,
      "northern ": 7428,
      "independ": 7429,
      "Air ": 7430,
      "wid": 7431,
      " Al": 7432,
      "amoun": 7433,
      "achiev": 7434,
      "\" a ": 7435,
      "better ": 7436,
      "daugh": 7437,
      "eth": 7438,
      ". According to ": 7439,
      "commit": 7440,
      "T ": 7441,
      "ers to ": 7442,
      "earlier ": 7443,
      "school": 7444,
      "forn": 7445,
      "aul ": 7446,
      "spent ": 7447,
      "told ": 7448,
      "pli": 7449,
      "phys": 7450,
      "character": 7451,
      "ign": 7452,
      "positive ": 7453,
      "oppos": 7454,
      "clu": 7455,
      "quick": 7456,
      "ingly ": 7457,
      "President ": 7458,
      "studio ": 7459,
      "end of ": 7460,
      "near": 7461,
      "Mi": 7462,
      " Th": 7463,
      "must ": 7464,
      "including the ": 7465,
      "human ": 7466,
      "ben": 7467,
      "Y ": 7468,
      "ek": 7469,
      "mid @-@ ": 7470,
      "weeks ": 7471,
      "centur": 7472,
      "rather than ": 7473,
      "ers of ": 7474,
      "ran ": 7475,
      "sound ": 7476,
      "3 @.@ ": 7477,
      "eting ": 7478,
      "vot": 7479,
      "ai": 7480,
      "Michael ": 7481,
      "fall ": 7482,
      "hit ": 7483,
      "responsi": 7484,
      "ask": 7485,
      "Po": 7486,
      "1st ": 7487,
      "appearance ": 7488,
      "on his ": 7489,
      "previously ": 7490,
      "ts to ": 7491,
      "find ": 7492,
      "iss": 7493,
      "35 ": 7494,
      "B ": 7495,
      "Em": 7496,
      "Jer": 7497,
      "project ": 7498,
      " , which ": 7499,
      "fr": 7500,
      "happ": 7501,
      "break": 7502,
      "use of ": 7503,
      "umb": 7504,
      "central ": 7505,
      "all the ": 7506,
      "ells ": 7507,
      "ies , ": 7508,
      "bul": 7509,
      "writing ": 7510,
      "Sou": 7511,
      "gir": 7512,
      "antry ": 7513,
      "above ": 7514,
      "University ": 7515,
      "accoun": 7516,
      "post ": 7517,
      "months ": 7518,
      "scene ": 7519,
      "ated by ": 7520,
      "defin": 7521,
      "ists ": 7522,
      "reng": 7523,
      "began to ": 7524,
      "We": 7525,
      "civ": 7526,
      "reas": 7527,
      "Mac": 7528,
      "urb": 7529,
      "stra": 7530,
      "Charles ": 7531,
      "recorded ": 7532,
      "al @-@ ": 7533,
      "oph": 7534,
      "sts ": 7535,
      "sea ": 7536,
      "enough ": 7537,
      "ican ": 7538,
      "omet": 7539,
      "mean": 7540,
      "12": 7541,
      " R": 7542,
      "illi": 7543,
      "Californ": 7544,
      "season , ": 7545,
      "domin": 7546,
      "itself ": 7547,
      "where the ": 7548,
      "ole ": 7549,
      "Angel": 7550,
      "All ": 7551,
      "o 's ": 7552,
      "till": 7553,
      "command ": 7554,
      " C": 7555,
      "portra": 7556,
      "75 ": 7557,
      "don ": 7558,
      "ament ": 7559,
      "Christ": 7560,
      "Union ": 7561,
      "interest ": 7562,
      "part": 7563,
      "rail": 7564,
      "ces ": 7565,
      "activ": 7566,
      "tom": 7567,
      "ed an ": 7568,
      "fed": 7569,
      "rison ": 7570,
      "ric ": 7571,
      "proper": 7572,
      "returned to ": 7573,
      "give ": 7574,
      "bomb": 7575,
      "range ": 7576,
      "Robert ": 7577,
      "teen ": 7578,
      "cou": 7579,
      "ques": 7580,
      "relationship ": 7581,
      "£ ": 7582,
      "0s , ": 7583,
      "soldi": 7584,
      "Fre": 7585,
      "charg": 7586,
      "known as ": 7587,
      "estig": 7588,
      "hurricane ": 7589,
      "era ": 7590,
      "hop": 7591,
      "so": 7592,
      "Bel": 7593,
      "streng": 7594,
      "unc": 7595,
      "standing ": 7596,
      "opening ": 7597,
      "ox ": 7598,
      "tou": 7599,
      "a new ": 7600,
      "whose ": 7601,
      "trac": 7602,
      "2013 ": 7603,
      "could be ": 7604,
      "Brit": 7605,
      "Great ": 7606,
      "row ": 7607,
      "U.S. ": 7608,
      "turned ": 7609,
      "theast ": 7610,
      "commis": 7611,
      "director ": 7612,
      "nine ": 7613,
      "along with ": 7614,
      "hos": 7615,
      "al and ": 7616,
      "Jack": 7617,
      "is not ": 7618,
      "cal": 7619,
      "Sw": 7620,
      "drew ": 7621,
      "ellow ": 7622,
      "author": 7623,
      "don": 7624,
      "argu": 7625,
      "o and ": 7626,
      "occup": 7627,
      "star ": 7628,
      "available ": 7629,
      "reli": 7630,
      "in , ": 7631,
      "sex": 7632,
      "th of ": 7633,
      "success ": 7634,
      "moved ": 7635,
      "units ": 7636,
      "Flor": 7637,
      "eed": 7638,
      "beginning ": 7639,
      "alion ": 7640,
      "case ": 7641,
      "control": 7642,
      "syn": 7643,
      "High": 7644,
      "whom ": 7645,
      "league ": 7646,
      "quickly ": 7647,
      "’ s ": 7648,
      "term ": 7649,
      "lower ": 7650,
      "turn ": 7651,
      "declar": 7652,
      "sus": 7653,
      "office ": 7654,
      "No. ": 7655,
      "jud": 7656,
      "2006 ": 7657,
      "year , ": 7658,
      "Kor": 7659,
      "rup": 7660,
      "corpor": 7661,
      "e , a ": 7662,
      "techn": 7663,
      "may be ": 7664,
      "co @-@ ": 7665,
      "allow ": 7666,
      "Fil": 7667,
      "car ": 7668,
      "alli": 7669,
      "31 ": 7670,
      "er of the ": 7671,
      "already ": 7672,
      "lack ": 7673,
      "brother ": 7674,
      "ativ": 7675,
      "ots ": 7676,
      "reached ": 7677,
      "population ": 7678,
      "America ": 7679,
      "church ": 7680,
      "series of ": 7681,
      "army ": 7682,
      "person ": 7683,
      "coast ": 7684,
      "berg ": 7685,
      "ier ": 7686,
      "\" ( ": 7687,
      "eds ": 7688,
      "onic ": 7689,
      "stitu": 7690,
      "Ros": 7691,
      "dri": 7692,
      "188": 7693,
      "ff ": 7694,
      "Thomas ": 7695,
      "Hi": 7696,
      "remained ": 7697,
      "Sha": 7698,
      "iting ": 7699,
      "entire ": 7700,
      "additional ": 7701,
      "at least ": 7702,
      "likely ": 7703,
      "idea ": 7704,
      "186": 7705,
      "ner": 7706,
      "espec": 7707,
      ". One ": 7708,
      "90 ": 7709,
      "goal ": 7710,
      "Mat": 7711,
      "In ": 7712,
      "in their ": 7713,
      "flo": 7714,
      "later , ": 7715,
      "s from ": 7716,
      "decision ": 7717,
      "international ": 7718,
      "Rev": 7719,
      " , a ": 7720,
      "ruis": 7721,
      "Island ": 7722,
      "in L": 7723,
      "ated to ": 7724,
      "antly ": 7725,
      "until the ": 7726,
      "45 ": 7727,
      "free ": 7728,
      "especially ": 7729,
      "via ": 7730,
      "Se": 7731,
      "situ": 7732,
      "across the ": 7733,
      "recogn": 7734,
      "money ": 7735,
      "Bra": 7736,
      "leading ": 7737,
      "recording ": 7738,
      "iment ": 7739,
      "set": 7740,
      "plic": 7741,
      "ories ": 7742,
      "enth ": 7743,
      "excep": 7744,
      "progr": 7745,
      "ata ": 7746,
      "amb": 7747,
      ". Desp": 7748,
      "pped ": 7749,
      "ix ": 7750,
      "Isl": 7751,
      "De": 7752,
      "Associ": 7753,
      "yard ": 7754,
      "France ": 7755,
      "secur": 7756,
      "ars ": 7757,
      "Indian ": 7758,
      "two @-@ ": 7759,
      "enem": 7760,
      "frequ": 7761,
      "is an ": 7762,
      "build": 7763,
      "tically ": 7764,
      "debut ": 7765,
      "throughout the ": 7766,
      "continued to ": 7767,
      "bit ": 7768,
      "stly ": 7769,
      "Japan ": 7770,
      "red to ": 7771,
      "in @-@ ": 7772,
      "polic": 7773,
      "program ": 7774,
      "eum ": 7775,
      "van": 7776,
      "mb": 7777,
      "edly ": 7778,
      "in its ": 7779,
      "is also ": 7780,
      "Western ": 7781,
      "School ": 7782,
      "order to ": 7783,
      "social ": 7784,
      "where he ": 7785,
      "might ": 7786,
      "\" S": 7787,
      "Virgin": 7788,
      "guit": 7789,
      "rate ": 7790,
      "read ": 7791,
      "Ber": 7792,
      "latter ": 7793,
      "kil": 7794,
      ". V": 7795,
      "ith": 7796,
      "award": 7797,
      "on to ": 7798,
      "appointed ": 7799,
      ". U": 7800,
      "ximately ": 7801,
      "Jos": 7802,
      "Sovi": 7803,
      "hold ": 7804,
      "percent ": 7805,
      "e was ": 7806,
      "Pe": 7807,
      "en 's ": 7808,
      "election ": 7809,
      "anal": 7810,
      "ence , ": 7811,
      "in 198": 7812,
      "International ": 7813,
      "engin": 7814,
      "edy ": 7815,
      "eastern ": 7816,
      "Cha": 7817,
      "in M": 7818,
      "that it ": 7819,
      "isc": 7820,
      "a few ": 7821,
      "owever , the ": 7822,
      "states ": 7823,
      "with an ": 7824,
      "orial ": 7825,
      "ised ": 7826,
      "ching ": 7827,
      "or of ": 7828,
      "decided to ": 7829,
      "test": 7830,
      "Ag": 7831,
      "ect": 7832,
      "exper": 7833,
      "based on ": 7834,
      "Dan": 7835,
      "ai ": 7836,
      "ateg": 7837,
      "discus": 7838,
      "average ": 7839,
      "Sen": 7840,
      "Pac": 7841,
      "than the ": 7842,
      "sometimes ": 7843,
      "mas": 7844,
      "feet ( ": 7845,
      "Cup ": 7846,
      "n , ": 7847,
      "investig": 7848,
      "musical ": 7849,
      "son 's ": 7850,
      "fleet ": 7851,
      "First ": 7852,
      "called the ": 7853,
      "ference ": 7854,
      "ag ": 7855,
      "word ": 7856,
      "porary ": 7857,
      "Chic": 7858,
      "training ": 7859,
      "flic": 7860,
      "antas": 7861,
      "daughter ": 7862,
      "Tri": 7863,
      "sia ": 7864,
      "became the ": 7865,
      "istic ": 7866,
      "Air": 7867,
      "upon ": 7868,
      "ials ": 7869,
      "als , ": 7870,
      "finish": 7871,
      "section ": 7872,
      "settl": 7873,
      "Moun": 7874,
      "aper ": 7875,
      "Ter": 7876,
      ". To ": 7877,
      ". Some ": 7878,
      "arrang": 7879,
      "Govern": 7880,
      "financ": 7881,
      "princ": 7882,
      "oday ": 7883,
      "The": 7884,
      "old": 7885,
      "Med": 7886,
      "tan": 7887,
      "heal": 7888,
      "territ": 7889,
      "ention ": 7890,
      "reveal": 7891,
      "dom": 7892,
      "int ": 7893,
      "future ": 7894,
      "small": 7895,
      "staff ": 7896,
      "Res": 7897,
      ". Un": 7898,
      "mi ) ": 7899,
      "Hor": 7900,
      "escap": 7901,
      "Bal": 7902,
      "base ": 7903,
      "docum": 7904,
      "friend ": 7905,
      "cover ": 7906,
      "a @-@ ": 7907,
      "plan ": 7908,
      "events ": 7909,
      "condi": 7910,
      "ys ": 7911,
      "rat": 7912,
      "became a ": 7913,
      "occas": 7914,
      "ball": 7915,
      "near the ": 7916,
      "phot": 7917,
      "Chi": 7918,
      "in the United States ": 7919,
      "reti": 7920,
      "M ": 7921,
      "ted in ": 7922,
      "certain ": 7923,
      "let ": 7924,
      "need": 7925,
      "isl": 7926,
      "stone ": 7927,
      "y the ": 7928,
      "regular ": 7929,
      "nearly ": 7930,
      "ings , ": 7931,
      "Span": 7932,
      "past ": 7933,
      "avo": 7934,
      "improv": 7935,
      "Ham": 7936,
      "purch": 7937,
      "ed . The ": 7938,
      "appear ": 7939,
      "conf": 7940,
      "ic , ": 7941,
      "viron": 7942,
      "Cong": 7943,
      "Du": 7944,
      "Play": 7945,
      "aries ": 7946,
      "break ": 7947,
      "Met": 7948,
      "ians ": 7949,
      "remaining ": 7950,
      "profession": 7951,
      "great": 7952,
      "olution ": 7953,
      "Music ": 7954,
      "interest": 7955,
      "Award ": 7956,
      "oot ": 7957,
      "i @-@ ": 7958,
      "ident ": 7959,
      "ed , and ": 7960,
      "of L": 7961,
      "surr": 7962,
      "they are ": 7963,
      "wal": 7964,
      "ob ": 7965,
      "ed with the ": 7966,
      "ster ": 7967,
      "é ": 7968,
      "tions , ": 7969,
      "cost ": 7970,
      "lyric": 7971,
      "would have ": 7972,
      "added ": 7973,
      "within ": 7974,
      "tee ": 7975,
      "Paul ": 7976,
      "liter": 7977,
      "atively ": 7978,
      "sem": 7979,
      "taking ": 7980,
      "estimated ": 7981,
      "Cro": 7982,
      "food ": 7983,
      "movement ": 7984,
      "Mag": 7985,
      "liz": 7986,
      "all of ": 7987,
      "level": 7988,
      "current ": 7989,
      "police ": 7990,
      "Navy ": 7991,
      "week": 7992,
      "lay": 7993,
      "ft ) ": 7994,
      "mad": 7995,
      "anti @-@ ": 7996,
      "does not ": 7997,
      ", as ": 7998,
      "I '": 7999,
      "did": 8000,
      "when he ": 8001,
      "desp": 8002,
      "NY ": 8003,
      "prog": 8004,
      "Bu": 8005,
      "writer ": 8006,
      "2014 ": 8007,
      "Star ": 8008,
      "ances ": 8009,
      "returned ": 8010,
      "wit": 8011,
      "that was ": 8012,
      "after": 8013,
      ": \n": 8014,
      "construction ": 8015,
      "larger ": 8016,
      "ken ": 8017,
      "lymp": 8018,
      "rated ": 8019,
      "division ": 8020,
      "illboard ": 8021,
      "runs ": 8022,
      "estiv": 8023,
      "known as the ": 8024,
      "running ": 8025,
      "themsel": 8026,
      "enj": 8027,
      "probl": 8028,
      "conclud": 8029,
      "Counc": 8030,
      "forward ": 8031,
      "tionally ": 8032,
      "approximately ": 8033,
      "2 – ": 8034,
      "jects ": 8035,
      "Dem": 8036,
      "court ": 8037,
      "4 @.@ ": 8038,
      "rad": 8039,
      "mur": 8040,
      "was released ": 8041,
      "prim": 8042,
      "Tex": 8043,
      "spea": 8044,
      ". An ": 8045,
      "president ": 8046,
      "Smi": 8047,
      "as , ": 8048,
      "er to ": 8049,
      "mostly ": 8050,
      "Atlan": 8051,
      "football ": 8052,
      "child ": 8053,
      "now": 8054,
      "on September ": 8055,
      ". After the ": 8056,
      "Force ": 8057,
      "TV ": 8058,
      "chart ": 8059,
      "kin": 8060,
      "dig": 8061,
      "Richard ": 8062,
      "2005 ": 8063,
      "ed from the ": 8064,
      "sons ": 8065,
      "Sal": 8066,
      "University of ": 8067,
      "every": 8068,
      "ed at the ": 8069,
      "administ": 8070,
      "an and ": 8071,
      "not be ": 8072,
      "ders ": 8073,
      "He": 8074,
      "ude ": 8075,
      "chall": 8076,
      "strum": 8077,
      "colon": 8078,
      "tures ": 8079,
      "mal": 8080,
      "oth ": 8081,
      "burg ": 8082,
      "whether ": 8083,
      "strict ": 8084,
      "ations , ": 8085,
      "probably ": 8086,
      "un ": 8087,
      ". On the ": 8088,
      "emerg": 8089,
      "weap": 8090,
      "increased ": 8091,
      "II": 8092,
      "Club": 8093,
      "higher ": 8094,
      " ( ": 8095,
      "Olymp": 8096,
      "ped": 8097,
      "California ": 8098,
      "Chinese ": 8099,
      "meth": 8100,
      "continued ": 8101,
      "ess of ": 8102,
      "Pi": 8103,
      "fall": 8104,
      "expected ": 8105,
      "provide ": 8106,
      "or to ": 8107,
      "s ( ": 8108,
      ". The first ": 8109,
      "Germany ": 8110,
      "Pat": 8111,
      "2nd ": 8112,
      "asked ": 8113,
      "firm": 8114,
      "complete ": 8115,
      "San ": 8116,
      ". Other ": 8117,
      "ean": 8118,
      "it , ": 8119,
      "commercial ": 8120,
      "eign ": 8121,
      "surface ": 8122,
      "living ": 8123,
      "done ": 8124,
      "depic": 8125,
      "road": 8126,
      "Cal": 8127,
      "immediately ": 8128,
      "month ": 8129,
      "Enter": 8130,
      "thus ": 8131,
      "mach": 8132,
      "community ": 8133,
      "Black ": 8134,
      "really ": 8135,
      "off the ": 8136,
      "cut ": 8137,
      "collec": 8138,
      "real ": 8139,
      "parts ": 8140,
      "enty ": 8141,
      "astern ": 8142,
      "magazine ": 8143,
      "treat": 8144,
      "adap": 8145,
      "Gra": 8146,
      "in 196": 8147,
      "ening ": 8148,
      "Soviet ": 8149,
      "such as the ": 8150,
      "extr": 8151,
      "overall ": 8152,
      "I @-@ ": 8153,
      "tions of ": 8154,
      "personal ": 8155,
      "gold ": 8156,
      "countri": 8157,
      "temper": 8158,
      "bert ": 8159,
      "an un": 8160,
      "ual": 8161,
      "func": 8162,
      "power": 8163,
      "leave ": 8164,
      "female ": 8165,
      "bran": 8166,
      "300 ": 8167,
      ". Con": 8168,
      "Off": 8169,
      "structure ": 8170,
      "Virginia ": 8171,
      "ordin": 8172,
      "injur": 8173,
      "Lou": 8174,
      "bow": 8175,
      "subsequently ": 8176,
      "chor": 8177,
      "who was ": 8178,
      "list ": 8179,
      "longer ": 8180,
      "Ver": 8181,
      "Church ": 8182,
      "top": 8183,
      "ed her ": 8184,
      "side the ": 8185,
      "eu": 8186,
      "cle ": 8187,
      "jected ": 8188,
      "celeb": 8189,
      " Dur": 8190,
      "ail ": 8191,
      "187": 8192,
      "III ": 8193,
      "effects ": 8194,
      "material ": 8195,
      "explain": 8196,
      "copies ": 8197,
      "due to the ": 8198,
      "sport ": 8199,
      ". \" H": 8200,
      "e ( ": 8201,
      "fol": 8202,
      "always ": 8203,
      "nother ": 8204,
      "novel ": 8205,
      "distri": 8206,
      "game 's ": 8207,
      "energ": 8208,
      "distribu": 8209,
      "ed to a ": 8210,
      "review ": 8211,
      "Gi": 8212,
      "among the ": 8213,
      "of H": 8214,
      "critics ": 8215,
      "Alli": 8216,
      "tu": 8217,
      "summer ": 8218,
      "box ": 8219,
      "clear ": 8220,
      "ma ": 8221,
      "contract ": 8222,
      "day , ": 8223,
      "ehic": 8224,
      "advanc": 8225,
      ". He also ": 8226,
      "maintain": 8227,
      "despite ": 8228,
      "itch": 8229,
      "ta ": 8230,
      "lin ": 8231,
      "ultim": 8232,
      "venue ": 8233,
      "univers": 8234,
      "2 @,@ ": 8235,
      "business ": 8236,
      "acy ": 8237,
      "instrum": 8238,
      "canc": 8239,
      "Ni": 8240,
      "process ": 8241,
      "approach": 8242,
      "White ": 8243,
      "RA": 8244,
      "s \" ": 8245,
      "'s first ": 8246,
      "mos": 8247,
      "defeated ": 8248,
      "hand ": 8249,
      "Port": 8250,
      "arm ": 8251,
      "Party ": 8252,
      "him to ": 8253,
      "ld": 8254,
      "natural ": 8255,
      "adop": 8256,
      "atory ": 8257,
      "concep": 8258,
      "Ca": 8259,
      ". On": 8260,
      "ville ": 8261,
      "sun": 8262,
      ". Follow": 8263,
      "south": 8264,
      "Florid": 8265,
      "ar , ": 8266,
      "got ": 8267,
      ". As a ": 8268,
      "front ": 8269,
      "Tor": 8270,
      "es \" ": 8271,
      "ush ": 8272,
      "High ": 8273,
      "Victor": 8274,
      "that they ": 8275,
      "host": 8276,
      "finished ": 8277,
      "Christian ": 8278,
      "yr": 8279,
      "ted a ": 8280,
      "inch": 8281,
      "prison": 8282,
      "have a ": 8283,
      "err": 8284,
      "3 – ": 8285,
      "legal ": 8286,
      "Ir": 8287,
      "in 197": 8288,
      "Lu": 8289,
      "respectively ": 8290,
      "initial ": 8291,
      "Ap": 8292,
      "sey ": 8293,
      "e to ": 8294,
      "tainment ": 8295,
      "ounding ": 8296,
      "ton": 8297,
      "flight ": 8298,
      "Bay ": 8299,
      "ban": 8300,
      "ico ": 8301,
      "fifth ": 8302,
      ". In addition ": 8303,
      "yet ": 8304,
      "Fi": 8305,
      "environ": 8306,
      "asp": 8307,
      "Edward ": 8308,
      "ate , ": 8309,
      "self @-@ ": 8310,
      "parti": 8311,
      "strong": 8312,
      "Red ": 8313,
      "House ": 8314,
      "dy ": 8315,
      "favor": 8316,
      "engag": 8317,
      "elected ": 8318,
      "according to ": 8319,
      "abil": 8320,
      "conven": 8321,
      "necess": 8322,
      "published ": 8323,
      "onds ": 8324,
      "adul": 8325,
      "fell ": 8326,
      "Route ": 8327,
      "Spanish ": 8328,
      "or the ": 8329,
      "regard": 8330,
      "Emp": 8331,
      "get": 8332,
      "evidence ": 8333,
      "deb": 8334,
      "ans , ": 8335,
      "mel": 8336,
      ". During ": 8337,
      "associated ": 8338,
      "saf": 8339,
      "was the first ": 8340,
      "produced ": 8341,
      "a . \n": 8342,
      "dru": 8343,
      "altern": 8344,
      "research ": 8345,
      "create ": 8346,
      "written by ": 8347,
      "and M": 8348,
      "lov": 8349,
      "private ": 8350,
      "hard ": 8351,
      "distinc": 8352,
      "Brig": 8353,
      "because of ": 8354,
      "termin": 8355,
      "er was ": 8356,
      "aily ": 8357,
      "Roman ": 8358,
      "scienti": 8359,
      "ional ": 8360,
      ". In 200": 8361,
      "Chicago ": 8362,
      "ster": 8363,
      "of its ": 8364,
      "vehic": 8365,
      "numerous ": 8366,
      "thy ": 8367,
      "developed ": 8368,
      "Canadian ": 8369,
      "space ": 8370,
      "prev": 8371,
      "Queen ": 8372,
      "Times ": 8373,
      "ward": 8374,
      "promis": 8375,
      "ucle": 8376,
      "norm": 8377,
      "NA ": 8378,
      "ty , ": 8379,
      "press ": 8380,
      "shown ": 8381,
      "tons ": 8382,
      "students ": 8383,
      "theat": 8384,
      "most of the ": 8385,
      "Pacific ": 8386,
      "finally ": 8387,
      "Jew": 8388,
      "premi": 8389,
      "ump": 8390,
      "classi": 8391,
      "37 ": 8392,
      "three @-@ ": 8393,
      "lav": 8394,
      "of which ": 8395,
      "aught ": 8396,
      "Billboard ": 8397,
      "fact ": 8398,
      "test ": 8399,
      "said that ": 8400,
      " P": 8401,
      "ation was ": 8402,
      ". Her ": 8403,
      "Georg": 8404,
      "citi": 8405,
      "ates , ": 8406,
      "but the ": 8407,
      ". From ": 8408,
      "pun": 8409,
      "lack of ": 8410,
      "2015 ": 8411,
      "since the ": 8412,
      "limited ": 8413,
      "inten": 8414,
      "sim": 8415,
      "cred": 8416,
      ". She was ": 8417,
      "Day ": 8418,
      "going ": 8419,
      "Company ": 8420,
      "German": 8421,
      "radio ": 8422,
      "er @-@ ": 8423,
      "es from ": 8424,
      "e , \" ": 8425,
      "selected ": 8426,
      "largely ": 8427,
      "there were ": 8428,
      "adium ": 8429,
      "land , ": 8430,
      "upper ": 8431,
      "an inter": 8432,
      "os Angel": 8433,
      "ership ": 8434,
      "side of the ": 8435,
      "wanted to ": 8436,
      "e \" ": 8437,
      "archit": 8438,
      "United Kingdom ": 8439,
      ". Its ": 8440,
      "Dis": 8441,
      "imag": 8442,
      "Ev": 8443,
      "on 's ": 8444,
      "acting ": 8445,
      "ial": 8446,
      "arg": 8447,
      "back to ": 8448,
      ". Two ": 8449,
      "a , and ": 8450,
      "Russian ": 8451,
      "Tra": 8452,
      "ept ": 8453,
      "broadcast ": 8454,
      "ient ": 8455,
      "mom": 8456,
      "woman ": 8457,
      "clim": 8458,
      "ym": 8459,
      "keep ": 8460,
      "something ": 8461,
      "32 ": 8462,
      "ath ": 8463,
      ". An": 8464,
      "ating the ": 8465,
      "Grou": 8466,
      "c ": 8467,
      "habit": 8468,
      "influenc": 8469,
      "ress": 8470,
      "Ot": 8471,
      "Atlantic ": 8472,
      "established ": 8473,
      "seas": 8474,
      "crow": 8475,
      "Kar": 8476,
      "produce ": 8477,
      "rating ": 8478,
      "bodi": 8479,
      "lines ": 8480,
      "on and ": 8481,
      "rick ": 8482,
      "wind ": 8483,
      "sched": 8484,
      "s ' ": 8485,
      "directly ": 8486,
      "plans ": 8487,
      "Council ": 8488,
      "Alex": 8489,
      "critical ": 8490,
      "conflic": 8491,
      "God ": 8492,
      " N": 8493,
      "was \" ": 8494,
      "ine , ": 8495,
      "efore ": 8496,
      "ed out ": 8497,
      "conver": 8498,
      "of D": 8499,
      "sen ": 8500,
      "purpos": 8501,
      "total of ": 8502,
      "elements ": 8503,
      "know": 8504,
      "2004 ": 8505,
      "claim ": 8506,
      "say ": 8507,
      "ting the ": 8508,
      "siz": 8509,
      "aband": 8510,
      "newsp": 8511,
      "famil": 8512,
      "experience ": 8513,
      "bot": 8514,
      "nation": 8515,
      "1 – ": 8516,
      "coming ": 8517,
      "pul": 8518,
      "album , ": 8519,
      "professional ": 8520,
      "members of the ": 8521,
      "vice ": 8522,
      "spl": 8523,
      "osaur": 8524,
      "contem": 8525,
      "Tre": 8526,
      ". Despite ": 8527,
      "keep": 8528,
      "nel ": 8529,
      "thes": 8530,
      "bility ": 8531,
      "Grand ": 8532,
      "it 's ": 8533,
      "es for ": 8534,
      "Minist": 8535,
      "Eg": 8536,
      "ry": 8537,
      "approv": 8538,
      "36 ": 8539,
      "ers ' ": 8540,
      "e of the ": 8541,
      "wall ": 8542,
      "Championship ": 8543,
      "ance of ": 8544,
      "fight ": 8545,
      "gradu": 8546,
      "asc": 8547,
      "depression ": 8548,
      "aint ": 8549,
      "oti": 8550,
      "primary ": 8551,
      "ret ": 8552,
      "influence ": 8553,
      "Ke": 8554,
      "scored ": 8555,
      "ible ": 8556,
      "was re": 8557,
      "response ": 8558,
      "eding ": 8559,
      "yards ": 8560,
      "Peter ": 8561,
      "mm ) ": 8562,
      "enant ": 8563,
      "actions ": 8564,
      "bly ": 8565,
      "cli": 8566,
      "sound": 8567,
      "river ": 8568,
      "Mill": 8569,
      "Gar": 8570,
      "caused ": 8571,
      "zz": 8572,
      "edic": 8573,
      "following the ": 8574,
      "individual ": 8575,
      "Britain ": 8576,
      "s , including ": 8577,
      "Central ": 8578,
      "cross": 8579,
      "agon": 8580,
      "hip ": 8581,
      "groups ": 8582,
      ") , the ": 8583,
      "wall": 8584,
      "traditional ": 8585,
      "ray ": 8586,
      "member of the ": 8587,
      "poor ": 8588,
      "winning ": 8589,
      "wa": 8590,
      "pre @-@ ": 8591,
      "thir": 8592,
      "language ": 8593,
      "commander ": 8594,
      "rout": 8595,
      "m , ": 8596,
      "al of ": 8597,
      "to make ": 8598,
      "released in ": 8599,
      "ened ": 8600,
      "Im": 8601,
      "Europe ": 8602,
      "s on ": 8603,
      "Wat": 8604,
      "Mex": 8605,
      "th @-@ ": 8606,
      "All": 8607,
      "session ": 8608,
      "films ": 8609,
      "Gam": 8610,
      "a S": 8611,
      "phas": 8612,
      "Highway ": 8613,
      "day": 8614,
      "one @-@ ": 8615,
      "actor ": 8616,
      "promin": 8617,
      "and B": 8618,
      "wind": 8619,
      "It ": 8620,
      "confirm": 8621,
      "ights ": 8622,
      "park ": 8623,
      "organis": 8624,
      "feature ": 8625,
      "Carol": 8626,
      "igan ": 8627,
      "in 195": 8628,
      "attend": 8629,
      "of The ": 8630,
      "'s \" ": 8631,
      "weight ": 8632,
      "market ": 8633,
      "din": 8634,
      "bal": 8635,
      "think ": 8636,
      "a . The ": 8637,
      "kilomet": 8638,
      "point": 8639,
      "tru": 8640,
      "Station ": 8641,
      "oods ": 8642,
      "edit": 8643,
      "everal ": 8644,
      "traff": 8645,
      "of \" ": 8646,
      "Martin ": 8647,
      "lie ": 8648,
      "Oper": 8649,
      "mental ": 8650,
      "33 ": 8651,
      "here ": 8652,
      "explo": 8653,
      "transfer": 8654,
      ", in ": 8655,
      "for the first ": 8656,
      "Del": 8657,
      "Recor": 8658,
      "ranked ": 8659,
      "score ": 8660,
      "direct ": 8661,
      "fiel": 8662,
      "was an ": 8663,
      "Game ": 8664,
      "uck": 8665,
      "artist ": 8666,
      "double ": 8667,
      "standard ": 8668,
      "Italian ": 8669,
      "mig": 8670,
      "wife ": 8671,
      "Lord ": 8672,
      "verse ": 8673,
      "operations ": 8674,
      "well @-@ ": 8675,
      "study ": 8676,
      "unable to ": 8677,
      "One ": 8678,
      "hour ": 8679,
      "rd ": 8680,
      "impres": 8681,
      "highly ": 8682,
      "on October ": 8683,
      "Ara": 8684,
      "determin": 8685,
      "as it ": 8686,
      "e of a ": 8687,
      "ingu": 8688,
      "troops ": 8689,
      "nearby ": 8690,
      "up the ": 8691,
      "DV": 8692,
      "stand ": 8693,
      "at the time ": 8694,
      "know ": 8695,
      "pressure ": 8696,
      "sail": 8697,
      "Cath": 8698,
      "eut": 8699,
      "ety of ": 8700,
      "accompan": 8701,
      "voice ": 8702,
      "Clar": 8703,
      "commission": 8704,
      "valu": 8705,
      "k of ": 8706,
      "years , ": 8707,
      "& ": 8708,
      "Zeal": 8709,
      "look ": 8710,
      "incorpor": 8711,
      "syst": 8712,
      "ers of the ": 8713,
      "Tran": 8714,
      "fighting ": 8715,
      "on August ": 8716,
      "Studi": 8717,
      "bour": 8718,
      "38 ": 8719,
      "one , ": 8720,
      "bury ": 8721,
      "pop ": 8722,
      "Soci": 8723,
      "minor ": 8724,
      "detail": 8725,
      "Democ": 8726,
      "castle ": 8727,
      "middle ": 8728,
      "ollow ": 8729,
      "Second ": 8730,
      "annual ": 8731,
      "qual": 8732,
      "Pen": 8733,
      "th centur": 8734,
      "neigh": 8735,
      "Inf": 8736,
      "ashi": 8737,
      "syl": 8738,
      "related ": 8739,
      "Sing": 8740,
      "install": 8741,
      "ket": 8742,
      "intell": 8743,
      "ell , ": 8744,
      "numb": 8745,
      "letter ": 8746,
      "ers ( ": 8747,
      "depar": 8748,
      "and L": 8749,
      "Rh": 8750,
      "ation for ": 8751,
      "extrem": 8752,
      "minute ": 8753,
      "ano ": 8754,
      "smaller ": 8755,
      "New Zeal": 8756,
      "fans ": 8757,
      "° ": 8758,
      "experienc": 8759,
      "uses ": 8760,
      "hood ": 8761,
      "placed ": 8762,
      "attempt to ": 8763,
      "Johnson ": 8764,
      "Fri": 8765,
      "sh ": 8766,
      "cruis": 8767,
      "expan": 8768,
      "deliver": 8769,
      "refl": 8770,
      "Man ": 8771,
      "had to ": 8772,
      "ae ": 8773,
      "echan": 8774,
      "below ": 8775,
      "uck ": 8776,
      "his first ": 8777,
      ". Many ": 8778,
      "G ": 8779,
      "ander ": 8780,
      "build ": 8781,
      ". However , the ": 8782,
      "2010 , ": 8783,
      "mid": 8784,
      "defeat ": 8785,
      "killed ": 8786,
      "Mer": 8787,
      "that she ": 8788,
      "s for ": 8789,
      "Phil": 8790,
      "Sci": 8791,
      "formed ": 8792,
      "stitution ": 8793,
      "out of the ": 8794,
      "maxim": 8795,
      "effect ": 8796,
      "threat": 8797,
      "try": 8798,
      "group": 8799,
      "twenty ": 8800,
      "49 ": 8801,
      "was to ": 8802,
      "journ": 8803,
      "weal": 8804,
      "stating ": 8805,
      "ady ": 8806,
      "olic ": 8807,
      "rest of the ": 8808,
      "3rd ": 8809,
      "siv": 8810,
      "Rail": 8811,
      "hospit": 8812,
      "dance ": 8813,
      "epart": 8814,
      "resulting ": 8815,
      "eway ": 8816,
      "responsible ": 8817,
      "with her ": 8818,
      "yz": 8819,
      "Mur": 8820,
      "some of the ": 8821,
      "Si": 8822,
      "pal": 8823,
      "in this ": 8824,
      "4 – ": 8825,
      "will be ": 8826,
      "emo": 8827,
      "inch ": 8828,
      "of their ": 8829,
      "fru": 8830,
      "Dar": 8831,
      "ena ": 8832,
      ". The": 8833,
      "nucle": 8834,
      "Mark ": 8835,
      "48 ": 8836,
      "opin": 8837,
      "ica ": 8838,
      "shoo": 8839,
      "friends ": 8840,
      "oil ": 8841,
      "legisl": 8842,
      "access ": 8843,
      "religious ": 8844,
      "tivi": 8845,
      "\" , \" ": 8846,
      "whole ": 8847,
      "across ": 8848,
      "Er": 8849,
      " K": 8850,
      "positions ": 8851,
      "pursu": 8852,
      "cust": 8853,
      "Hom": 8854,
      "of T": 8855,
      "led by ": 8856,
      "i 's ": 8857,
      "gi": 8858,
      "@-@ up ": 8859,
      "ize ": 8860,
      "separate ": 8861,
      "ino ": 8862,
      "repe": 8863,
      "winds ": 8864,
      "Texas ": 8865,
      "information ": 8866,
      ". Both ": 8867,
      "embl": 8868,
      "from his ": 8869,
      "demon": 8870,
      "eigh": 8871,
      "media ": 8872,
      "schol": 8873,
      "for its ": 8874,
      "Maj": 8875,
      "appe": 8876,
      "paid ": 8877,
      "ant to ": 8878,
      "Go": 8879,
      "eter": 8880,
      "Hal": 8881,
      "pair ": 8882,
      "cerem": 8883,
      "On": 8884,
      "see": 8885,
      "morning ": 8886,
      "trade ": 8887,
      "55 ": 8888,
      "ez": 8889,
      "Pan": 8890,
      "Fle": 8891,
      "wil": 8892,
      "ed their ": 8893,
      "web": 8894,
      "game , ": 8895,
      "ance , ": 8896,
      "ed as the ": 8897,
      "liament ": 8898,
      "47 ": 8899,
      "ty": 8900,
      "Lake ": 8901,
      "pay ": 8902,
      "Ru": 8903,
      "Hot ": 8904,
      "Sea ": 8905,
      "primar": 8906,
      "asion ": 8907,
      "ations of ": 8908,
      "low": 8909,
      "6 @.@ ": 8910,
      "teams ": 8911,
      "hou": 8912,
      "ity , ": 8913,
      "impro": 8914,
      "economic ": 8915,
      "male ": 8916,
      "s , a ": 8917,
      "help": 8918,
      "antasy ": 8919,
      "Hill ": 8920,
      "ed for the ": 8921,
      "story": 8922,
      "dead ": 8923,
      "in and ": 8924,
      "en and ": 8925,
      "year @-@ ": 8926,
      "plot ": 8927,
      "took place ": 8928,
      "Cast": 8929,
      "after a ": 8930,
      "rights ": 8931,
      "Squadron ": 8932,
      "2011 , ": 8933,
      "30": 8934,
      "chem": 8935,
      "hav": 8936,
      "Bow": 8937,
      "Mich": 8938,
      "chester ": 8939,
      "for \" ": 8940,
      "portun": 8941,
      "hu": 8942,
      "lem ": 8943,
      "retary ": 8944,
      "compet": 8945,
      "respond": 8946,
      "400 ": 8947,
      "ightly ": 8948,
      "passed ": 8949,
      "Depart": 8950,
      "titled ": 8951,
      "referred to ": 8952,
      "rely ": 8953,
      "pass ": 8954,
      "failed to ": 8955,
      "net ": 8956,
      "deal ": 8957,
      "both the ": 8958,
      "Cros": 8959,
      "Chris ": 8960,
      "Commit": 8961,
      "Stev": 8962,
      "on their ": 8963,
      "ograp": 8964,
      "led to ": 8965,
      "bound ": 8966,
      "eutenant ": 8967,
      "in order to ": 8968,
      "them to ": 8969,
      ": The ": 8970,
      "Court ": 8971,
      "Phili": 8972,
      "er ( ": 8973,
      "thel": 8974,
      "combat ": 8975,
      "minutes ": 8976,
      "ed its ": 8977,
      "science ": 8978,
      "39 ": 8979,
      "Jack ": 8980,
      "acted ": 8981,
      "constructed ": 8982,
      "ipl": 8983,
      "African ": 8984,
      "stop ": 8985,
      "start ": 8986,
      "FA ": 8987,
      "quarters ": 8988,
      "result ": 8989,
      "competition ": 8990,
      "atin ": 8991,
      "for their ": 8992,
      "ation . \n": 8993,
      "shire ": 8994,
      "ator": 8995,
      "fill": 8996,
      "ette ": 8997,
      "actually ": 8998,
      "buildings ": 8999,
      "audience ": 9000,
      "each other ": 9001,
      "Greek ": 9002,
      "encoun": 9003,
      "continue ": 9004,
      "Mis": 9005,
      "thous": 9006,
      "opportun": 9007,
      "hours ": 9008,
      "itz": 9009,
      "; he ": 9010,
      "2000 ": 9011,
      "relatively ": 9012,
      "! ": 9013,
      "Hous": 9014,
      "debu": 9015,
      "; and ": 9016,
      "exhi": 9017,
      ". That ": 9018,
      "gave the ": 9019,
      "last": 9020,
      "greater ": 9021,
      "ull": 9022,
      "susp": 9023,
      "appar": 9024,
      "directed by ": 9025,
      "ecaus": 9026,
      "visit": 9027,
      "moved to ": 9028,
      "increase ": 9029,
      "of her ": 9030,
      "Bas": 9031,
      "Egyp": 9032,
      "plant ": 9033,
      "Brown ": 9034,
      "primarily ": 9035,
      "ope ": 9036,
      "cording to the ": 9037,
      "Big ": 9038,
      "particular ": 9039,
      "Arch": 9040,
      ": the ": 9041,
      "Don": 9042,
      "2003 ": 9043,
      "rid": 9044,
      ". All ": 9045,
      "ids ": 9046,
      "chief ": 9047,
      "Gir": 9048,
      "shap": 9049,
      "model ": 9050,
      "stream ": 9051,
      "wick": 9052,
      "Sk": 9053,
      "attention ": 9054,
      "network ": 9055,
      "mixed ": 9056,
      "Viet": 9057,
      "peaked ": 9058,
      "in the first ": 9059,
      "ted to the ": 9060,
      "financial ": 9061,
      "helped ": 9062,
      "95 ": 9063,
      "seem": 9064,
      "should be ": 9065,
      "kind ": 9066,
      "ied ": 9067,
      "starting ": 9068,
      "prin": 9069,
      "ha ": 9070,
      "College ": 9071,
      "depend": 9072,
      "award ": 9073,
      "received a ": 9074,
      "course ": 9075,
      "launch": 9076,
      "chos": 9077,
      "pool ": 9078,
      "ce": 9079,
      "weak": 9080,
      "185": 9081,
      "group of ": 9082,
      "extended ": 9083,
      "olu": 9084,
      "sell ": 9085,
      ". Their ": 9086,
      "hus": 9087,
      "it to ": 9088,
      "slightly ": 9089,
      "the same ": 9090,
      "graph": 9091,
      "metres ( ": 9092,
      "Gran": 9093,
      "hir": 9094,
      "Canada ": 9095,
      "Infantry ": 9096,
      "ing of the ": 9097,
      "producer ": 9098,
      "mechan": 9099,
      "multiple ": 9100,
      "in H": 9101,
      "strateg": 9102,
      "symb": 9103,
      "attempted to ": 9104,
      "portray": 9105,
      "remain ": 9106,
      "uty ": 9107,
      "in 17": 9108,
      "torped": 9109,
      "e of his ": 9110,
      "died ": 9111,
      "ultimately ": 9112,
      "ayl": 9113,
      "high @-@ ": 9114,
      "65 ": 9115,
      "chap": 9116,
      "flow": 9117,
      "collabor": 9118,
      "abe": 9119,
      "concent": 9120,
      "completely ": 9121,
      "passeng": 9122,
      "sens": 9123,
      "potential ": 9124,
      "psy": 9125,
      "ark": 9126,
      "Old ": 9127,
      "Academ": 9128,
      "\" ) ": 9129,
      "ed into ": 9130,
      "operation ": 9131,
      "capital ": 9132,
      "joined the ": 9133,
      "practice ": 9134,
      "ara ": 9135,
      "table ": 9136,
      ". Most ": 9137,
      "recomm": 9138,
      "ers . \n": 9139,
      "ny ": 9140,
      "ural ": 9141,
      ". Ad": 9142,
      "status ": 9143,
      "sought ": 9144,
      "takes ": 9145,
      "manu": 9146,
      "other": 9147,
      "ogue ": 9148,
      "Love ": 9149,
      "suppl": 9150,
      "tin": 9151,
      "volum": 9152,
      "India ": 9153,
      "Mr": 9154,
      "source ": 9155,
      "au ": 9156,
      "tillery ": 9157,
      "forced to ": 9158,
      "k and ": 9159,
      "maximum ": 9160,
      "bra": 9161,
      "in T": 9162,
      "report ": 9163,
      "Penn": 9164,
      "erate ": 9165,
      "enjoy": 9166,
      "May": 9167,
      "along": 9168,
      "mainly ": 9169,
      "2012 , ": 9170,
      "described the ": 9171,
      "ales ": 9172,
      "activi": 9173,
      "led the ": 9174,
      "d , ": 9175,
      "Sam": 9176,
      "royal ": 9177,
      "advis": 9178,
      "alleg": 9179,
      "minim": 9180,
      "today ": 9181,
      "acu": 9182,
      "tournam": 9183,
      "Simp": 9184,
      "coast": 9185,
      "Fed": 9186,
      "the most ": 9187,
      "prevent ": 9188,
      "college ": 9189,
      "could not ": 9190,
      "length ": 9191,
      "meeting ": 9192,
      "there are ": 9193,
      "fish": 9194,
      "vess": 9195,
      "or and ": 9196,
      "Mary ": 9197,
      "Arm": 9198,
      "moving ": 9199,
      "na ": 9200,
      "miss": 9201,
      "industry ": 9202,
      "da ": 9203,
      "mouth ": 9204,
      "independent ": 9205,
      "NA": 9206,
      "energy ": 9207,
      "draw ": 9208,
      "successfully ": 9209,
      "34 ": 9210,
      "traffic ": 9211,
      "drawn ": 9212,
      "ully ": 9213,
      "46 ": 9214,
      "i and ": 9215,
      "issue ": 9216,
      "water": 9217,
      ". Another ": 9218,
      "Steph": 9219,
      "seg": 9220,
      "sively ": 9221,
      "xford ": 9222,
      "ship , ": 9223,
      "ight": 9224,
      "ison ": 9225,
      "consec": 9226,
      "subst": 9227,
      "( the ": 9228,
      "encour": 9229,
      "do not ": 9230,
      "sav": 9231,
      "meet ": 9232,
      "wrot": 9233,
      "- ": 9234,
      "Mel": 9235,
      "film 's ": 9236,
      "fran": 9237,
      "themselves ": 9238,
      "mph ( ": 9239,
      "Bre": 9240,
      "entary ": 9241,
      "perf": 9242,
      "cot": 9243,
      ". Since ": 9244,
      "iel ": 9245,
      "ratic ": 9246,
      "ing her ": 9247,
      "peopl": 9248,
      "inking ": 9249,
      "boat ": 9250,
      "hard": 9251,
      "sn": 9252,
      "ro ": 9253,
      "industri": 9254,
      "movie ": 9255,
      "ment , ": 9256,
      "coach ": 9257,
      "struck ": 9258,
      "UK ": 9259,
      "sust": 9260,
      "world": 9261,
      "ae": 9262,
      "winter ": 9263,
      "touch": 9264,
      "Final ": 9265,
      "ink": 9266,
      "uals ": 9267,
      "widely ": 9268,
      "for her ": 9269,
      "overs ": 9270,
      "mess": 9271,
      "older ": 9272,
      "which the ": 9273,
      "trad": 9274,
      "Dut": 9275,
      "ipal ": 9276,
      "on July ": 9277,
      ". The song ": 9278,
      "ois ": 9279,
      "tel": 9280,
      "suffered ": 9281,
      "cyclone ": 9282,
      "igg": 9283,
      "towards the ": 9284,
      "Group ": 9285,
      "to @-@ ": 9286,
      "abandon": 9287,
      "stories ": 9288,
      "havi": 9289,
      "My ": 9290,
      "expos": 9291,
      "recent ": 9292,
      "foreign ": 9293,
      "Il": 9294,
      "specific ": 9295,
      "captain ": 9296,
      "conditions ": 9297,
      "man , ": 9298,
      "greatest ": 9299,
      "yan ": 9300,
      "declin": 9301,
      "affected ": 9302,
      "Sup": 9303,
      "shortly ": 9304,
      "alry ": 9305,
      "Smith ": 9306,
      "subsequent ": 9307,
      "that is ": 9308,
      "pret": 9309,
      "ya ": 9310,
      "voic": 9311,
      "communic": 9312,
      "which is ": 9313,
      "Earth ": 9314,
      "We ": 9315,
      "selling ": 9316,
      "blood ": 9317,
      "gen ": 9318,
      "friend": 9319,
      ". If ": 9320,
      "kept ": 9321,
      "battles": 9322,
      "O '": 9323,
      "192": 9324,
      "5 @.@ ": 9325,
      "es with ": 9326,
      "designated ": 9327,
      "of P": 9328,
      "MS ": 9329,
      "Youn": 9330,
      "rative ": 9331,
      "spac": 9332,
      "insul": 9333,
      "property ": 9334,
      "Arth": 9335,
      "Entertainment ": 9336,
      "11": 9337,
      "feel": 9338,
      "size ": 9339,
      "urg": 9340,
      "as he ": 9341,
      "officially ": 9342,
      "ans": 9343,
      "sylvan": 9344,
      "unit ": 9345,
      "invasion ": 9346,
      "manager ": 9347,
      "CA": 9348,
      "alty ": 9349,
      "estival ": 9350,
      "laid ": 9351,
      "ings and ": 9352,
      "Stor": 9353,
      "like the ": 9354,
      "recover": 9355,
      "naval ": 9356,
      "twel": 9357,
      "stated that ": 9358,
      "ability to ": 9359,
      "mass ": 9360,
      ". By the ": 9361,
      "there was ": 9362,
      "however ": 9363,
      "Empire ": 9364,
      "host ": 9365,
      ", while ": 9366,
      "acts ": 9367,
      "miral ": 9368,
      "transl": 9369,
      "Sim": 9370,
      "performanc": 9371,
      "benef": 9372,
      "records ": 9373,
      "bridg": 9374,
      "peak ": 9375,
      "China ": 9376,
      "ears ": 9377,
      "tax": 9378,
      "ills ": 9379,
      "follow ": 9380,
      "long @-@ ": 9381,
      "Battalion ": 9382,
      "goals ": 9383,
      "floo": 9384,
      "weather ": 9385,
      "circ": 9386,
      "NH": 9387,
      "2001 ": 9388,
      "prop": 9389,
      "activity ": 9390,
      "ored ": 9391,
      "eath ": 9392,
      "Ste": 9393,
      "meant ": 9394,
      "2 ) ": 9395,
      "Ram": 9396,
      "Team ": 9397,
      "your ": 9398,
      "powerful ": 9399,
      "il , ": 9400,
      "advance ": 9401,
      "batter": 9402,
      "west": 9403,
      "makes ": 9404,
      "Year ": 9405,
      "behavi": 9406,
      "Prince ": 9407,
      "ahead ": 9408,
      "square ": 9409,
      "leaving ": 9410,
      "rich ": 9411,
      "restor": 9412,
      "es , the ": 9413,
      "Princ": 9414,
      "approach ": 9415,
      "oke ": 9416,
      "challeng": 9417,
      "hot": 9418,
      "advant": 9419,
      "this time ": 9420,
      "Stan": 9421,
      "slow": 9422,
      "mine ": 9423,
      "term": 9424,
      "div": 9425,
      "nin": 9426,
      "featured ": 9427,
      "Chil": 9428,
      "ia and ": 9429,
      "screen ": 9430,
      "etic ": 9431,
      "resist": 9432,
      "Dun": 9433,
      "fication ": 9434,
      "negoti": 9435,
      "ers . The ": 9436,
      "ization ": 9437,
      "surpris": 9438,
      "nic": 9439,
      "companies ": 9440,
      "guns ": 9441,
      "Ire": 9442,
      "rot": 9443,
      "cher ": 9444,
      "his own ": 9445,
      "Test ": 9446,
      "dedic": 9447,
      "tionary ": 9448,
      "broke ": 9449,
      "Los Angel": 9450,
      "or to the ": 9451,
      "made a ": 9452,
      "41 ": 9453,
      "an \" ": 9454,
      "la ": 9455,
      "described ": 9456,
      "ishop ": 9457,
      "Comm": 9458,
      "log": 9459,
      "problems ": 9460,
      " E": 9461,
      "Haw": 9462,
      "complex ": 9463,
      "which he ": 9464,
      "four @-@ ": 9465,
      "acquir": 9466,
      "facil": 9467,
      "600 ": 9468,
      "Madonn": 9469,
      "metal ": 9470,
      "nominated ": 9471,
      "const": 9472,
      "federal ": 9473,
      "ography ": 9474,
      "engine ": 9475,
      "Bor": 9476,
      "sle": 9477,
      "enemy ": 9478,
      "things ": 9479,
      "Sun": 9480,
      "43 ": 9481,
      "ga": 9482,
      "band 's ": 9483,
      "impl": 9484,
      "Doc": 9485,
      ", was ": 9486,
      "heavily ": 9487,
      "as they ": 9488,
      "perial ": 9489,
      "Ri": 9490,
      "on November ": 9491,
      "dark ": 9492,
      "rule ": 9493,
      "ulf ": 9494,
      "version of the ": 9495,
      "agreement ": 9496,
      "schedul": 9497,
      "puter ": 9498,
      "bon": 9499,
      "ents , ": 9500,
      "who were ": 9501,
      "brief": 9502,
      "provided ": 9503,
      "gri": 9504,
      "Luc": 9505,
      "center ": 9506,
      "og ": 9507,
      "44 ": 9508,
      "lack": 9509,
      "eph ": 9510,
      "sli": 9511,
      "Leg": 9512,
      "Captain ": 9513,
      "counc": 9514,
      "quality ": 9515,
      "to \" ": 9516,
      "lic": 9517,
      "described as ": 9518,
      "peror ": 9519,
      "ing for ": 9520,
      "Whit": 9521,
      "Creek ": 9522,
      "Cra": 9523,
      ". Ar": 9524,
      "Croati": 9525,
      "border ": 9526,
      "damag": 9527,
      "sign ": 9528,
      "Jackson ": 9529,
      "danc": 9530,
      "travel": 9531,
      "necessary ": 9532,
      "phil": 9533,
      "call ": 9534,
      "arity ": 9535,
      "prominent ": 9536,
      "New Zealand ": 9537,
      "train ": 9538,
      "brary ": 9539,
      "chestr": 9540,
      "physical ": 9541,
      "ers in ": 9542,
      "U ": 9543,
      "mol": 9544,
      "as a \" ": 9545,
      "range of ": 9546,
      "load": 9547,
      "contemporary ": 9548,
      "% of the ": 9549,
      "promot": 9550,
      "Scotland ": 9551,
      "equip": 9552,
      "aim": 9553,
      "ticle ": 9554,
      "mark ": 9555,
      "executive ": 9556,
      "'re ": 9557,
      ". In a ": 9558,
      "effective ": 9559,
      "2013 , ": 9560,
      "of these ": 9561,
      "X ": 9562,
      "elim": 9563,
      "Shi": 9564,
      "Rock ": 9565,
      "neu": 9566,
      "Center ": 9567,
      "techni": 9568,
      "wel": 9569,
      "guitar ": 9570,
      "ram": 9571,
      "\" T": 9572,
      "girl": 9573,
      "5th ": 9574,
      "Fox ": 9575,
      "variety of ": 9576,
      ". As the ": 9577,
      "Florida ": 9578,
      "ests ": 9579,
      "wing ": 9580,
      "Corps ": 9581,
      "onto ": 9582,
      "on its ": 9583,
      "7 @.@ ": 9584,
      "10 , ": 9585,
      "tac": 9586,
      "used for ": 9587,
      "county ": 9588,
      "matter ": 9589,
      "phere ": 9590,
      "dang": 9591,
      "wound": 9592,
      "in her ": 9593,
      "ustr": 9594,
      "Sol": 9595,
      "Sir ": 9596,
      "includes ": 9597,
      "Awards ": 9598,
      "cost": 9599,
      "tered ": 9600,
      "toward ": 9601,
      "Gal": 9602,
      "die ": 9603,
      "less than ": 9604,
      "ado ": 9605,
      "Kh": 9606,
      "it the ": 9607,
      "tified ": 9608,
      "feel ": 9609,
      "85 ": 9610,
      "based on the ": 9611,
      "ius ": 9612,
      "ski ": 9613,
      "inem": 9614,
      "farm": 9615,
      "ople ": 9616,
      "but": 9617,
      "their own ": 9618,
      "capac": 9619,
      "turn": 9620,
      "quarter ": 9621,
      "Gol": 9622,
      "returning ": 9623,
      "ation to ": 9624,
      "com ": 9625,
      ", D": 9626,
      "ist of ": 9627,
      "room": 9628,
      "regul": 9629,
      "Fleet ": 9630,
      "How": 9631,
      "second": 9632,
      "Hall ": 9633,
      "4th ": 9634,
      "words ": 9635,
      "Commun": 9636,
      "concert ": 9637,
      "citiz": 9638,
      "avoid ": 9639,
      "Sum": 9640,
      "15 , ": 9641,
      "result of ": 9642,
      "ask ": 9643,
      "ea , ": 9644,
      "worth ": 9645,
      "praised the ": 9646,
      "example , ": 9647,
      "ricket ": 9648,
      "eball ": 9649,
      "marriage ": 9650,
      ", and a ": 9651,
      "ess and ": 9652,
      "objec": 9653,
      "allowed ": 9654,
      "deep ": 9655,
      " When ": 9656,
      "true ": 9657,
      ", it ": 9658,
      "ation in ": 9659,
      "Fort ": 9660,
      "ming ": 9661,
      "42 ": 9662,
      "ades ": 9663,
      "rainf": 9664,
      "categ": 9665,
      "predic": 9666,
      "expe": 9667,
      "Ben": 9668,
      "develop ": 9669,
      "first @-@ ": 9670,
      "passing ": 9671,
      "usual ": 9672,
      "icient ": 9673,
      "eal ": 9674,
      "retain": 9675,
      ". \" In ": 9676,
      "post @-@ ": 9677,
      "Hel": 9678,
      "said , \" ": 9679,
      "shows ": 9680,
      "ease ": 9681,
      "( A": 9682,
      "books ": 9683,
      "thu": 9684,
      "there is ": 9685,
      "heard ": 9686,
      "modi": 9687,
      "Battle of ": 9688,
      "th century , ": 9689,
      "content ": 9690,
      "assaul": 9691,
      "historian ": 9692,
      "oud ": 9693,
      "2009 , ": 9694,
      "Pic": 9695,
      "in 's ": 9696,
      "Dev": 9697,
      "grand": 9698,
      "Civ": 9699,
      "medical ": 9700,
      "es , but ": 9701,
      ". But ": 9702,
      "stood ": 9703,
      "scoring ": 9704,
      "on June ": 9705,
      "supp": 9706,
      "Bat": 9707,
      "politic": 9708,
      "experim": 9709,
      "bey": 9710,
      "debuted ": 9711,
      "earned ": 9712,
      "Jus": 9713,
      "were not ": 9714,
      "becoming ": 9715,
      "cav": 9716,
      "Museum ": 9717,
      "M @-@ ": 9718,
      " , who ": 9719,
      "Sar": 9720,
      "counter": 9721,
      "150 ": 9722,
      "inches ( ": 9723,
      "herself ": 9724,
      "St ": 9725,
      "fish ": 9726,
      "marine ": 9727,
      "summ": 9728,
      "stag": 9729,
      "ings of ": 9730,
      "inal ": 9731,
      "resc": 9732,
      "fit": 9733,
      "used in ": 9734,
      "frequently ": 9735,
      "mu": 9736,
      ", and was ": 9737,
      "Stone ": 9738,
      "offer": 9739,
      "Boston ": 9740,
      "mast": 9741,
      "tion and ": 9742,
      "health ": 9743,
      "are the ": 9744,
      "instruc": 9745,
      "foot ": 9746,
      "simp": 9747,
      "big ": 9748,
      "student ": 9749,
      "BBC ": 9750,
      "bom": 9751,
      "ty @-@ ": 9752,
      "Latin ": 9753,
      "analys": 9754,
      "9 @.@ ": 9755,
      "damaged ": 9756,
      "64 ": 9757,
      "and T": 9758,
      "tropical storm ": 9759,
      "nit": 9760,
      "offensive ": 9761,
      "lem": 9762,
      "Northern ": 9763,
      "cod": 9764,
      "had not ": 9765,
      "guest ": 9766,
      "typically ": 9767,
      "Club ": 9768,
      ", which was ": 9769,
      "ingham ": 9770,
      "seconds ": 9771,
      "gian ": 9772,
      "simply ": 9773,
      "3 @,@ ": 9774,
      "ockey ": 9775,
      "artillery ": 9776,
      "embly ": 9777,
      "Sun ": 9778,
      "egr": 9779,
      "sam": 9780,
      "adver": 9781,
      ". Several ": 9782,
      "job ": 9783,
      "of R": 9784,
      "emphas": 9785,
      "Holl": 9786,
      "deriv": 9787,
      "manufac": 9788,
      "transi": 9789,
      "Film ": 9790,
      "eful ": 9791,
      "and its ": 9792,
      "scale ": 9793,
      "step": 9794,
      "Harrison ": 9795,
      "singer ": 9796,
      "% of ": 9797,
      "North": 9798,
      "ve": 9799,
      "supply ": 9800,
      "14 , ": 9801,
      "chosen ": 9802,
      "reference ": 9803,
      "says ": 9804,
      "or \" ": 9805,
      "ting to ": 9806,
      "kg ": 9807,
      "Colon": 9808,
      "itable ": 9809,
      "tried to ": 9810,
      "adel": 9811,
      "annel ": 9812,
      "Spec": 9813,
      "if the ": 9814,
      ". Later ": 9815,
      "house": 9816,
      "travel ": 9817,
      "ootball ": 9818,
      "clusion ": 9819,
      "soldiers ": 9820,
      "majority ": 9821,
      "over a ": 9822,
      "Chief ": 9823,
      "architec": 9824,
      "consecutive ": 9825,
      "ted by the ": 9826,
      "Ob": 9827,
      "pap": 9828,
      "expand": 9829,
      "cen": 9830,
      "northeast ": 9831,
      "all @-@ ": 9832,
      "participated ": 9833,
      "severe ": 9834,
      ". When the ": 9835,
      "stopp": 9836,
      "e , and the ": 9837,
      "sent": 9838,
      "ally , ": 9839,
      "Oxford ": 9840,
      "famous ": 9841,
      "fast ": 9842,
      "native ": 9843,
      "type ": 9844,
      "newly ": 9845,
      "1 , the ": 9846,
      "and D": 9847,
      "parents ": 9848,
      "Me": 9849,
      "Ven": 9850,
      "mas ": 9851,
      "Southern ": 9852,
      "ed with a ": 9853,
      "and other ": 9854,
      "elimin": 9855,
      "phi": 9856,
      "attribu": 9857,
      "oughly ": 9858,
      "constitu": 9859,
      "Columb": 9860,
      "2002 ": 9861,
      "grew ": 9862,
      "40": 9863,
      "promp": 9864,
      "Camp": 9865,
      "West": 9866,
      "deep": 9867,
      "railway ": 9868,
      "burg": 9869,
      "is now ": 9870,
      "Austri": 9871,
      "attach": 9872,
      "subject ": 9873,
      "may have ": 9874,
      "reason ": 9875,
      "was born ": 9876,
      "ren ": 9877,
      "billion ": 9878,
      "shir": 9879,
      "onc": 9880,
      "Ath": 9881,
      "pping ": 9882,
      "8 @.@ ": 9883,
      "announced that ": 9884,
      "ani ": 9885,
      "symp": 9886,
      "that a ": 9887,
      "Parliament ": 9888,
      "16 , ": 9889,
      "sister ": 9890,
      "mm ( ": 9891,
      "rein": 9892,
      "apol": 9893,
      "lec": 9894,
      "blue ": 9895,
      "refused to ": 9896,
      "eter ": 9897,
      "similar to ": 9898,
      "collap": 9899,
      "attrac": 9900,
      "istr": 9901,
      "sex ": 9902,
      "would not ": 9903,
      "married ": 9904,
      "parall": 9905,
      "senior ": 9906,
      "city of ": 9907,
      "( \" ": 9908,
      "gent": 9909,
      "return to ": 9910,
      "sixth ": 9911,
      "time of ": 9912,
      "leader ": 9913,
      "giving ": 9914,
      "ton , ": 9915,
      "conserv": 9916,
      "not to ": 9917,
      "cause ": 9918,
      "Str": 9919,
      "ac ": 9920,
      "roman": 9921,
      "setting ": 9922,
      "surround": 9923,
      "brig": 9924,
      "beat ": 9925,
      "crimin": 9926,
      "album 's ": 9927,
      "assign": 9928,
      "fic ": 9929,
      "DVD ": 9930,
      "drive ": 9931,
      "gain": 9932,
      "perform ": 9933,
      "es , which ": 9934,
      "rical ": 9935,
      "Association ": 9936,
      "s , and the ": 9937,
      "alone ": 9938,
      "Scottish ": 9939,
      "contrast ": 9940,
      "pas": 9941,
      "Polish ": 9942,
      "Cr": 9943,
      "y was ": 9944,
      "Dutch ": 9945,
      "contains ": 9946,
      "birds ": 9947,
      "Christi": 9948,
      "bud": 9949,
      "Act ": 9950,
      " During the ": 9951,
      "gard": 9952,
      "ricul": 9953,
      "stitute ": 9954,
      "as well as the ": 9955,
      "pilot ": 9956,
      "cut": 9957,
      "requi": 9958,
      "enz": 9959,
      "lizabe": 9960,
      "circul": 9961,
      "I 'm ": 9962,
      "left the ": 9963,
      "loy": 9964,
      "assum": 9965,
      "mention": 9966,
      "dated ": 9967,
      "edg": 9968,
      "university ": 9969,
      "in K": 9970,
      "ed , \" ": 9971,
      "were also ": 9972,
      "All @-@ ": 9973,
      "machine ": 9974,
      "evacu": 9975,
      "in 190": 9976,
      ". This was ": 9977,
      "possibly ": 9978,
      "man 's ": 9979,
      "Cy": 9980,
      "ts ( ": 9981,
      "load ": 9982,
      "street ": 9983,
      "Jon": 9984,
      "of K": 9985,
      "acher ": 9986,
      "oppon": 9987,
      "match": 9988,
      "amount of ": 9989,
      "regist": 9990,
      "Eastern ": 9991,
      "ugg": 9992,
      "@-@ inch ": 9993,
      "horse ": 9994,
      "2008 , ": 9995,
      "officials ": 9996,
      "opposition ": 9997,
      "kill ": 9998,
      "leg ": 9999,
      "wher": 10000,
      "alism ": 10001,
      "on May ": 10002,
      "X @-@ ": 10003,
      "oo ": 10004,
      "broken ": 10005,
      "currently ": 10006,
      "judg": 10007,
      "to R": 10008,
      "Frank ": 10009,
      "half @-@ ": 10010,
      "to take ": 10011,
      "ized the ": 10012,
      "edition ": 10013,
      "script ": 10014,
      "designed ": 10015,
      "authority ": 10016,
      "es to the ": 10017,
      "Dre": 10018,
      "doll": 10019,
      "execu": 10020,
      "intens": 10021,
      "Pennsylvan": 10022,
      "Allied ": 10023,
      "beyond ": 10024,
      "form of ": 10025,
      "bound": 10026,
      "s , with ": 10027,
      "distance ": 10028,
      "means ": 10029,
      "equipment ": 10030,
      "der of the ": 10031,
      "where it ": 10032,
      "Manchester ": 10033,
      "draft ": 10034,
      "threat ": 10035,
      "year @-@ old ": 10036,
      "Green ": 10037,
      "uel ": 10038,
      "US $ ": 10039,
      "km / h ) ": 10040,
      "town": 10041,
      "ument ": 10042,
      "during a ": 10043,
      "antine ": 10044,
      "Tom ": 10045,
      "Gil": 10046,
      "death": 10047,
      "don 't ": 10048,
      "mob": 10049,
      " Ac": 10050,
      "defend": 10051,
      "Que": 10052,
      "Fantasy ": 10053,
      "problem ": 10054,
      "convinc": 10055,
      "ture , ": 10056,
      "rain": 10057,
      "slow ": 10058,
      "intellig": 10059,
      "looking ": 10060,
      "Sil": 10061,
      "cm ( ": 10062,
      "als and ": 10063,
      "negative ": 10064,
      "Bob": 10065,
      "amed ": 10066,
      "for an ": 10067,
      "Tour ": 10068,
      "tions and ": 10069,
      "milli": 10070,
      "landing ": 10071,
      "becomes ": 10072,
      "ented ": 10073,
      "gros": 10074,
      " Although ": 10075,
      "Mass": 10076,
      "in ( ": 10077,
      "because the ": 10078,
      "one of the most ": 10079,
      "tom ": 10080,
      "society ": 10081,
      "restric": 10082,
      "pay": 10083,
      "mission": 10084,
      "difficult ": 10085,
      "cell": 10086,
      "nor ": 10087,
      "1999 ": 10088,
      "through a ": 10089,
      ". There are ": 10090,
      "0 , the ": 10091,
      "mic": 10092,
      "briefly ": 10093,
      "perman": 10094,
      "colum": 10095,
      "work , ": 10096,
      "had the ": 10097,
      "will": 10098,
      "write ": 10099,
      "saying ": 10100,
      "ka ": 10101,
      "meet": 10102,
      "centre ": 10103,
      "merg": 10104,
      "civil ": 10105,
      "song \" ": 10106,
      "1 @,@ 000 ": 10107,
      "stars ": 10108,
      "diam": 10109,
      ") , a ": 10110,
      "clo": 10111,
      "ero ": 10112,
      "Lif": 10113,
      "edom ": 10114,
      "receive ": 10115,
      "ywood ": 10116,
      "ley , ": 10117,
      "idly ": 10118,
      "18 , ": 10119,
      "Records ": 10120,
      "Direc": 10121,
      "Coll": 10122,
      "11 , ": 10123,
      "ledg": 10124,
      "ori": 10125,
      "historical ": 10126,
      "Americans ": 10127,
      "extensive ": 10128,
      "ans and ": 10129,
      ". Becaus": 10130,
      "B @-@ ": 10131,
      "ts were ": 10132,
      "5 , the ": 10133,
      "surren": 10134,
      "@-@ based ": 10135,
      "specific": 10136,
      "championship ": 10137,
      "eous ": 10138,
      "twelve ": 10139,
      "trying to ": 10140,
      "victor": 10141,
      "Des": 10142,
      "Som": 10143,
      "oss": 10144,
      "watch": 10145,
      "12 , ": 10146,
      "17 , ": 10147,
      "animals ": 10148,
      "Vol": 10149,
      "urch": 10150,
      "was built ": 10151,
      "engine": 10152,
      "Far": 10153,
      "eanwhil": 10154,
      "mind ": 10155,
      "northwest ": 10156,
      "it \" ": 10157,
      "Republic ": 10158,
      "y \" ": 10159,
      "ideas ": 10160,
      "Pu": 10161,
      "correc": 10162,
      "spon": 10163,
      "has also ": 10164,
      "dram": 10165,
      "writers ": 10166,
      "management ": 10167,
      "charge ": 10168,
      "outside ": 10169,
      "hands ": 10170,
      "artment ": 10171,
      "caught ": 10172,
      "basis ": 10173,
      "injury ": 10174,
      "spr": 10175,
      "squadron ": 10176,
      "focus ": 10177,
      "Service ": 10178,
      "seat ": 10179,
      "tap": 10180,
      "urban ": 10181,
      ", but the ": 10182,
      "76 ": 10183,
      "stay ": 10184,
      "Catholic ": 10185,
      "as part of ": 10186,
      "adj": 10187,
      "Gard": 10188,
      "to play ": 10189,
      "village ": 10190,
      "erly ": 10191,
      "film , ": 10192,
      "es on ": 10193,
      "published in ": 10194,
      "Young ": 10195,
      "itation ": 10196,
      "ardi": 10197,
      "Swed": 10198,
      "My": 10199,
      "2007 , ": 10200,
      "no longer ": 10201,
      "husband ": 10202,
      "entered the ": 10203,
      "kl": 10204,
      "Spain ": 10205,
      "intended to ": 10206,
      "purchas": 10207,
      "sexual ": 10208,
      "2 , the ": 10209,
      "Avenue ": 10210,
      "background ": 10211,
      "jus": 10212,
      "styl": 10213,
      "consol": 10214,
      "franch": 10215,
      "New York City ": 10216,
      "to be a ": 10217,
      "Jes": 10218,
      "nature ": 10219,
      "ray": 10220,
      "alongside ": 10221,
      "residents ": 10222,
      "serious ": 10223,
      "2014 , ": 10224,
      "arc": 10225,
      "Sur": 10226,
      "measur": 10227,
      "Paris ": 10228,
      "aid": 10229,
      "ival": 10230,
      "enter ": 10231,
      "forms ": 10232,
      "von ": 10233,
      "found in ": 10234,
      ". , ": 10235,
      "Joseph ": 10236,
      "fought ": 10237,
      "ror ": 10238,
      "arding ": 10239,
      "astr": 10240,
      "es ' ": 10241,
      "Valley ": 10242,
      "Football ": 10243,
      "lad": 10244,
      "Jam": 10245,
      "end the ": 10246,
      "officer ": 10247,
      "United States , ": 10248,
      "Committee ": 10249,
      "W ": 10250,
      "urther ": 10251,
      "recall": 10252,
      "tle ": 10253,
      "us and ": 10254,
      "ubb": 10255,
      "BC": 10256,
      " Follow": 10257,
      "years of ": 10258,
      "expansion ": 10259,
      "fellow ": 10260,
      "episode , ": 10261,
      "sport": 10262,
      "deploy": 10263,
      "girl ": 10264,
      "growing ": 10265,
      "Jim ": 10266,
      "Mul": 10267,
      "patter": 10268,
      "atom": 10269,
      "ilian ": 10270,
      "4 , the ": 10271,
      "such a ": 10272,
      "Regiment ": 10273,
      "3 , the ": 10274,
      "@-@ yard ": 10275,
      "Hear": 10276,
      "teach": 10277,
      "figure ": 10278,
      "li ": 10279,
      "made the ": 10280,
      "bin": 10281,
      "in September ": 10282,
      "rey ": 10283,
      "Line ": 10284,
      "isi": 10285,
      "resulted ": 10286,
      "champ": 10287,
      "they had ": 10288,
      "Series ": 10289,
      "area of ": 10290,
      "reserv": 10291,
      "rainfall ": 10292,
      "Cub": 10293,
      "s , who ": 10294,
      "Rock": 10295,
      "applic": 10296,
      "ports ": 10297,
      "series , ": 10298,
      "sky ": 10299,
      "commonly ": 10300,
      "q ": 10301,
      "Victoria ": 10302,
      "13 , ": 10303,
      "his father ": 10304,
      "ett ": 10305,
      "Michigan ": 10306,
      "AF": 10307,
      "Africa ": 10308,
      "protected ": 10309,
      "1998 ": 10310,
      "connected ": 10311,
      "spread ": 10312,
      "Bridge ": 10313,
[...]
